#version: 0.2
Ġ Ġ
t h
Ġ :
Ġ a
i n
o r
a t
Ġ (
Ġ th
e r
Ġ â
Ġ b
Ġ -
o n
e n
a l
Ġ s
ĠĠ Ġ
Ġth e
Ġ =
Ġ p
Ġ $
o f
Ċ Ċ
e s
o p
Ġ h
Ġ c
Ġ +
Ġ \
l e
i s
t i
a r
a n
r o
Ġ f
Ġ- -
Ġ m
Ġ of
Ġ t
Ġ n
m p
Ġ: =
Ġ R
Ġ *
Ġ r
Ġa n
â Ĥ
e t
Ġb y
Ġ x
v e
i mp
a c
Ġ e
Ġâ Ī
Ġ d
Ġâ Ħ
Ġ w
) Ċ
Ġ in
i g
or t
Ġ is
Ġan d
ti on
imp ort
Ġ A
o l
u m
e al
Ġ T
r e
Ġp ro
Ġ B
q u
l i
in g
ĠR eal
Ġh a
e m
e d
t s
o s
e g
Ġt o
Ġ /
Ġ le
Ġ N
Ġ M
r i
p er
a th
t b
ĠâĦ Ŀ
ĠĠ ĠĠ
s et
Ġpro of
o g
Ġm a
e ar
Ġha ve
Ġ <
ĠâĪ §
or s
or em
Ġ y
Ġ l
ĠN at
u s
Ġma x
Ġth at
Ġ Ċ
u n
e orem
e at
i r
th eorem
op tion
eat s
at ors
op en
ĠM ath
ol og
li b
olog y
ĠR at
es op
O per
ĠT op
_ option
H ear
ĠB ig
ĠMath lib
ĠA esop
tb eats
Ġmax Hear
ĠmaxHear tbeats
ĠTop ology
Oper ators
ĠBig Operators
Ġâ ī
i v
t e
a s
e c
Ġ\ (
r ac
_ p
Ġ i
en d
an g
$ ,
r y
Ġe x
er s
o w
i d
at i
u l
} {
âĤ ģ
f rac
c e
_ n
or ry
Ġs orry
Ġ g
Ġn um
en t
Ġ$ \
i th
Ġ F
Ġ C
Ġa re
Ġ S
Ġnum b
- -
h e
Ġ on
a d
Ġ end
} $
Ġ v
l y
o m
Ġ k
Ġin t
Ġ [
ig h
c h
b o
ĠĠ ĠĠĠ
Ġf or
s q
u r
o in
ac t
eg in
r t
âĤ Ĥ
Ġâ Ĩ
o k
sq rt
_ w
o t
ĠâĦ ķ
igh t
_ s
or k
ati on
Ġa t
Ġw h
l l
) ,
Ġ >
Ġw ith
in e
Ġb egin
s t
Ġc on
Ġle t
Ġ P
iv en
_ {
] Ċ
i t
er e
bo ok
Ġex act
/ Ċ
Ġ: Ċ
_w ork
ĠâĨ Ĵ
_work book
Ġle an
m e
^ {
Ġnumb er
Ġe qu
) )
r a
Ġ I
c t
/ --
} \
Ġb e
$ .
Ġr w
in d
Ġp oin
f t
l us
G iven
Ġ- /Ċ
a y
ĠT he
ang le
Ġ\ )
âĤ Ģ
Ġâī ¤
v er
i c
g e
at e
( x
a b
te x
u e
is t
_ c
or m
i ti
_p lus
e qu
l es
ĠâĪ Ģ
Ġs t
ac h
Ġ/ -
Ġv al
Ġc o
ĊĊ Ċ
Ġp os
) ^
ir c
a in
c tion
- /
) $
r ight
Ġth en
qu ad
Ġ {
_n um
Ġn orm
Ġs u
Ġ o
w o
. sqrt
i m
f f
t al
Ġ |
u t
Ġ W
Ġto tal
ĠĠĠĠ ĠĠĠĠ
al c
{ (
_ d
Ġ z
ĠĠ Ċ
Ġ Â
es s
Ġ D
e l
ro m
ir st
ri angle
Ġp er
Ġb o
en ce
\ )
er m
Ġf un
Ġâī ł
Ġd i
Ġr ing
ĠI f
Ġs um
Ġ E
Ġa ll
Ġa s
Ġpoin t
o ur
ar e
Ġe ach
_ _
Ġf rom
Ġt wo
e q
ĠF in
Ġ or
en ts
âĤ ĥ
Ġha s
Ġs id
Ġnumb ers
en g
s e
Ġ H
Ġval ue
Ġfun ction
. Ċ
o un
a m
Ġequ ation
iti ve
Ġc an
ĠÂ ·
eng th
Ġ Î
Ġint eg
ti c
tex tb
textb f
i tion
ec t
u b
_ m
p e
it y
â Ī
i l
Ġ Given
Ġc irc
Ġpos itive
ar d
Ġequ al
Ġw e
Ġi f
p p
ro w
Ġp ar
Ġd ist
p i
Ġp l
Ġs h
Ġm an
le ft
Ġon e
ang e
Ġâī ¥
i on
Ġt riangle
Ġl ine
b le
ĠW h
B C
' s
_ t
Ġr es
o d
\ _
an d
ĠT h
alc ul
Ġ j
al l
u d
p h
re e
) }\
Ġ L
Ġs qu
q quad
Ġth is
p r
Ġc h
o ver
Ġsu ch
Ġwh ere
Ġpoin ts
ĠâĪ ĥ
a g
, Ċ
mp le
Â ²
s in
on d
Ġ$ (
Ġs equ
t y
Ġ q
Ġman y
es t
_ l
v al
Ġl in
or e
u ct
ĠâĪ Ī
Ġf irst
o ts
Ġs imp
} $,
Ġd iv
as e
Ġr eal
m ath
_ eq
Ġan g
Ġi t
Ġsequ ence
oun t
e f
Ġ ro
Ġpro ve
Ġ un
Ġc os
c os
Ġ ti
in al
_p os
f y
# #
an t
a ge
Ġ( -
ol l
Ġm in
Ġl ength
ro ve
t ain
an ce
u p
Ġh e
Ġ us
ĠWh at
ĠĠĠĠ ĠĠĠ
$ Ċ
} +
ĠF ind
_ f
Ġf ind
Ġare a
Ġt erm
th er
c d
n eg
Ġwh i
o c
Ġth an
alcul ate
Ġp r
Ġcirc le
* x
Ġf i
ĠâĦ ļ
ar ith
a k
i ts
) /
Ġth ere
Ġn e
te p
Ġr e
at er
as s
_ r
ay s
Ġfor m
d d
os e
ri ce
Ġint ro
ff er
Ġ _
Ġ( âĪ
Ġ O
tex t
u te
ar row
pe ed
ul ar
as t
on e
u g
c c
Ġs a
ĠFin set
Ġsqu are
Ã Ĺ
Ġa pp
ec ond
ol d
i ble
; Ċ
right arrow
Ġth ree
) .
Ġa l
us t
_ of
im um
: Ċ
Ġ\ \
or d
l og
âĤ Ħ
Ġsid e
Ġn ot
ĠP rove
om e
_ per
equ al
Ġs et
ti ve
ĠH ow
as es
Ġdi ffer
a x
pr ess
ri c
Ġi ts
over rightarrow
i es
Ġcon st
on g
\_ \_
Ġang le
T he
Ġan y
ĠâĪ ¨
} =
m es
R eal
math b
i ll
u tion
un d
ug h
Ġint ers
t er
Ġ ^
Ġ ÃĹ
p ec
_n on
w e
ot al
{ \
u es
Ġsid es
Ġ .
f l
ar y
Ġ( (
i al
Ġ %
_ b
oll ow
at is
I n
Ġin c
ati o
Ġinteg er
Ġf ollow
er o
Ġinteg ers
p ro
Ġ= >
} ,
Ġs econd
Ġwhi ch
Ġs e
$ \
Ġs atis
i li
al le
* (
ĠC alculate
Ġ li
r ange
Ġm ust
Ġlin arith
we en
et ween
iti al
ar t
Ċ ĠĠĊ
v en
Ġbo th
_non neg
h ow
Ġcon d
Ġd o
et erm
i z
_ in
$ ĊĊ
c ent
m ent
ol ution
Ġb etween
Ġt ra
. I
Ġcond ition
an s
Ġst ud
) =
L et
Ġr em
ĠF irst
e x
. pi
id e
Ġterm s
u re
an e
b s
ra w
__ __
r uct
Ġ\ ),
Ġ quad
Ġc om
Ġv er
} }{
ĠÎ ±
ĠĠĠĠ Ċ
v es
}$ .
ili ty
le q
ĠF or
ri me
Ġin equal
mple x
ac k
}$ Ċ
c irc
b ab
ĠS et
Ġm e
ĠS how
Ġd ig
Ġ }
ĠI n
ft er
Ġm ul
Ġt r
Ġval ues
. range
a ir
eterm ine
Ġh our
Ġ\) .
re ct
Ġres ul
\ ),
Ġequal s
Ċ ĠĠĠĠĊ
_s um
Ġr ight
Ġn on
ad i
bab ility
Ġpr op
Ġsa me
ow n
) )Ċ
A B
Ġint er
) $,
Ġwh en
is ts
el d
ĠL et
Ġpro d
Ġs ome
Â ł
Ġp ol
Ġc alc
oin t
Ġfollow ing
? -/
Ġ "
Ġ ,
ph a
Ġex press
s ible
} -
ro ugh
( -
Ġdist ance
\ textbf
Ġg iven
al pha
p end
et er
( \
k s
Ġs tep
os t
Ġs m
_n f
ec tion
_ a
et a
Ġti me
Ġco mp
ch o
ĠâĪ§ Ċ
pro of
Ġ ##
ff ic
Ġs peed
Ġconst ruct
li fy
_p ro
Ġdiv is
Ġw as
Ġa m
ac e
b y
{ a
ĠC o
ĠâĪ ĳ
s um
_s imp
al ly
âĤ ħ
o us
ĠA BC
ati ve
cd ot
Ġint o
Ġs in
Ġf inal
Ġ U
Ġ Q
z ero
Ġinequal ity
mathb b
Ġth rough
Ġf our
Ġfi eld
i te
Ġc ol
ge q
alle l
Ġpos sible
/ (
Ġpro bability
Ġw ill
ffic i
me tic
i p
a p
Ġ$\ {
Ġs olution
Ġe l
on s
Ġstud ents
Ġcos t
Ġo ther
ab le
Ġthe ir
Ġapp ly
et ric
Ġ &
Ġc or
ĠâĦ ¤
Ġm ore
Ġa r
l ine
Ġt ak
er tain
ri th
Ġthe se
Ġ G
Ġwh at
Ġr atio
rith metic
pec tive
I f
Ġt ri
Ġor ig
Ġr fl
ord in
adi us
. -/
_ g
Ġc l
- /Ċ
Ġc ertain
Ġres pective
Ġin itial
i f
Ġy ear
ti t
Ġb l
A BC
m m
Ġr ect
* *
â Ł
Ġp ass
Ġsh ow
Ġle ft
Ġa rithmetic
Ġs he
ti p
Ġ J
at es
Ġs q
_ val
ã Ģ
ol a
Ġc ent
Ġd ec
Ġp rice
ar g
Ġrespective ly
ĠĠĠĠĠĠĠĠ ĠĠĠĠĠĠĠĠ
ag on
Ġs c
Ġon ly
d ots
âŁ ©
ver age
= \
ãĢ Ģ
Ġg re
v ing
Ġh y
Ġconstruct or
Ġexact ly
Ġh is
Ġâ Ł
Ġ\( \
ar es
ĠâŁ ¨
Ġh ow
ti me
_ le
Ġle ast
u c
Ġdiv id
) $.
d frac
Ġcon s
Ġquad r
Ġexpress ion
Ġcon t
om ial
Ġdiffer ent
Ġpol y
? Ċ
F in
ati c
li p
Ï Ģ
ation s
} ^{
c ard
\ right
Ġ(âĪ Ģ
\ [
are a
$ (
Ġs y
Ġ$ -
Ġus ing
Ġa dd
) ;Ċ
T h
Ġmax imum
i ve
Ġd ef
Ġpl ane
_p rice
) --
ri b
Ġm on
) (
Ġâ Ģ
act or
Ġex p
re as
Ġresul t
i ff
m on
ĠâĨ Ķ
et ers
en s
ble m
Ġa verage
-- --
is h
} }
Ġb ase
Ġr ange
^ (
Ġmin imum
Ġus e
Ġn o
_ re
k e
ir d
Ġne ed
Ġa bs
en c
\ qquad
Ġdo es
Ġw ork
{ x
ain ing
ĠE x
Ġex ists
Ġ X
_m ul
_l t
d er
ater al
t riangle
Ġsatis fy
Ġg ra
Ġt ang
Ġa fter
_ area
is c
F ind
Ġ ve
p os
Ġc ub
ĠTh en
Ġm o
r op
Ġm ar
Ġco ordin
{ b
ĠW e
Ġprod uct
)/ (
i ce
+ \
ti mes
Ġd ay
ri x
Ġ V
Ġg et
Ġp i
Ġm id
ĠTh ere
om b
Ġs eg
Ġdig its
Ġr adius
ĠâĪ ļ
l ant
ĠÂ ¬
_ time
Ġm i
r ad
Ġs p
Âł Âł
Ġthe orem
imp lify
Ġr ed
Ġthe y
Ġt e
_d iv
} Ċ
in ed
Ġlin es
Ġti mes
m ents
Ġper cent
\ }$
. log
. ĊĊ
Ġ\\ (
Ġp e
Ġhour s
c ases
ut es
ver y
h a
y s
Ġp air
Ġ op
+ b
k et
ad d
ĠA B
Ġcon tain
âĤ Ĩ
Ġpl ay
iz e
ffici ent
l dots
id th
{ R
Ġk n
Ġb ut
Ġh er
lip se
W h
_d ist
s lant
at rix
en ti
ch es
Ġmul tip
ur n
Ġsu b
Ġd raw
â Ĩ
.I cc
ic ular
pend icular
" ,
ar i
. .
Ġd ays
Ġr eg
Ġsqu ares
ul d
Ġver tic
Ġb all
) \
oin ts
n omial
in ct
ĠĠĠĠ ĠĠĠĠĠ
Ġd en
Ġh x
* a
* y
_ zero
_l ength
Ġc ur
Ġ qu
ĠC on
t otal
ec ts
ol um
_ bo
â Ģ
Ġcent er
rac tion
) ^{
Ġrem aining
f ies
Ġcom mon
Ġf e
_r ate
â ĳ
_c ount
ĠS implify
ang les
Ġr ate
)-- (
tit ute
pr es
## Ċ
op le
Ġthe m
( a
at ur
Ġtang ent
d ay
b egin
ĠÎ ¸
ab el
ĠCo mplex
Ġr ec
. sin
Ġve ct
Ġl ess
ar s
_t otal
le ct
ra m
ĠS tep
Ġorig inal
Ġam ount
âĨ Ĳ
Ġprop er
Ġpar allel
om etric
w er
Ġel lipse
e ll
Ġ[ âĨĲ
oun d
Ġun its
les t
Ġa bo
n ing
Î ±
Ġang les
p oint
}+ \
Ġtra in
^ n
over line
\ sqrt
Fin set
Ġin s
ig it
ol ve
_ one
re d
Ġ up
Ġ K
olum e
\ left
Ġd id
A C
- \
_n eg
Ġo dd
Ġsatis fies
\) .
_c on
Ġe very
}$ ĊĊ
s ub
c l
ow er
Ġmin utes
Ġper pendicular
^ \
_c ost
ĠU se
Ġf raction
reas ing
Ġw ere
Ġe ven
Ġdist inct
ĠS ub
Ġr el
), Ċ
u ch
Ġg e
ft y
Ġinter val
Ġe q
cho ose
_ h
Ġa x
ĠâĪ £
_s peed
Ġne w
Ġdiffer ence
Ġh old
Ġcor rect
Ġbo x
Ġre pres
at ed
âĤ Ļ
N at
al f
( (
ĠÎ ²
ro up
ard s
Ġpe ople
( "
Ġp rime
Ġgra ph
e k
ud e
Ġ ____
t ers
in fty
Ġst at
Ġro ots
al lest
Ġpoly nomial
Ġquadr atic
s s
id er
a me
ĠB C
ĠD etermine
^{ \
p m
n d
. card
Ġtr ue
Ġinters ection
ĠâĨĴ Ċ
Ġs o
Ġhe ight
- d
, -
er iv
o or
os ition
Ġvertic es
Ġl arg
al e
Ġsm allest
al s
n e
mathb f
ec ess
Ġan s
ĠC omb
Ġo ut
Ġd isc
r m
Ġin d
. $
ax is
Ġn atur
Ġ Y
Ġ$ |
Ġnatur al
Ġyear s
ti es
Ġco un
Ġf l
of it
ĠComb ine
l in
ul a
âĪ ļ
Ġch o
Ġbo ok
Ġge ometric
Ġdivis ible
ith er
math rm
Ġinters ects
ex p
em ent
Ġl og
li c
* b
le d
âĤ ĩ
, \
b er
f ore
Ġth ird
ri d
t an
l s
o uld
ĠTh is
. cos
l abel
cd ots
Ġdivid ed
Ġb u
} )
m in
ĠH e
Ġco e
v i
Ġsm all
? ĊĊ
Ġrect angle
( n
Ġ row
h n
ind er
\_\_ \_\_
at or
Ġco mplex
st em
i an
) ĊĊ
ĠE ach
[ /
$. -/
Ġinters ect
ab ola
Ġl ong
and om
i x
Ġor der
w h
_ add
ĠSub s
_r atio
d raw
Ġm eters
Ġst art
l op
Â °
Ġseg ment
Ġa c
) }
Ġans wer
. mp
v ers
Ġe d
+ y
$. Ċ
Ġa d
an ts
Ġdig it
_ iff
Ġt w
th eta
Ġ u
im eter
Ġmi les
y c
Ġ(âĪ ĳ
Ġpi ec
Ġco mple
Ġg roup
m ul
rad ic
Ġh alf
ĠWh en
. f
ecess ary
Ġr andom
Ġc ar
- neg
Ġli es
Ġk m
Ġhold s
ĠSubs titute
âŁ© Ċ
_t wo
t ing
Ġpar abola
Ġc m
Ġe le
Ġmon th
p ar
ĠA C
_ k
\ in
Ġm uch
Ġmid point
r ang
Ġc ases
Ġf oc
ig n
) *(
ra y
cho ol
Ġw ater
Ġt an
alcul ation
Ġex ist
n ot
Ġcondition s
+ c
t ra
c rib
Ġsy stem
ri l
. s
Ġcl ass
Ġse ll
Ġwh o
F or
_ left
t t
_val ue
u mp
i qu
re ction
Ġdi agon
} (
ers on
Ġg o
il d
}\ )
Ġp re
Ġver tex
b eta
Ġkn own
, $
Ġtri angles
Ġc oin
\ ]
Ġpar t
em ents
$ -/
Ġabo ut
i ch
per b
ĠEx press
one y
f orm
Ġha d
y pe
Ġform ula
o u
Ġfe et
Ġcub e
radic tion
Ġd e
Ġf actor
iti es
ĠB egin
$ -
i e
Ġpercent age
Ġun it
Ġv olume
-d igit
f un
Ġwe ek
re es
Ġbl ue
Ġo b
: ĊĊ
am eter
r u
Ġcirc um
ic k
Ġequation s
Ġo ver
Wh at
Ġcol or
perb ola
Ġcur ve
Ġs al
leq slant
crib ed
Ġrepres ent
âĤ Ī
h x
## ĊĊ
Ġcom b
c o
_bo und
Ġdi rection
ril ateral
s o
Ġv ari
â Ħ
Ġcoordin ates
ang ular
c m
ĠI t
ro ss
Ġz ero
. choose
_ e
Ġd eg
Ġw ri
Ġw in
r es
$ ;
p l
Ġs pec
_ right
Ġ\ [
)) ;Ċ
Ġdef ined
pos ite
g es
in ite
Ġprop osition
m a
d ef
Ġball s
{ cases
ag es
Ġ$ [
ĠâĢ ¢
if ic
_ A
\ }$,
Ġpr ofit
_ th
č Ċ
( A
Ġo ur
t o
re ase
y mm
_ y
Ġtw ice
is e
Ġhy perbola
Ġpass es
h b
Ġal so
u an
n er
o th
_pro blem
Ġgre ater
Ġcirc les
o ut
Ġma in
Ġcoun t
ĠP ro
Ġop posite
Ġp a
Ġwe ight
Ġ(âĪ ĥ
_ x
u tive
ABC D
_ v
_s t
Ġf act
Ġquad rilateral
lop e
âĢ ĸ
Ġp erson
Ġs chool
{ pm
)) )
Ġresul ts
Ġtak es
Ġcont radiction
Ġse lect
oc k
{pm atrix
{ }
Ġn eg
l t
ac es
fl oor
/ x
Ġin ches
o ther
al se
Ġm od
Ġro ot
^ x
ri end
- x
Ġsu fficient
t rac
Ġper imeter
Ġtra ve
iqu e
_w e
Ġvect ors
i od
_s qu
Ġlarg est
Ġtak e
ab s
im al
Ġtr ans
\ \
Ġr un
ĠN ow
+ a
ec utive
Ġcoordin ate
)$ Ċ
Ġreg ular
ect or
d iv
Ġrem a
_ ro
) **
Ġl ast
u al
am es
ĠM ain
Ġcho ose
ation al
Ġsatisfy ing
Ġconst ant
Ġd eriv
at ch
) ;
ĠC h
Ġte am
Ġâī ¡
$. ĊĊ
Ġlength s
w ays
ĠFin al
Ġfi ve
Ġsy mm
ĠP rop
Ġdisc ount
i ly
_per cent
ĠS he
ĠI s
ĠA n
Ġc alculate
n eq
om in
/ -
Ġd etermine
Ġpair s
_s ub
ar ge
P rove
_dist ance
_ B
_m in
Ġa ge
ion s
ter n
, b
Ġbook s
\ \)
wh ere
$ ",
\ pi
r on
ĠâĢ ĸ
Ġme an
Ġh b
âĤ ī
/ a
Â ³
irc le
Ġdraw n
c es
u pp
Ġme as
Ġcan d
u ction
Ġn ecessary
eg a
, y
lin arith
Ġpro ves
Ġ____ __
cl ude
Ġval id
Ġy uan
Ġinc reasing
Ġy our
t ed
Ġcons ecutive
h ip
-neg ative
Ġpro blem
Ġw ays
Ġrema inder
Ġc ards
{ {
ĠĠĠĠĠĠĠĠ ĠĠĠ
i a
as y
. m
Ġm oney
$ ?
(" $
ĠR s
i ed
Ġproper ty
l n
ĠâĨ ¦
et urn
) *
x ed
_ i
C D
Ġb as
Ġs ur
en er
l ing
$ $Ċ
Ġwh ose
Ġal ways
Ġr cases
x t
{ N
Ġd oll
b r
Ġcon c
Ġe ither
ugh t
Ġset s
Ġst and
_c o
h ed
Ġpos ition
ak e
Ġin v
d e
ĠĠĠĠ ĠĠ
Ġtri p
Ġsu bs
' '
_ ex
el f
Ġwhi te
Ġcontain s
_pro d
val u
u ce
_n e
Ġw idth
ur ing
Ġsc or
}{ \
ĠâĦ Ĥ
Ġsimp lify
Ġstep s
ce les
_ sq
Ġam ong
os celes
â ģ
o b
Ġbo und
{ y
Ġorig in
ĠE nd
Ġr equ
Ġf riend
Ġp ur
k ing
Ġel se
Ġs old
p ow
iv es
A D
Ġbl ack
ar ray
Ġg ame
ons ider
Ġrec e
Ġar rang
v ity
Ġ\ ]Ċ
ĠS t
ĠIn t
p t
Ġpass ing
). ĊĊ
Ġform ed
o od
tion s
} x
/ h
=\ {
l ish
)$ ĊĊ
_m od
Ġsolution s
r ent
ad s
)^ (
Ġ Ï
tic ket
om ega
Ġb is
o te
{ array
} |
Ġas s
. exp
u ts
Ġob tain
us e
g on
x y
)= \
ĠA fter
* c
Ġof f
/ >
Ġ Z
Ġn linarith
Ġe ar
Ġma ke
Ġm ed
Ġs ix
D etermine
a mple
il ter
. P
( B
ic al
Ġw al
Ġl oc
a v
ot t
ve d
_d iff
_s olution
ef ine
Ġ$ $
in es
Ġh n
{ n
yc le
Ġex t
Ġto ge
Ġtoge ther
in t
ĠTh eorem
Ġan other
Ġper iod
Ġs ph
Ġc ase
ĠThere fore
Ġi d
Ġme et
ĠFin ally
c om
Ġcomple te
Ġ old
Ġsecond s
Ġd own
il ateral
E F
r ans
geq slant
Ġrect angular
Ġden omin
Ġh k
- s
on ic
Ġg rid
Ġp ow
Ġvect or
Ġstud ent
th e
tt en
)) .
v d
f ect
Ġmon ot
âĦ Ŀ
enc es
in ary
Ġh c
ĠÂ¬ (
Ġbe ing
) +
b ers
Ġs lope
_ \_\_\_\_
os ed
( C
Th ere
Ġw ould
k ed
g s
u cc
Ġ\\ Ċ
at s
i red
Ġpiec es
â Į
Ġt able
Ġbu y
Ġa b
vi ous
Ġproper ties
ot es
le ction
g cd
ir ls
vers e
b les
r en
- a
ro und
Ġ$ $\
} ^
Ġmultip le
Ġins cribed
Ġdoll ars
Ġb ag
Ġseg ments
Ġpl an
Ġfollow s
Ġgre en
Ġcos ts
o es
ĠCon clude
par allel
ul t
il s
mp ute
ĠO n
ac ed
+ x
ĠâĪ ©
Ġp ound
w ard
.mp r
ate ly
\ %
- b
o o
Ġâ Ĭ
O D
per p
ï ¼
Ġfoc us
} _{
Ġele ments
ffici ents
Ġpre vious
Ġ ÏĢ
b ra
Ġe mp
_ ge
_con tra
at ing
_p l
* n
p oints
P Q
Ġc ell
.P rime
Ġa g
ro x
) ]Ċ
Ġrel ations
_t o
ĠC D
- axis
Ġis osceles
j ac
ul ation
i or
trac t
Ġch ild
^ k
upp ose
Ġdi rect
Ġwe igh
}= \
Ġ( $
Ġg ener
Ġfunction s
Ġcoe fficients
_ on
Ġb ott
i fy
Ġp ain
C o
Ġax is
ge bra
Ġequ ilateral
- y
un ction
Ġ\ {
he ight
Ġ( \
re am
ig ure
Ġadd ition
Ġquadr ant
valu ate
Ġmonot onic
Ġcons ider
jac ent
Ġ ?
ver t
Ġ/- Ċ
_ equ
Ġwri tten
ĠS olve
Ġc ross
\ end
f or
Ġt ax
Ġinter est
Ġy ou
Ġdivid es
Ġpur ch
w ay
Ġsub set
Ġsmall er
at est
Ġ\ _\_\_\_\_
Ġbo ught
{ c
o y
ĠP oints
Ġs er
i b
in ce
v g
Ġcan not
Ġsc ore
---- ----
ĠR e
iti vity
Ġwhi le
ous e
Ġdi ameter
_l ine
Ġstat ements
H ow
f ace
Ġd es
Ġro und
_ sqrt
Ġ\( (
ect ed
_c alc
Ġh igh
a mp
p s
I I
Ġt ype
_ angle
Ġdec imal
Ġrelations hip
.f ilter
Ġneed s
O n
tic al
ing le
Ġre ach
Th en
Ġper fect
Ġpar tic
Ġc alculation
^{ -
ar ed
Ġ ticket
Ġdeg rees
Ġbo ys
_d i
Ġprod uc
li f
\ {
_g t
Ġus ed
Ġop er
ĠA D
n um
e e
Ġm ost
Ġdist rib
c al
o id
Ġcoin s
r ess
_ ch
in ition
M OD
Ġhy p
_we ight
Ġ$( \
ri ct
ĠF rom
ent er
Ġne xt
pp ly
Ġun ique
g t
\ sin
Ġi m
_ un
Ġrandom ly
id es
Ġh and
Ġli e
Ġins ide
\[ Ċ
li es
w ise
Ġl arge
Ġspec ific
lus ion
Ġpar ts
ab les
i ft
_ is
om ain
hed ron
ĠS ince
Ġmar bles
ĠT otal
Ġex ce
Ġm em
$ $
Ġp ower
Ġb ack
os s
h c
Ġapp les
Ġmeas ure
Ġinequal ities
_r ange
Ġbe l
_ or
Ġsell ing
Ġb us
Ġcon g
a ve
_th ree
Ġr ef
Ġre p
Ġed ge
ig its
Ġs olve
r al
Ġsph ere
_h our
( D
Ġ$( -
Ġfour th
ab lish
Ġf alse
th is
Ġk il
pe z
Ġdiagon al
Ġb re
Ġad jacent
Ġed ges
ar c
Ġbox es
ur s
Ġr ational
Ġstand ard
Ġselect ed
\ cos
/ b
Ġm ath
}- \
Ġt urn
( b
Ġ )
\ ]Ċ
in u
Ġal gebra
} )$
_ equal
; >
Ġ< ;>
ĠP oint
} }$
Î ¸
Ġres t
Ġplay er
o le
Ġcoe fficient
Ġs em
ri te
! [
_s ide
Ġ imp
Ġp ay
d a
$ :
ĠD efine
Ġâ Į
Ġsh ould
Ġt op
os en
.s ymm
Ġsymm etric
ex t
ell ow
an y
Ġst ore
) x
= -
] $
Ġch ord
Ġqu es
Ġg irls
_f inal
ĠA s
_c alculation
Ġk g
Ġpol ar
rox im
_p ar
Ġnum er
Ġgre atest
. gcd
ÂłÂł ÂłÂł
Ġpro j
Ġa cc
_d ef
m od
Ġpound s
an ces
_in c
_n ot
\ frac
Ġrece ive
is s
o hn
Ġ ).ĊĊ
Ġgener al
Ġf igure
Ġsh own
m ong
pez oid
Ġma de
im il
ve x
Ġbo ard
Ġin f
imil ar
- c
C alculate
Ġabo ve
Ġch osen
Ġf aces
Ġcomp ut
in itial
p ond
Ġsal es
ĠL ine
Ġco ok
Ġstat ement
ang es
\ text
Ġdiagon als
Ġ:= Ċ
Ġbe fore
_ height
o ol
ĠâĪ ª
Ġm il
od d
ot ed
Ġs ize
_ ine
Ġpar alle
âĮ ĭ
_s elf
ĠC ase
.. .
ur es
Ġequal ity
_p ow
Ġ\_\_\_\_\_ \_
k es
et s
_ me
h A
Ġal ong
Ġ- (
Ġp ath
o ot
{ A
Ġe v
ĠA t
Ġapp roxim
circ le
}$ -/
| \
Ġg ames
Ġst ar
. d
Ġs pend
ag inary
am ma
_t riangle
an k
c ap
Ġd omain
Ġ )Ċ
ĠA pply
Ġar c
Ġ\) .Ċ
ĠT o
Ġst r
.log b
) \)
_w idth
_ C
Ġsur face
air s
' ll
Ġcomp ute
en n
ĠThe y
ol y
_ j
Ġinc rease
Ġ$- \
Ġfi xed
ric ity
Ġlarg er
Ġd a
Ġcon n
Ġstart ing
in ear
res pond
Ġcur rent
f er
Ġpoly gon
* m
Ġpiec e
all s
Ġdenomin ator
ing s
ĠT wo
Ġp ack
id ed
log ram
et ry
_squ are
Ġhe x
Ġit em
( y
: âĦĿ
_m ax
ec k
Ġ est
Ġtra pezoid
ans ion
us h
Ġc ut
n s
th od
d uce
A t
Ġcub ic
; ĊĊ
at a
li m
ll s
s h
Ġac ute
C onsider
Ġg ives
y l
re ases
Ġ. ..
Ġim aginary
_ am
reas ed
Ġalgebra ic
Ġcor respond
Ġplay ers
_s ize
or rect
ak es
inu ous
c up
Ġneg ative
ĠA dd
l ength
Ġpos itivity
/> $(
Ġ+ \
Ġden oted
Ġpl aced
Ġc ap
Ġro om
Ġsubs titute
Ġp h
Ġlin ear
_equ ation
iv al
y ram
yram id
Ġc ard
Ġest ablish
w idth
Ġn ow
actor ial
ump tion
Ġf ace
Ġsh ort
Ġscor es
â ħ
ow s
Ġb ec
enc y
Ġd is
Ġc up
] {
Ġneed ed
sum e
T wo
Ġdec reasing
_s h
Ġmo ving
âĳ ¡
ĠV er
Ġaddition al
ĠD i
Ġfriend s
âĳ ł
a w
am b
* z
oc ks
= (
Ġp op
< /
Ġinc l
el s
] ,
Ġn or
h ab
Ġs ingle
Ġrepres ents
h f
et ra
Ġexpression s
Ġinv est
ĠâĪļ (
d ist
ĠâĮ Ĭ
ĠS econd
Ġcon vex
Ġcol um
{ m
Ġs w
p lus
_ at
Ġco ver
Ġc alcul
Ġcomb ined
ec tive
Ġdef inition
h y
S et
Ġdivis ion
Ġmo ves
Ġsp ent
Ġ______ .
Ġa round
_ exp
Ġd og
Ġy ellow
l ass
= x
_a vg
Ġchild ren
Ġwith out
ĠEx p
f old
' (
Ġmo ve
Ġpartic ip
Ġparalle logram
_in ters
or tion
Ġp yramid
th en
le t
ri es
* k
_v olume
)) ^
co ordin
Ġmed ian
Ġtan k
Ġrem o
\ times
amb da
ĠĠĠĠĠĠĠĠ ĠĠ
Ġb in
ac ity
Ġin r
_t rans
Ġ\ ]
Ġconc lusion
Ġreg ion
ĠÎ ³
Ġh ouse
) |
ĠB y
Ġd im
Ġ$ {
mp h
_d ays
s ing
Ġsa mple
l ambda
ud ing
a âĤĻ
Ġexp ansion
Ġinf inite
as on
. sum
Ġg rad
ĠA ll
B D
_c ases
Ġ( {
\ leqslant
- |
Ġg all
Ġadd ed
. e
al es
Ġmem bers
li t
Ġo cc
Ġf in
Ġag ain
arg et
ul l
Ġdivis ors
Ġare as
Ġsimp lif
_ age
Ġw he
igh ts
ph i
Ġro t
$ "
Ġind e
mple te
ol ving
Ġt etra
alle d
ra in
cc ent
Ġon ce
Ġr adi
Ġ{ \
c ycle
Ġresult ing
ear s
Ġderiv ative
Ġbis ector
Ġco uld
Ġm at
ti tion
ning s
_hour s
ĠPro ves
as ed
ar k
- h
_p oint
Ġe ccent
m id
Ġme thod
Ġwith in
Ġsq rt
c i
Ġd ata
a il
Ġget s
] $,
Ġapproxim ately
Ġ en
. in
Ġp enc
= f
Ġ\ )Ċ
ol es
Ġdivis or
Ġ* *
Ġx y
Ġ$( -\
y p
op rime
Ġsh are
Ġl ist
Â ¹
com es
\ mathbb
m it
in c
ĠExp and
( m
Ġhex agon
ĠCo mpute
. \]
ve c
Ġpa per
Ġticket s
ol or
Ġa âĤĻ
Ġd ri
Ġl o
Ġbel ow
ĠA M
Ġv is
Wh ich
Ġre ad
Ġal tit
em atic
\[ \
Ġw ay
A n
Ġshow ing
ruct ure
ving s
) }{
_am ount
Ġexce ed
qu are
Ġeccent ricity
Ġm atch
* d
Ġcol ors
Ġr eturn
Ġc alled
l oy
Ġdist ances
d le
_w ith
Ġcub es
iv ity
al ity
b it
ĠP l
Ġproposition s
Ġcon e
oll inear
Ġli ke
f ig
, c
Ġd uring
$ )
Ġvari ables
Ġun fold
Ġmin ute
Ġfoc i
Ġcell s
\ begin
. le
_ odd
Ġc ity
( f
= $
_prod uct
h p
a h
Ġex ample
Ġdeg ree
_m on
Ġfact ors
) -
âĳ ¢
Ġstar ts
ĠB D
_s ucc
m ax
Ġdo ub
ĠABC D
ĠĠĠĠĠĠĠĠ ĠĠĠĠĠ
_d isc
ress ion
Ġexpress ed
l floor
{ C
r floor
Ġcook ies
ĠCon vert
$ ?Ċ
Th eorem
Ġma kes
_p rop
Ġh im
Ġpl ace
_me an
in s
r ary
oth es
w rite
( E
Ġsequ ences
} }\
b all
ad ed
Ġmultip ly
Ġm en
Ġc a
\ }$.
Ġequ ival
ĠP art
Ġ=> Ċ
ven ue
Ġcomb in
ath er
Ġp ages
Ġ option
Ġb ro
Ġre pl
at ivity
Ġw ants
li ce
art es
Ġt est
Ġres p
equ ence
Ġtak en
Ġtetra hedron
âģ »
artes ian
Ġinitial ly
Ġdirect ly
i re
Ġcong ru
Ġh p
Ġsum s
om m
Ġan n
' t
.I oo
Ġf ar
ond ay
ĠO ne
Ġrel ative
ĠR eturn
Ġsp ace
Ġcomp any
Ġ- \
_f our
Â ·
Ġcontain ing
| x
' ,
em ale
Ġobtain ed
ud ents
Ġfl oor
} )$,
ti ll
_f orm
Ġ\[ Ċ
c ess
p art
.m em
Ġh ome
ĠCo mplete
Ġdiv ide
Ġin l
Ġt en
ĠP Q
Ġpro g
\% $
* Real
' Ċ
Ġrequ ired
Ġ }\
an ti
Ġst rict
ĠL ist
_in ter
\ )Ċ
Ġpa id
mp ty
ĠÏ ī
_e ven
+ i
Ġfin ish
u ally
Ġreceive d
_p oints
ĠO r
ul tip
g et
or iz
Ġfi ll
Ġb i
}= (
Ġinter ior
Ġinc reased
Ġ* *(
enti m
is m
Ġcorrespond ing
Ġa ct
[ b
Ġexp and
um ber
at tern
Ġbas ket
bo ard
av or
Ġf ish
- coordin
Î »
Î ²
Ġc entim
, +\
Ġte ach
sub set
ĠN e
ĠâĪĥ !
Ġorder ed
Ġp ick
Ġst op
ĠC artesian
Ġs ign
_inters ection
Ġda ily
Ġind uction
{ B
{ AB
Ġ '
Z MOD
Ġc yl
Ġinc reases
Ġmid points
\ leq
ĠS uppose
s p
Ġma g
+ z
r and
Ġproduc ts
e y
ust om
Ġinc ome
_ quad
ra ight
{ O
", (
Ġsu cc
Ġsh op
Ġplan es
_f unction
[ i
âĪ ŀ
Ġp ush
Ġmar ked
. val
Ġb c
. c
Ġ\\ (\
er os
Ġb x
+ n
Ġc ars
Ġ\). -/
lic ation
Ġst raight
equ iv
Ġs eq
\ \),
$ ;Ċ
_p r
. tan
Ġid en
Ġemp loy
_ro ots
ĠM ultip
Ġpar ameter
l a
ĠU sing
Ġlet ters
ol ate
Ġf ound
Ġdef ine
Ġ$| \
ĠC ar
oriz on
_s c
ab c
Ġsal ary
Ġp ri
-neg ativity
iz ation
ĠN ext
}\ ).
\ alpha
Ġser ies
Ġe g
Ġk mph
_d vd
Ġd eterm
orizon tal
t a
P rop
Ġkn ow
Ġbin omial
e p
Ġf ull
Ġl t
Ġitem s
Ġcircum circle
) .Ċ
book s
}\ ),
iz ed
or y
Ġ ĊĊ
Ġbe en
_f irst
Ġcentim eters
m s
Ġto w
Ġs till
st ream
Ġt arget
ĠMultip ly
ĠâĬ Ĩ
Ġm atrix
Ġd ot
Ġcolum n
Ġkil om
Ġun der
m er
_c ircle
} )Ċ
. [/
Ġcand y
row s
/h r
_percent age
ent agon
Ġrel ation
Ġpop ulation
Ġmar ks
Ġiden tical
{ P
_d ay
_pro bability
_in itial
ĠB ool
e es
Ġmonth ly
r ue
}$. -/
Ġrep eat
Ġrem ain
Ġt yp
h B
_div is
- m
_d igit
Ġa way
enti able
_ex ists
Ġresp ect
ir ts
h o
_c ub
Ġmonth s
ĠT ype
ol ute
e ks
Ġh m
Ġ[ -
Ġf am
% .
Ġf inite
Ġ )ĊĊ
Ġs it
ĠA l
ri p
Ġsymm etry
Ġ enti
er ive
ĠE ven
ĠO dd
i le
Ġintersect ing
Ġat t
_c os
( II
d ot
ĠWh ich
a pe
Ġse ven
_d eriv
_s e
S uppose
ign ed
Ġrow s
\ cdot
Ġenti re
Ġoper ation
Ġques tions
A mong
_un ique
fer ence
at form
ues day
es e
. arc
Ġsell s
ur ation
Â° Ċ
Ġs imilar
- zero
Ġan al
Ġev ent
rid ge
ĠÎ µ
Ġwin s
h m
}$. ĊĊ
Ġgroup s
/ y
v ar
c er
Ġmonotonic ally
/ c
_ out
Ġn ear
ĠInt ro
ĠVer ify
_con st
i um
Ġt rees
Ġrun s
D E
Ġden ote
_ q
Ġabs olute
Ġg u
m ut
ti m
Ġs ale
% Ċ
Ġgo od
âĳ £
ffer ence
ens ions
ord s
{ ÏĢ
ĠIntro duce
Ġg ot
an n
Ġha ving
\ }
Ġin verse
Ġmid dle
Ġtrave l
Ġ er
_squ ares
. mul
y mp
Ġpro v
ist er
âĪ ĥ
Ġrun ning
Ġc ents
Ġrec i
_s p
Ġs ection
_{ \
Ġstrict ly
_st udents
om en
Ġh orizontal
W e
_ abs
Ġc ollinear
( I
Ġpurch ase
Ġ ![
qu ality
o e
os es
line width
Ġnumer ator
ect ing
Ġas ymp
iz z
ve l
Ġcons ists
Ġdistrib ution
pend ent
ĠS um
ĠA nd
_d ec
- f
Ġpenc ils
Ġspec ial
Ġemp ty
Ġproj ection
Ġdi ag
_c omm
Ġto ok
ch ie
Ġe at
)$. ĊĊ
Ġhyp othes
}$ $
\ overrightarrow
Ġp attern
tic k
{ Z
Ġcomput ation
Ġfi f
ot en
l ation
] ;
_ arith
_in v
u le
lect ed
at eg
Ġinc orrect
b in
m aining
_disc ount
Ġp entagon
Ġc le
l g
Ġman ip
an c
Ġch oc
Ġstat ing
čĊ čĊ
p rime
, n
_pl ane
. **
igh b
l ue
Ġsimplif ied
Ġarrang ed
)$. Ċ
Ġpolynomial s
ir es
Ġcongru ent
Ġvari able
pp ing
oten use
X Y
Ġf emale
_co mp
Ġpar am
Ġwho le
Ġa chie
Ġear n
Ġgall ons
ĠAs sume
}\ }$
- i
Ġar bit
Ġb ill
Ġass umption
ĠAdd ition
Ġf ood
. "
_ frac
lin ear
ĠD iv
ĠJ ohn
Ġp ole
\) .Ċ
_ P
g er
Ġpr es
-h and
in a
cent er
Ġcirc ular
ĠB ob
Ġid enti
Ġ" $
Ġbott om
- in
ance l
Ġpro cess
Ġc ustom
ĠIn itial
Ġdi ce
_pro of
ĠC onsider
e ver
Ġtrans form
Ġfraction s
re ad
Ġd r
Ġpain t
| =
_re d
n es
ce pt
Ġmod ul
Ġh i
ĠF alse
* I
Ġl abel
Ġl oss
.s ucc
Ġg ave
Ġbre ak
ne y
. abs
. div
Ġsubset s
Ġscor ed
+ d
Ġnorm al
( g
or th
{ al
li ed
Ġd erive
Ġv otes
Ġver ify
}$ .Ċ
Ġth ose
in k
Ġo uts
Ġp ut
M N
pro d
Ġaltit ude
Ġr h
Ġ+ Ċ
_ ar
Ġor anges
Ġbu ys
/ n
Ġle a
Co mpute
re a
Ġz eros
Ġact ual
Ġch ange
l ack
Ġloc ated
_ine quality
Ġon es
Ġch ess
Ġwin ning
Ġele ment
on es
< sub
ĠSub tract
n it
* t
^ m
] p
ĠN umber
Ġp lus
Ġcolor ed
oly nomial
ed s
Ġqu anti
Ġkilom eters
, a
\ {\
Ġsem i
Ġcons ist
h k
Ġmil k
Ġcon fig
_di fference
Ġposition s
Ġhypothes is
Ġcont inuous
y a
t on
_p rime
____ __
S olve
am ent
uc k
_pr ofit
Ġhyp otenuse
ic es
il led
ĠN ecessary
Ġh r
Co mplex
Ġh eq
Ġnumber ed
_out comes
om es
+ (
Ġpl ant
Ġt ree
Ġo un
_r adius
omb us
} )^{
ĠĠĠĠĠĠĠĠ ĠĠĠĠ
Ġsh aded
[ asy
ro om
ed nes
Ġdiag ram
$", (
Ġrepresent ed
Ġmath ematic
/ s
Ġred uc
Ġnear est
ti ent
lus ive
Ġcent ers
Ġdirection s
Ġnon zero
Ġp ric
. )
( i
Ġmar k
Ġpro b
E q
- linear
an an
ip s
l and
Ġouts ide
p ed
Ġ own
Ġfactor ial
_ te
Ġd on
yc lic
inc ip
row n
S t
_ro ot
l cm
Ġteam s
Ġf ru
Ġsa mp
Prop osed
Ġli ters
Ġpr ism
Ġinde pendent
at ure
Ġtyp es
_c ancel
Ġann ual
n ers
)) ;
C on
Ġte mp
ord ing
Ġcl ock
Ġinter n
$ $ĊĊ
Ġg ard
Ġequival ent
Ġexist ence
Ġmultip lication
{ v
s c
_t erm
Ġtri angular
oun ts
Ġf oot
); ĊĊ
_prop er
_pos itive
min us
_f actor
Ġ _{
le x
Ġh d
_ all
ĠE valuate
bin om
Ġvis it
pm od
_s equence
ĠâĨ Ĳ
as h
ednes day
{ z
g amma
x i
\ geq
e ff
-coordin ate
}^ *
Ġprop ortion
} }=
o ve
Ġj ump
Ġne ighb
_ imp
Ġsh ape
_a fter
Ġl aw
âĢ Ļ
Ġsc i
% ,
_in t
er ry
uc tive
o ons
Ġle gs
el ta
Ġr a
Ġwork s
Ġcand ies
| $
ti l
ĠPl ane
i eld
Ġcyl inder
ens ion
Wh en
Ġarbit rary
Ġeg gs
iv ers
j or
of f
Ġfif th
= a
Ġt rac
Ġarrang ements
Ġwhe ther
. re
Ġ\_\_\_\_\_\_ .
ĠĠĠĠĠĠĠĠ ĠĠĠĠĠĠĠ
Ġc re
ĠC an
Ġcup s
ari ly
Ġqu ar
ĠDiv ide
p air
_s eq
avor able
* p
ĠĠĠĠĠĠĠĠ ĠĠĠĠĠĠ
ig inal
c on
Ġdim ensions
lic es
er t
Ġm ph
s on
Ġm ach
Ġcon j
mm a
Ġcap acity
{ p
} a
, ...
ud es
op er
_ ass
Ġma ss
ĠEx tract
Ġg ive
Ġvertic al
/ /
Ġ }{
) }$
Ġpl atform
ir t
G H
ic ation
Ġdi e
ÂłÂł Âł
ri min
Ġall ow
Ï ī
_ qu
_pro b
Ġex am
ear range
Ġne ither
Ġs n
s cribed
Ġ ens
Ġtak ing
Ġcor ner
Ġma y
li on
â ī
ord er
} .$
' $
ĠAddition ally
Ġsem ic
- th
ri day
Ġexp ected
Ġex tern
Ġend s
Ġequal ly
_equal s
Ġ open
_bo x
O f
\ theta
Ġbre ad
Ġro ll
Ġcomp ound
un ch
Ġlong er
Ġmat ches
_ D
Ġper mut
Ġdivid ing
Ġprog ression
Ġr ent
ur rent
Ġh z
le c
ic s
rimin ant
_p ower
G amma
, x
Ġs ol
Ġm ale
ĠM atrix
ra ph
Ġl and
Ġrect angles
Ġs and
Ġmodul o
_f ive
ird s
Ġrequ ires
Ġrepresent ing
. im
C A
\ neq
Ġgard en
_p airs
) !
u fficient
Ġ\ ,
Ġreci pro
_sc ore
in ation
_we ek
Ġw omen
( t
ver al
_ine q
Ġques tion
h r
ic ks
_m id
r ho
] ĊĊ
n ess
Ġsu pp
w ith
Ġconsider ing
Ġbag s
Ġse veral
Ġdoub le
ĠM onday
sum ing
Ġal one
Ġoun ces
s peed
te en
ane ous
Ġcand id
Ġl ower
Ġe ight
( k
Ġform s
{ t
Ġrh ombus
Ġsamp ling
Ġoption s
ĠâĪ ħ
Ġw all
og ram
.arc cos
Ġtrave ls
_p i
Ġbu ild
Ġ$[ -
Ġw ent
j ective
Ġb ridge
_s econd
bo xed
Ġl ab
Ġwri te
Ġj oin
ang ent
_ar rang
der iv
Ġfam ily
. t
Ġa ges
ĠD ist
R S
) ),
n o
Ġemploy ees
f ied
Ġon to
h line
Ġg as
w ers
Ġp izz
Ġk ey
( c
ay er
$ ?-/
f ill
* r
_con t
_c ap
Ġ ir
th s
ĠRe write
á µ
_ and
Ġle g
} }+\
Ġt ac
les s
_a pp
ĠS h
Ġf ast
Ġneg ation
- angle
Ġwe eks
_ ear
math cal
_inc rease
Ġincl uding
Ġradi i
Ġrelative ly
Ġw ant
Ġl ateral
^ a
_form ula
ĠE F
e val
Ġor th
\ geqslant
Ġwork ers
Ġ| Ċ
Ġf illed
ad e
Ġweigh ts
. un
Ġoper ations
_re c
y m
ĠX ia
Ġinteg ral
Ġg ain
Ġcom m
m all
p ing
or ning
id s
_b ase
var phi
ĠA mong
al id
w ork
_bound s
Ġnon neg
Ġo ct
ve y
end ed
Ġsimp le
Ġchoc olate
Ġwal king
ĠDi rect
th ers
Ġwork ing
P ro
Ġun til
Ġsh ift
Ġexp l
our ney
Ġb r
pec ific
,... ,
Ġmi xt
.f actorial
Ġturn s
re en
I s
Ġse par
Ġref lection
Ġa part
_y ear
Ġi h
Ġch eck
Ġor ange
Ġgrad e
+ m
Ġc he
Ġme ans
Ġj ob
_per p
Ġd ue
p ort
ĠN o
Ġfl ow
o tient
- t
Ġus es
op s
r eal
ĠCon t
âħ ł
Ġdog s
a use
u th
d i
Ġro ad
Ġremo ved
Ġimp lies
_f rom
_s ix
$ ),
if ied
âħ ¡
Ġdes ired
_ up
li e
Ġproblem s
Ġn ecess
Ġl ight
)) /
Ġdraw ing
Ġmixt ure
_ass oc
_ AB
' .
Ġinterval s
# eval
A r
Ġcenter ed
E valuate
Ġg old
s es
Ġ ^{
ĠA lice
ĠD E
Ġhe ads
he l
Ġconn ected
D eriv
ect ors
Ġparam etric
Ġcircum ference
Ġrepresent ation
u ice
Ġsub trac
ti ce
Ġlet ter
Ġbas ic
Ġs im
Ġar ri
| +
vi e
Ġ ent
ateg y
Ġbound ed
Ġloc al
t es
bs er
or es
S implify
Ġw orth
Ġb anan
amp s
^ b
Ġcl os
el per
}\ \)
Ġadd ing
f ul
Ġf air
] )
i k
Ġn one
-angle d
_ set
ĠM r
Ġtac tic
E x
}, \
in ner
Ġbas ed
_min us
Ġcol lection
Deriv At
st ructure
: âĦ
ap s
Ġ\). ĊĊ
Ġre ason
Ġre venue
}{ (
_f l
Ġsu g
ar a
Ġc at
)\ \)
Ġ enc
Ġs eat
Ġshow s
row th
Ġext re
Ġti les
Ġsp lit
ili ties
ach es
Ġs eats
Ġtemp er
Ġp ens
}| =
Ġsa vings
Ġbott les
al ind
_s in
z e
Ġup per
)$. -/
Ġkil ogram
{ BC
enti al
_ books
Ġsucc ess
_val id
_c ase
cl uding
Ġ `
Ġcircum scribed
art ers
_t ri
_ I
$; ĊĊ
atur day
âĪ Ī
iv id
Ġcont ra
Ġcomp e
ro id
Ġplay ed
.un iv
Ġnonneg ative
Ġbo at
Ġcomb ine
\\ (
at ement
Ġinvest ment
Ġ... ,
ed ge
ĠâĬ ¥
a pp
os sible
_frac tion
_par allel
ĠP olynomial
Ġch ar
end ing
: //
Ġnecess arily
Ġreduc ed
. ,
Ġmeet ing
ult aneous
Ġno te
. r
} .Ċ
y th
A E
e an
} }$,
Ġper form
Ġj ourney
Ġli mit
{ S
Ġfe wer
Ġdisc riminant
_k m
h tt
Ġc op
Ġbl ocks
Ġ_ Ċ
Ġcong r
ad ing
Ġs oc
Ġto urn
C ost
Ġwal k
âĢĻ s
Ġcover ed
} }+
_non zero
_l ines
p ut
Ġs k
Ġcan s
Ġm oles
_ S
f inal
)) /(
( s
Ġpow ers
Ġa ir
a ils
Ġdeterm ined
Ġtourn ament
urs day
Ġapp le
Ġdi ff
. length
n g
ur r
)) )Ċ
Ġax es
r ong
rib ution
ĠâĪ ı
lip s
Ġconsist ing
- p
ed i
.in r
h z
Ġdenomin ators
âĤ Ĭ
{ AC
S how
ĠM ar
}{ {
A s
( Î±
Ġsim ultaneous
Ġspend s
P B
âŁ© ĊĊ
Ġma king
O B
}, $
Ġind ivid
Ġpurch ased
- e
. com
und er
.f st
Ġcl ub
\ le
Ġlea ves
D igits
Ġtrave ling
â ĭ
Ġb ar
h d
Ġreal s
Ġarrang ement
Ġsin ce
Ġs tick
Ġr ace
und ay
Ġpr incip
P F
und red
In t
Ġcoin c
Ġsa id
. lcm
ac ement
Ġmanip ulation
ar ing
- k
ir th
Ġans wers
le ment
nit ude
P A
Ġinfinite ly
u it
Ġtrave led
_ id
.s nd
lop es
ĠF unction
Ġquar ter
Ġs ector
Ġun ivers
Ġbec ause
^ (-
Ġr ul
Ġch arg
r is
---- --
Ġmi le
Ġpain ted
ĠH is
Ġpar k
Ġl ow
ack s
ĠT e
act er
_h alf
\\ )Ċ
ĠNe ither
Ġpro ving
( p
u ff
Ġr ain
Ġ{ Ċ
ĠU n
Ġm et
Ġto m
Ġh f
Ġbec omes
for all
Ġf old
] $Ċ
Ġtrip le
Ġsh irts
ĠĠĠĠĠĠĠĠĠĠĠĠĠĠĠĠ ĠĠ
Ġdec ided
_l og
. add
i ke
h P
ĠâĪ¨ Ċ
} .
Ġc ities
_in it
. p
oll ar
Ġexp on
) ]
ond ition
}\ )Ċ
htt ps
ue l
Ġl n
Ġqu otient
ut ed
Ġa v
ĠĠĠĠĠĠĠĠ ĠĠĠĠĠĠĠĠĠ
_cub e
f irst
Ġprod uction
_re fl
st ruct
b c
Ġa te
, B
Th ree
is ors
or ies
en ess
Ġw on
Ġbro ther
Ġex tra
ĠÂ¬ âĪĥ
âģ ´
ib ility
ac ing
Ġconstruct ed
-s ided
o ugh
Ġbasket ball
i me
Ġ{ (
Ġsimultaneous ly
off ee
Ġ es
a ur
u ches
_p ay
Ġpric es
Ġmeas ures
Ġal tern
Ġcorrect ly
o v
Ġl ost
Ġw ind
ce il
ĠH as
oper ator
Ġto uches
s tep
Ġ____ ______
' )
_ M
ĠA E
) :
Ġm orning
iz es
Ġy oun
Ġpick ed
_ z
ĠD ay
ĠĠĠĠĠĠĠĠĠĠĠĠĠĠĠĠ ĠĠĠ
n ame
Ġtang ents
Ġ(âĪ ļ
_b alls
_per imeter
_re maining
ron t
Ġwal ks
_ al
Ġto uch
Ġexpl ain
_ear nings
h at
\}$ ĊĊ
uc ks
pl ay
(- \
r ational
Ġstart ed
_c omb
Ġt all
*( -
m y
ig ma
Ġmultip les
T o
Ġac ross
s up
ĠT uesday
Ġst ate
, z
Ġe valuate
Ġdiffer entiable
/ Real
ĠPro of
Ġ\) ?
ĠS âĤĻ
operator name
n a
Ġtemper ature
Ġcomple ment
Ġsw im
ĠS p
f e
_cap acity
_m oney
Â° ,
Ġteach er
am ond
pec ial
Ġsh oes
Ġin ner
Ġintro duce
h C
is on
\ quad
ang ed
ĠT rue
Ġsug ar
ĠB oth
.d igits
Ġconn ecting
ĠA rea
r ate
mple ment
Ġmonotonic ity
| --------
Ġs ec
/ m
Ġbound s
\) .-/
ket s
{ e
ĠC A
Ġinv olving
ous and
_t ax
Ġgo es
}}{ {
). .
Ġd rop
ct an
Ġsemic ircle
.m od
-s h
ĠS pecific
.r pow
Ġh q
ĠS am
_ ac
p le
ong s
; <
_d igits
ut ing
_m ar
Ġvari ance
ĠS imilar
_in j
\ }$Ċ
eg ree
m o
Ġs ch
m ing
Ġd ed
Ġfru it
D efine
Ġs l
ĠR earrange
_km h
Ġb al
( z
M od
Ġs lices
_s ales
iqu eness
Ġgra ms
e led
\ cap
Ġc oprime
Ġch ick
Ġin st
ĠHow ever
| Ċ
Ġacc ount
Ġc ats
at oes
ĠâĪ ī
Ġwe ll
Ġidenti ty
read y
\ ge
ĠG e
el ly
Ġf avorable
Ġ& =
ĠÏ ģ
Ġconsider ed
ul ts
and y
Ġm eter
ĠÂ ±
] $.
Ġhand le
Ġj uice
ĠB E
Ġmultip lied
Â ¬
Ġs od
_w ater
Ġf ro
D elta
ĠT riangle
h as
Ġdec rease
ĠTh ree
ĠS ufficient
Ġ. -/
ÂłÂłÂłÂł ÂłÂłÂłÂł
h old
ĠT om
Ġsqu ared
ex ists
Ġa vg
Ġinc lusive
Ġens ure
_t angent
ĠSpecific ally
Ġr ates
_g o
Ġv ol
Ġagain st
V alid
\ mathrm
ric k
ĠXia o
ĠP ar
Ġb or
Ġst ructure
tra in
Ġnumer ical
A M
Ġpres ent
r or
os ing
Ġm om
tic ks
_s lope
i ans
Ġar range
Ġc all
Ġpri mes
Ġt as
{ F
Ġreach es
h s
G M
_ BC
Ġmach ine
Ġc yclic
Ġo bser
g y
}^{ \
Ġcompe tition
t otes
] (
Ġbl ock
Ġw ide
Ġbott le
ĠH elper
_p e
Ġch ips
] $ĊĊ
b x
.e val
yth ag
Ġgo al
ens es
Ġal ready
Ġ____ .
t use
p en
Ġsur vey
Ġapp ear
pro blem
. n
| )
Ġrece ives
Ġold er
] -/
ĠX Y
Ġn et
Ġs on
_f or
.in l
j ect
Ġpizz a
_per iod
Ġg cd
Ġplay ing
ĠÎ »
Ġd vd
Ġle vel
Ġ(( -
ur ther
Ġdiffer ences
, S
iss ion
ys is
Ġh undred
ru ction
Ġha b
} .\]
Ġ ~
d ays
ĠG et
ist ant
Ġf ather
Ġn ick
âĭ ħ
ĠF actor
ump tions
Ġw ords
Ġs ister
Ġst ation
Ġtrac k
Ġconfig uration
Ġpi ct
Ġp ot
Ġlog arith
Ġweigh s
ĠD ef
l led
od ot
rac e
B E
Ġmil lion
Ġcon clude
im als
Ġcomp ared
Ġmin us
Ġlab eled
Ġn ine
Ġcent roid
ĠJ an
- n
M on
Ġh ors
Ġev ents
_dist inct
Ġneighb or
| -
Ġget ting
g an
Ġb irth
Ġspeed s
to te
lus ions
ĠC ount
_mul tip
,\ ,\
sp ace
O y
** :
enn y
Ġsph er
\_\_\_\_ \_\_
op e
{ -
_num ber
Ġp ure
s igma
_non pos
y cl
irc les
_arrang ements
Ġsubs tit
Ġo thers
O r
_s a
l ap
Ġh ar
tic es
Ġearn ed
us s
Ġst ock
orm al
_ge om
Ġy ield
_imp lies
Ġbo y
Ġpath s
{ if
Ġro lls
_ ver
Ġform ing
ĠA r
Ġ ?-/
ĠA ss
ĠF our
ĠE very
Ġend points
Th is
Ġ} Ċ
Ġrequ ire
Ġpair wise
ure d
ĠA lex
ore an
ĠW ednesday
Ġe lect
Ġf re
Ġcolor ing
Ġb ank
{ d
Ġ______ .-/
Ġear nings
Ġpl ans
( (-
_se ven
ed ed
Ġd x
Ġcontain er
, "
Ġc offee
- GM
{ M
Ġr ule
Ġar tic
Ġasymp totes
Ġcont in
\ plus
os ite
_s ides
e b
}$ $Ċ
problem s
} _
Ġ{ -
j ector
( X
ter cept
_f act
|+ |
Ġlow est
Ġloc us
Ġm y
Ġb inary
ĠB AC
! )
.t rans
* q
_m em
tb all
subset eq
li er
t op
ĠY ou
y ing
s ide
Ġcross es
Ġ$\ $
a it
Ġ .Ċ
Ġconst ants
Ġshort er
m x
Ġcalcul ated
Ġun iqueness
L e
ort s
Ġcombin ations
Ġbanan as
s how
\ _{
h space
jector y
ĠĠĠĠĠĠĠĠĠĠĠĠĠĠĠĠ ĠĠĠĠ
Ġ= Ċ
Ġpl ot
Ġflow ers
er y
Ġr s
w ar
ĠSt atement
P oint
it ch
lic it
Ġclass es
Ġtr ig
)) ))
if orm
_s tep
ĠâĪ «
Ġs ocks
re w
of problems
ofproblems olving
. ne
Ġnot ation
li min
an es
{ k
ĠDist ance
id ing
ĠS quare
Ġremain s
Ġl at
Ġshort est
b ase
Ġpar tition
Ġi ce
ĠC ircle
Ġorth oc
ir l
vers ion
{ ~
Ġgo ing
Ġstr ategy
Ġreg ions
Ġmeet s
_s al
Ġm ut
art ofproblemsolving
z en
_re venue
Ġp ast
Ġg r
Ġquanti ty
ĠP et
ĠF riday
ĠS imp
Ġth ousand
_inter val
ĠCont inuous
Ġqu arters
ines e
. lt
Ġmax im
Ġdec ides
{al ign
Ġr ub
ï¼ Į
ythag orean
D C
Ġbuy ing
Ġpl ays
S um
Ġdown stream
Ġmo ther
Ġb ases
Ġr ay
Ġball oons
m ar
Ġl unch
ĠFor ward
= b
Ġrul es
} )=
Ġcl osed
Ġab c
ail able
Ġg lass
Ġsol id
m an
+ q
r ation
_r es
ce p
ud get
Ġocc urs
ĠT ake
ĠTh ird
ĠP osition
.m k
Ġpl aces
Ġallow ed
l o
Ġfe e
" .
Ġperiod ic
, C
A P
Ġp ig
Ġcomput er
Ġp alind
_proper ties
i i
ffer entiable
. sub
Ġf ree
ĠL e
Ġcent ral
Ġhe ad
Ġt ens
Ġshe l
) \),
Ġf ront
Ġinde ed
Ġc al
Ġma jor
)$ -/
Ġp ool
Ġc ycle
Ġp en
Ġe ats
oth ing
_ne w
Ġm iss
i les
Ġcos ine
Ġcustom ers
ray ons
_g roup
sh ift
I t
Ġcoun ter
, d
$ ).
id ent
Ġ\] ĊĊ
Ġrepeat ed
av id
Ġits elf
Ġs en
ag s
Ġb ic
} b
Ġh t
int ro
Ġb irds
Ġsc ale
ĠDef inition
h ol
v ice
-th ird
\ rfloor
Ġwork ed
[ \
âĪļ (
re l
A F
Ġchess board
yc les
f ic
Ġm x
le ase
ĠÎ ´
: <
{ E
$ ?ĊĊ
\ ln
iv ing
j ects
pl ane
Ġj ar
Ġun iform
ĠP M
o mp
Ġcomplete ly
{ f
u ad
Ġsoc cer
ĠS chool
} y
}+ (
in ess
te e
Ġex per
ĠTe am
Ġ lib
Ġtra jectory
ĠCo mp
rad e
âĪ Ģ
Ġ( $\
end s
ug ate
d ers
Ġsimp lest
ĠD uring
} }$.
Ġin form
Ġfl our
on y
} )\
ef ore
at t
Ġcircum center
Ġbis ectors
Ġintern al
ar ah
_quad r
Ġenc l
ĠâĪ ł
Ġexce pt
Ġkilogram s
Ġw rong
Ġcount ry
_n o
Ġpi le
Ġselect ing
en e
b ol
_w h
ĠM N
bab ilities
_b y
w ards
E ach
Ġ= $
Ġj ust
}}{ \
er n
k en
| $.
Ġconc lusions
Ġpay ment
_q ty
{ Q
Ġ ï¼
Ġdirect rix
ĠSt art
Ġmar ket
Ġy ards
Ġdistrib uted
Ġacc ording
.d vd
b e
Ġ\[ \
Ġanal ysis
ar ies
i led
Ġrot ation
| ,
Ġfactor y
Ġh el
Ġcandid ate
Ġimp ossible
F rom
s ize
ĠA P
Ġequal ities
Ġr ad
_squ ared
Ġmag nitude
_val ues
_ ticket
_re l
oo tball
N ote
m u
_c ards
ĠÂ ł
_ o
Ġoct agon
Ġst ones
Ġpar ti
te ad
Ġmod el
_go als
r adius
Ġs ine
h t
Ġp et
Ġh B
m atrix
Ġtrip les
Ġparticip ants
Ġr an
Ġ- /
Ġro ses
Ġch airs
Ġpi pe
Ġtrain s
---- -|
ĠAn g
Ġcon ver
ro me
pos itive
Ġextre me
-/ ĊĊ
k x
el ve
Ġhigh est
asy a
Ġhand s
} )$.
r et
Ġmultiply ing
_m s
_ N
Ġread ing
Ġad ult
_ angles
h M
Ġextern ally
] Proposed
bo x
Ġcon cent
o ok
Ġtang ency
ater ial
_d en
_di agon
}$ ?
d ollar
Ġcomple ted
_b lue
Ġg rowth
Ġ. ĊĊ
Ġteach ers
Ġ( Â¬
Ġob tuse
Ġden otes
, N
Ġpack s
Ġdim es
le y
oc i
ĠD an
Ġp ays
* s
_c enter
^ y
Ġco ur
. floor
Ġt ry
Ġbegin ning
iv er
Ġgall on
_te mp
L ist
ous es
ĠS ome
Ġpass eng
Ġse eds
ĠP ythagorean
Ġasymp tote
Mon o
A A
_simp lif
ro ts
_g ames
Ġrec ord
Ġra is
o ub
ific ation
), $
v is
Ġapp ears
Ġsc al
Ġl ater
Ġsod a
J ohn
x Oy
h ic
{ D
Ġst ates
D igit
Ġb ars
. x
Ġanal y
j oint
no on
Ġpermut ation
Ġd ir
c lusion
Ġk x
Ġred uction
Ġres id
ud ent
Ġb ak
r ist
id istant
} }}{
Ġhigh er
_pe ople
T riangle
Ġout comes
Ġsand w
Ġorthoc enter
d y
Ġmin im
ĠM ary
Ġexp licit
_s eg
O A
_sa vings
Ġav ailable
_ .
_c ons
d en
Ġradi ans
Ġtr uck
ber ries
_ne eded
a per
Ġst ream
Ġbis ects
Ġg rand
ĠP erson
_c olor
_ E
Ġk ee
áµ ¢
it t
he ad
. eq
Ġcomp on
Ġsimplify ing
Ġ(âĪ ı
Ġh it
Ġro ute
Ġclos est
Ġear ns
Ġcolum ns
Ġaltit udes
k g
Ġy z
Ġtrans port
Ġunivers al
Ġdec ide
Ġph ys
s ymm
ke y
Ġb ul
_num bers
Ġto day
Ġrecipro cal
. C
. prod
] )Ċ
d x
{al igned
Ġpain ting
Ġl oses
Ġsci ence
text dollar
} )^
Ġb rown
. intro
Ġpro babilities
Ġweek ly
Ġfast er
_p ages
up s
ĠS e
Ġinvest ed
z z
_exp and
Ġconj ugate
Ġfar m
i o
Ġproj ect
ĠJ ack
ĠâĨ ĳ
ra int
_divis ion
Ġbread th
ar ctan
Ġbus iness
Ġcho oses
_sal ary
xy z
il ver
ub e
Ġph ot
k n
Ġdec k
ll ing
Ġrepl aced
o x
Ġs lopes
Ġb ow
ĠS aturday
Ġstick ers
Ġprincip al
Ġpl ants
Ġe limin
ĠMath ematic
_s pecial
_up per
_s ingle
ĠĠĠĠ ĠĠĊ
.$ -/
_sub set
ph ere
. \
Ġproportion al
)$ ;Ċ
_f actorial
Ġterm inal
[ -
Ġtrans itivity
Ġw ord
Ġ( |
Ġinc ircle
XY Z
ke w
_l ower
< \
Ġlat tice
un e
ĠH er
equ ent
âĢ ¦
). $
enn is
i ors
Ġch anges
Ġconst ruction
Ġex ch
h q
rain ts
Ġroom s
Ġman ag
Ġfor ward
a el
og e
Ġturn ed
Ã ·
em ber
_s ur
ĠP er
Ġ* Ċ
ĠCh ain
\] ĊĊ
: \
ay ers
Ġc uts
l er
Ġc ows
ter ior
Ġtow n
. y
Ġprod uce
- g
Ġen ough
Ġc rayons
ĠL i
_s mall
Ġchord s
ati fied
ĠE ng
Ġup stream
Ġc ake
ĠT ime
d s
Ġir rational
Ġw atch
Ġlogarith m
_ ad
Ġr ab
Ġs pe
ï¼ ľ
Ġde p
Ġf ootball
Ġst amps
_a verage
Ġcharg es
Ġmin imal
th ing
Ġover lap
Ġlib rary
ĠL ength
Ġcombin ing
Ġprov ide
Ġsh irt
Ġs un
. zero
ati os
Ġ enter
_s ymm
Ġch em
ct or
Ġph one
ĠN one
ĠCh inese
Ġb uc
Ġw ait
urr ence
_ F
Ġw ood
ent y
cos t
Ġstop s
ĠP B
st ar
Ġg irl
ĠHas DerivAt
ra f
ĠE qu
co mplement
Ġmem ber
Ġshe et
Ġ ;
) \).
ro cer
Ġ omega
l or
p x
u ary
_min utes
Ġclock wise
ar ry
lec ts
val id
\ lfloor
is ymm
Ġb rand
Ġo il
our s
Ġcol lected
Ġdec reased
, m
$; <
ud ed
Ġmar ble
over set
C M
ar ison
Ġn ight
Ġcont est
_p art
Ġpur ple
Ġvari ous
+ k
_sh are
Ġbi ke
Ġle mma
s quare
Ġf uel
Ġs ay
Ġwork er
_c ondition
Ġpi e
_mid point
in ks
}{ |
ffici ency
y le
y stem
Ġequ idistant
}\ \),
Ġform ul
Ġcle ar
_int eg
in ations
_mon th
oge ther
f actorial
ĠĠĠĠĠĠĠĠĠĠĠĠĠĠĠĠ ĠĠĠĠĠĠĠ
_bo ys
Ġreturn s
_ ab
wh ich
g ons
ĠS unday
Ġparticip ate
| $,
_g irls
e th
m ily
cl ock
Ġmut ually
en se
Ġti le
Ġve hic
ĠAs suming
Ġpenc il
Ġv ers
)) ;ĊĊ
âī ¤
ab ular
u li
Ġd one
Ġexp enses
Ġch arge
-in tercept
ĠCh ar
Ġan imals
Ġre write
Ġa ble
Ġtrans l
is a
Ġbuild ing
PQ R
Ġb atch
est ment
Ġ( Â·
Ġm eal
Ġas sume
ul ations
_t w
ind ers
ĠEng lish
_n eq
Ġwin ner
under line
Ġdec reases
Ġind ic
_tri angles
Ġbal ance
Ġco up
Ġtow ards
Ġto ys
Ġconst raints
Ġsimplif ication
ig ures
_pay ment
s ib
Ġp age
Ġr ide
co hol
ĠP A
c ot
at ches
ens ity
Ġcustom er
est er
s eq
ĠTh ursday
Ġse lection
en ari
Ġwal ked
Ġad ults
Ġj ack
Ġj elly
h S
Ġes tim
c als
or iginal
Ġgraph s
Ġal cohol
} ĊĊ
)$ ;
_box es
Ġt oss
ĠSimp le
ls o
{t abular
Ġis land
EF GH
Ġround s
Ġsubtrac ting
_ rect
ĠâĪĳ '
Ġrepl acement
ĠD C
ĠC a
Ġ/ --
O C
ĠD ec
ĠThe ir
_ ve
Ġindivid ual
he q
Ġe ff
_app les
re maining
Ġgood s
Ġper p
{ u
Ġor gan
_m ass
ant isymm
Ġreason ing
og s
}$ ;
Ġb âĤĻ
$ $\
Ġrot ated
Ġdef ective
ĠCon struct
n ed
} i
Ġinc enter
Ġatt end
Ġsome one
_res ult
_c lass
radic ts
= {
as ha
Ġsu it
_ AC
Ġst raw
| c
dist ance
* }
Ġcontain ed
Ġm aterial
)= -
ĠAn y
k m
- min
r ing
ong r
ount ain
_ order
_v ol
Ġtr uth
Ġintersection s
n linarith
Ġout put
Ġsu per
Ġartic le
pp ed
Ġequival ence
Ġsh ares
ĠTh us
B A
Ġsix th
Ġout er
Ġun ion
Ġformul as
P l
pos it
Ġde li
ĠĠĠĠĠĠĠĠĠĠĠĠĠĠĠĠ ĠĠĠĠĠ
Ġhe ights
Q R
_solution s
ĠSt rict
ĠC E
Ġc ycl
Ġmo vie
Ġnick els
Ġp ants
ĠC lass
Ġquanti ties
re g
Ġk ids
ĠV i
h w
ĠTh ese
um s
Ġg round
Ġst ack
el lipse
_ row
ed ian
om s
Ġreg ression
_e ight
tain s
Ġs te
Ġdoes n
Ġcont radicts
Ġfollow ed
Ġfactor ization
Ġachie ve
_inc ome
Ġm ang
Ġl a
Ġdisc ounts
:âĦ ļ
ap ed
Ġ__________ .
c ending
Ġc amp
e v
Ġmi xed
Ġext ended
g ray
ĠCon clusion
a im
Ġe ast
Ġfunction al
oub le
O ne
Ġtas k
Ġrub les
. pow
Ġg rocer
_re lation
Ġ\) -
_c ar
Ġde part
_in s
Ġag o
Ġass ign
ild ren
Ġcurrent ly
( shift
un ity
Ġoff er
Ġp ond
Ġproduc ed
ĠM ax
Ġb ig
in ter
ĠS te
_p op
un g
ĠIn d
Ġafter noon
Ġmathematic s
_t rain
âĮ ī
op h
Ġh A
Ġext ension
* }Ċ
} (\
Ġmin or
) -/
Ġd omin
p rove
}= $
Ġextern al
ĠV asya
_c ol
.c ast
Ġc e
ty pe
Ġsit ting
Ġmeas uring
( d
Ġstand ing
Ġp ump
ĠW rite
aur ant
Ġr iver
Ġ eng
Ġrelationship s
_ge ometric
) +\
Ġsp orts
Ġdes cribed
ĠQ R
_ R
_c ard
_ticket s
Ġsection s
it ure
Ġrecipro cals
Ġcomp osite
Ġcontin ues
Ġsubs equent
t raction
g en
Ġfre qu
ĠSp lit
_proper ty
Ġle ak
Ġins tead
Ġco vers
im g
Ġpos t
. B
Ġc ream
inite ly
Ġrepeat ing
Ġ<;> Ċ
_l oss
Ġpartic ular
Ġto y
Ġcor ners
Ġmed ium
Ġwhe el
Ġt ons
Ġsh ip
Ġ| \
Ġre verse
Ġass igned
Ġarc s
$ $-/
ĠSimilar ly
Ġ\ ;
_mon o
Ġcom mit
Ġplant ed
h D
_th ird
hed ral
_b is
_co eff
_bo th
Ġr atios
ed ges
Ġdraw s
_ antisymm
Ġdri ve
ĠA F
_c orrect
. pos
l ist
) f
Ġto ur
Ġtransform ation
a f
' )Ċ
Ġmathematic al
Ġf ence
Ï ģ
Ġex pr
anc ed
ĠA lso
te mp
Ġti p
l an
Ġ\(\ {
ĠM on
P R
Ġk ind
Ġpermut ations
v ial
ĠĠĠĠĠĠĠĠĠĠĠĠĠĠĠĠ ĠĠĠĠĠĠ
upp ies
Ġencl osed
c a
Ġro lled
_t rip
}= -
Ġer ror
Ġcal ories
T ype
es ts
Ġv ide
Ċ ĠĠĠĠĠĠĊ
_r eal
enn ies
ĠRe verse
or n
cc ording
Ġexceed ing
Ġd et
il ing
Ġac ti
Ġexceed s
ric ks
Ġpe aches
Ġcur ves
o i
Ġse e
Ġ< =
v an
Ġcon f
Ġ\ $
_comb inations
).. (
ĠB P
Ġ> =
Ġ(( (
Ġi mm
Ġc atch
m ega
Ġ+ +
Ġcoun ts
g or
Ġv ill
us ic
Ġfl ower
_v otes
\] -/
Ġbase ball
Ġr ear
ĠB ut
Ġl ot
v ation
_equal ity
Ġsign s
_p ath
ling s
Ġb udget
)-- (-
oc us
Ġche ese
uch y
t frac
ĠD EF
Ġâ ĸ
P S
Ġop tim
} )(
}\ }$,
it al
Ġro ads
ber ry
hb c
.div isors
b on
c ed
l oc
Ġdep th
ot one
enti fic
f act
âĤ ĸ
-coordin ates
/ z
_inter est
Ġdrop ped
n y
u ish
/( (
Ġr ope
Ġspher es
L ine
Ġd em
ĠAss umptions
r ank
} B
le ts
Ġrad ical
Ġstud y
g ers
_pl anes
Ġt ec
Mod Eq
}$ $,
Ġbirth day
_den om
ne w
a z
Ġf it
ĠDi fferentiable
- (
Ġf urther
Ġoriginal ly
Ġeat en
} )$Ċ
in ing
ĠR o
_inv estment
Ġ" $\
_re g
^ i
ing uish
Ġg um
Ġf igures
* Proposed
Ġam ounts
Ġcho ices
- z
ĠNe w
. sq
ur t
O mega
P er
Ġpi les
p tion
ĠB en
Ġp ortion
âĪ £
i er
Ġa ut
Ġh s
Ġocc ur
Ġkn ows
Ġmi x
Ġsub tract
Ġha pp
he lls
Ġrest aurant
on st
ort ed
ere x
< x
_n ine
a ff
_t en
y z
Ġh ouses
.I oc
Ġbe ads
_ ellipse
, \)
Ġproduc es
ĠB ase
ich ael
Ġspecial ize
Ġanswer ed
Ġnor th
{ CD
Ġsh oot
ĠJ ames
_ Q
Ġcl aim
ĠâĮ Ī
Ġt ennis
Ġl ying
ur d
w ide
pro ves
Ġstr atified
^ p
= t
Ġï¼ Ī
Ġdiscount ed
Ġdr ink
ĠP R
_p ack
Ġlo ok
Ġge om
ĠJan uary
enari o
Ġwh y
{ w
Ġcalcul ations
Ġcons umption
Ġa rt
Ġcombin ation
st ablish
. to
Ġas suming
Ġcandid ates
Ġadd s
Ġh ist
Ġch ec
Ġs ilver
ac tion
Ġse ason
ĠâĨĶ Ċ
ch anged
et y
Ġf t
Ġcle an
Ġle ads
ĠM ark
ĠP F
_wh ite
* cos
b ar
/ âĪļ
ist ry
Ġst re
Ġst rip
F our
a ul
ĠPet ya
Ġc x
)) $
Ġmed ians
Ġr ice
ï¼ ī
ĠAng le
Ġgu ess
ĠOn ly
un c
Ġbic ycle
Ġb et
Ġle ave
ĠâĮĬ (
ĠPro bability
Ġrel ated
il t
( ÏĢ
eta il
c akes
Ġround ed
Ġyoun ger
Ġt ables
Ġshop ping
a ily
tic s
ur l
Ġpr of
ts ize
ec es
Ġneighb ors
Ġpoly gons
\ }\)
Ġ __
Ġconst raint
_s ample
Ġfoc al
b lack
ĠM ike
Ġpasseng ers
_ edge
ĠA d
Ġli t
} }$Ċ
Ġc p
Ġex terior
l os
C B
Ġwas h
on us
at o
Ġ| ĊĊ
Ġhome work
Ġv ac
_ li
{ {\
Ġoff ers
Ġpoly hedron
Ġser vice
} }-
) ?
Ġover all
+b c
un its
Ġfold ed
Ġsh ots
Ġan num
Ġs kew
\ n
* ]
_c urrent
Ġbill s
b ul
m ost
Ġa th
Ġs ticks
| ^
Ġp ies
Ġe valu
Ġparti al
ic a
Ġ\\( (
âĪŀ ,
ear ch
_d eg
co mp
Ġcho osing
ĠC olor
ro t
_g cd
Ġp ers
Ġpiece wise
{ AD
Ġin ves
ĠPQ R
p per
re lation
Ġremo ving
{v matrix
' ]Ċ
O P
, âĪŀ
Ġ| (
-e mpty
)$ ?
Ġ\_\_\_\_\_\_ .-/
Ġcho ice
Ġsch ed
ĠJ o
_s ol
Ġeven ly
e ach
Ġachie ved
Ġl cm
Ġrecord ed
ĠÏ ĥ
Ġca ught
}$ )
D A
om ic
Ġw ear
Ġsa ved
Ġlaw n
ĠI I
erex ample
/ d
d ir
Ġv i
Ġpl ates
Ġinc lin
Pro ves
ric al
Ġbut ter
}\ \{
} t
Ġspend ing
Ġcross ing
Ġdo zen
Ġsepar ately
kn own
âĢ ¢
Ġcomp osed
_ex press
on al
> .
Ġma p
Ġapp lied
Ġfactor ed
u zz
_re ci
_ theorem
Ġbr an
}\ \)Ċ
C h
_p ass
Ġve loc
g ed
Â° )
PQ RS
Ġfinish ed
a ult
P oints
ĠIs G
Ġmanip ulations
Ġdis play
b alls
\ (
\ log
C l
on tsize
igh th
). -/
Ġc art
\) .ĊĊ
, j
Ġroll ing
Ex press
h u
Ġ Ð
} A
eck l
n ie
Ġro c
ari a
Ġbe ans
ĠStrict Mono
Ġinclin ation
Ġw ire
ĠRe pres
o on
Ġd ress
_b etween
Ġb ed
ĠÂ¬( âĪĥ
ens ive
h pos
ot or
_mon ths
_f riend
Ġapp ro
Ġmod e
Ġc akes
\ sum
)= $
{O A
Ġfru its
Ġc ame
\) ?
b ig
} },
Ġvide o
Ġgr ass
? ĊĊĊ
Ġpass ed
Ġnote books
Ġch ance
one mpty
_fact ors
, k
Ġdistrib ute
u pi
ĠM id
ĠO A
h g
Ġfl at
C ount
Ġj og
) âģ»
Ġdivis ibility
ĠD F
Ġth row
Ġbound ary
' C
Ġd ots
u x
inguish able
{ ab
Ġ\( [
ĠÂ¬( âĪĢ
Ġshe ep
' B
un it
------ -|
( P
cep ts
_single ton
Ġas ked
Ġve get
Ġsubstit uting
] ,Ċ
D F
K L
ri an
ĠW ith
Ġinform ation
. ModEq
p es
)/( (
_c ast
Ġsuccess ive
c ount
ĠU S
gor ith
Ġform al
)= (
Ġf all
) y
m n
Ġun changed
_ over
Î ³
il ly
Ġpict ure
Ġ) .Ċ
{ cm
Ġperpendicular s
ber t
ri ed
edi ate
_dist ribution
Ġp icks
Ġsci entific
Ġcre ate
Ġabs urd
}\) .Ċ
Ġp ennies
Ġstr ing
Ġindependent ly
Ġbor row
Ġspe ak
Ġse as
Ġpack ages
Ġg ift
ĠJ ane
Ġde pend
Ġle mon
Ġwri tes
rib ute
_st art
Ġcol lect
clock wise
] .
Ġle ading
D iv
og raph
ct ors
St ate
ind uctive
Ġpr ess
Ġ_ âŁ©
Ġc r
a vi
p on
_ins ert
em ales
ren ch
er c
ĠT im
\ (\
Ġ čĊ
(g raf
g est
Ġlong est
/ r
Ġhx y
Ġcoinc ides
n ter
urs ive
' re
'' ''
Ġh ot
Ġrec urrence
Ġhors es
C E
_ ti
_g iven
, f
Ġjoin ed
Ġst one
Ġdeterm in
* sin
ĠE stablish
ĠB M
, E
la pping
Ġs pr
Ġli qu
Ġb ur
ĠC or
Ġmethod s
= -\
le pi
_ op
v ent
ĠN ormal
Ġj ohn
_per son
Ġxy z
Ġ\) ĊĊ
Ġpri ze
am eters
om an
in cluding
Ġgrad es
ĠO B
ĠCa uchy
C F
Ġ !
Ġcoun ting
Ġ #
.I oi
war z
_p ound
Ġdis joint
_ch ange
s econd
Ġk e
Ġhour ly
Ġexpand ing
li fies
\ equal
ĠAC B
Ġele ction
Ġ____ _
Ġvers ion
\ ,
ch warz
}= (\
bul let
Ġf ly
Ġj un
oin s
Ġcour se
Ġf res
Ġveloc ity
Ġsatis fied
Ġl ap
Ġc d
_b efore
_ us
)) ).
Ġdri ves
A fter
it ness
Ġkn ights
Ġjump s
_g reen
Ġref lected
{ .
-----| -----|
_diagon al
_reci pro
" Ċ
Ġexpand ed
room s
Ġded uce
_sp ent
Ġchar acter
ĠE l
_l arge
Ġapply ing
_I cc
Ġten th
Ġfro g
ĠM od
and a
Ġt uesday
_ he
ĠD avid
Ġda ugh
Ġrear rang
Ġexch ange
Ġtec hn
Ġbuc ket
ĠâĬ ¢
th a
Ġp B
ĠÏ Ĩ
\ cup
Ġaut om
B F
Ġh sum
Ġf enc
Ġm usic
Ġc ri
Ġweigh ing
Ġind ex
ues ts
Ġcon vert
}\ ]Ċ
Ġr etail
ac ci
if ies
Ġhigh way
_cont radiction
ix ed
Â ±
v ide
\ hline
\ angle
_f ee
ie w
- S
Ġp rac
Ġdoll ar
Ġro ok
} )$ĊĊ
â Ĭ
_ im
ĠP C
Ġpurch ases
g rid
_n orm
Ġchick ens
ĠM ay
_cub es
ish es
Ġshe ets
( Î¸
d uc
i j
} ,Ċ
Ġp ears
mp r
ip es
ĠĠĠĠĠĠĠĠĠĠĠĠĠĠĠĠ ĠĠĠĠĠĠĠĠĠ
Ġweek end
Ġexper im
wh ite
ar an
edi ately
Ġsub traction
b old
Ġli ter
B P
{ th
Ġsimp lifies
.arc sin
g ood
st er
_express ion
{ I
Ġdri ving
$ th
Ġreg ard
ol ine
Ġsa ve
Ġmom ent
_per pendicular
Ġremo ve
, linewidth
l d
num ber
+ t
v est
_co ok
Ġcl othing
_s old
Ġcomp are
Ġpalind rome
p ril
ĠF igure
_ ec
> n
ĠInitial ly
as ing
_c ross
Ġw itness
ĠD en
Ġmeasure d
- point
or ge
ĠâĬ¢ Ċ
} ]
}\ ]
Ġs lant
ĠD raw
Ġaltern ating
Ġbel ong
Ġre ads
Ġte le
Ġimm ediately
Ġde vi
Ġc ome
.prod uct
cd n
gorith m
Ġs ent
a hedron
{O B
ĠR ight
c lusive
Ġ-- /Ċ
Ġne ver
)^{ -
Ġc lim
.C oprime
Ġbro ken
X Z
Ġh ear
r d
E D
ĠÎ Ķ
_l ast
Ġsit u
Ġparalle lepi
i ches
Ġcom es
ru ary
_sur face
} }$ĊĊ
Ġf ac
âĨ Ĵ
Ġha m
** Ċ
M r
Ġb est
oc al
{ s
ad ow
Ġte a
Ġchick en
+ r
, i
ib on
Ġb ab
Ġ= \
erm ediate
Ġd ucks
anc y
{ T
bo t
Ġpar ents
h sum
Ġpack age
-------- --------
Ġt ails
ĠC l
_bis ector
bo und
Ġf ra
ter y
ĠS arah
vie w
_l aw
Ġcar ry
\ ;
Ġvill age
f rom
ĠB as
_inters ect
t en
ind rical
ans wer
ibon acci
ĠC F
Ġsubtrac ted
- r
ĠD oes
\\ ((
b its
ym bol
Ġdetermin ant
Ġphys ics
D EF
ĠFour th
Ġp A
Ġd inner
Ġ$\ _\_\_\_\_
Ġcond uct
amp ling
il k
Ġsc enario
Ġb ricks
{ and
re atest
ĠRepres ents
ĠH igh
_b ill
ĠÎ ¼
_ O
Ġg ar
f inite
Ġdi amond
Ġm otor
ric es
hab c
Ġend point
u ri
Ġi ff
Ġg l
Ġrec ursive
al k
(x y
b lue
Ġc ric
Ġmo ved
Ġde posit
Ġcor relation
olum es
Ġs izes
} C
ti li
_quadr atic
_ less
_f aces
Ġlo an
Ġexplicit ly
ĠProp osition
_g ame
Ġoff ice
ul y
ĠGe ometric
ĠVi eta
Ġbel ongs
[ *]
ect angle
Ġmo lec
Ġw age
Ġcount erexample
Ġrema inders
Ġseven th
ĠĠĠĠĠĠĠĠĠĠĠĠĠĠĠĠ ĠĠĠĠĠĠĠĠĠĠ
re y
com m
^ o
}\ \
ters ection
ault pen
ke e
. arctan
Ġass oci
Ġelimin ate
d is
is ion
-- -|
f ish
Ġcount ed
Ġprog ram
_recipro cal
}\ |
. is
_ arg
ĠE q
}) +
Ġcyl indrical
Ġhel p
S quare
Ġun known
Ġliqu id
e ans
Ġ| >.
)^{ \
Ġpos sib
Ġcorrespond s
âī ¥
_c irc
ur ch
Ġm ountain
uad r
Ġcon sum
ĠĠĠĠĠĠĠĠĠĠĠĠĠĠĠĠ ĠĠĠĠĠĠĠĠĠĠĠĠ
anti ty
-in ch
Ġs ays
âĢĸ )
P ar
Ġcl othes
, .
Ġsal t
Ġre v
ro te
il on
u ro
)^ (-
| h
Ġh w
_p air
Ġst ay
Ġfrequ ency
p rice
ma jor
}$ :
d igit
ĠE mily
u fact
Ġp o
u als
ters ecting
Ġw rote
mon ic
ĠD A
Ġfraction al
Ġcomple tes
ps ilon
R ight
e mpty
act ly
_re ma
Ġp red
Ġsen ior
Ġ$[ \
Y Z
i el
ĠNormal ize
ap es
Ġmat ter
um ent
ĠA ccording
Ġis olate
_mul t
* A
Ġd eal
Ġincl udes
ac hel
Ġb and
ang ing
ol ates
U sing
{ }\
Ġblack board
Ġ- âĪļ
ester day
Ġcoe ff
Ġor ders
_w ins
h N
_term s
di amond
ĠP r
Ġb rick
Ġdr inks
/ k
Ġoff ic
{ i
} :
Ġevery thing
_d aily
ĠXY Z
Y ou
Ġ[ /
Ġshift ed
_ T
op lus
ili es
{ q
_m iles
m ark
Ġl ayer
Ġcar rots
. not
ĠĠĠĠĠĠĠĠĠĠĠĠĠĠĠĠ ĠĠĠĠĠĠĠĠ
Ġ$ ,
-y ear
) i
âĪ ĳ
! Ċ
over ed
Ġb en
Ġoptim al
et ing
ĠF eb
Ġnum s
. S
r ig
ĠL uc
Ġm onday
Ġd est
ell a
B M
We ek
t and
Ġr ays
Ġv ary
_b ags
j ection
ell ing
_pos ition
Ġat temp
Ġparallelepi ped
Ġh ats
Ġgu aran
Ġschool s
{ r
Ġh at
eal th
ĠC P
ĠP ut
ĠP eter
Ġch ain
Ġcoinc ide
or ld
Ġderive d
. In
+ âĪŀ
k a
_d e
ce ed
an a
Ġy ard
Ġcommit tee
p ath
ang u
) [/
_un it
P C
_w age
Ġvisit ed
ĠM ing
Ġc ot
Ġ(- (
if e
_ U
Ġsolve d
. \]Ċ
Ġcol le
Le ast
Ġcook ie
ve lop
Ġha ir
ĠMar ch
) âĮĭ
ener gy
+ B
ĠG CD
_bo tt
Ġle ad
_b lack
lan ar
Ġsub st
un n
Ġn eckl
ĠM ichael
Ġfar mer
_or ig
Ġent ries
ĠM in
me l
Ġcor n
Ġis Valid
Ġswim ming
( ab
Ġv olumes
Ġn uts
Ġor ch
a ves
Ġspec ified
Ġanaly tical
Ġb ad
Ġth us
_fl oor
Ġm eat
Ġ" ,
og onal
Ġsh ared
ĠAl gebra
Ġlea ving
\ mathbf
d vd
ĠP h
uzz le
_d ouble
} <
Ġman ufact
ak ing
Ġincl uded
A ll
Ġincl ude
Ġocc upi
if th
Ġcup cakes
H S
-s ection
_ Î±
ul er
h AB
ĠL ines
w ri
Ġgra pes
- major
_t ra
Ġpar king
urs es
Ġvis ible
_th rough
m um
ĠF ibonacci
im eters
Ġs we
* i
Ġ$\{ -
' _
Ġb onus
Ġevery one
end er
pend iture
Ġtrig on
ĠMathematic s
_ ir
er ries
Ġsub jects
ĠIsG reatest
Ġtouch ing
âĢ Ŀ
Ġuniform ly
Ġeven ing
c ongr
_w in
Ġso uth
Ġfind s
_arrang ement
Ġst atis
, D
ĠC ity
-sh aped
ow ing
Ġcounter clockwise
_dec reasing
um bers
/ p
_ch ildren
F ill
od es
c olor
Ġv aries
_c l
wide hat
Ġpot atoes
Ġad v
o ors
ĠP lease
circ les
Ġtw elve
/ q
Ġli ves
ĠFeb ruary
Ġas cending
< a
Ġtom atoes
Ġt re
_inc r
en a
Ġar ray
ti g
{m atrix
ĠC ol
Of Week
Ġb ird
ec e
Ġto wer
' ^
rough t
_we eks
Ġcircum radius
Ġpers ons
l ight
Ġtax es
Ġreturn ed
ind ex
ĠT V
Ġwhe els
Ġgas oline
_m oles
\ minus
} f
Ġmag ic
}^{ *
Ġs ongs
____ .
Ġdefinition s
Ġcric ket
lim it
_qu antity
ĠB F
Ġtri vial
* Î±
per imeter
qu e
E ven
Ġs le
ĠâĢ ľ
Ġmean ing
( r
Ġdivid end
Ġrepl ace
Ġg iving
s im
Ġr earrange
Ġw est
fill draw
ĠD isc
' $,
Ġm ist
Ġp x
Ġan t
un te
$. ĊĊĊ
Ġfenc ing
et ch
Ġpro mo
_simplif ication
Ġcompon ents
. ĊĊĊ
Ġh C
ĠAB D
- A
e on
Ġs olving
h ind
t wo
ar th
Ġad j
as ure
ĠPro blem
Ġhors e
Ġp ipes
}$ ),
Ġmiss ing
_rema inder
A rea
Ġle ar
ag ons
_seg ment
Ġvehic les
Ġc ister
om mon
Ġhouse hold
_divis ors
Ġrais ed
kee per
Ġfe w
Ġminim ized
Ġal t
ĠBC D
i jective
_m ag
Ġcomm ission
im ension
âĢ ²
a u
b ur
Ġst ri
Ġplan ned
Ġpict ures
Ġm er
Ġseas hells
Ġim age
M A
e ven
_se lection
d own
ĠA OB
vi a
ĠJ une
Ġsystem atic
Ġquadr up
_red uction
t d
S E
st art
_ex t
ĠDay OfWeek
d uct
Ġf lips
Ġend ing
Ġd ensity
Ġcister n
st o
Ġfun d
Ġother wise
Ġdri ver
n on
Ï ĥ
Ġmaxim ized
ad es
Ġn ame
oll ary
Ġp ill
Ġtrans fer
Ġmolec ular
Ġf li
\\ Ċ
Ġprojection s
ur ance
Con vert
ĠCh o
D uring
z a
u bo
Ġob ject
empty set
> b
st yle
[ n
ĠB ill
_ver tex
rop ri
_id enti
ï¼ ŀ
Ġtrigon ometric
Ġshel f
_mar ks
Ġcheck er
Ġd rove
\_\_ \_
. <
Ġcont inu
âĮ Ĭ
f avorable
Ġv iew
u pe
Ġ(- âĪŀ,
. $ĊĊ
_comp arison
dis play
Ġcon version
S p
Ġfinal ly
Ġp uts
Ġparam eters
Ġg uests
at ives
Ġs ib
Ġbran ch
_t an
Ġover time
}^* $,
Ġtransl ated
)$ ;ĊĊ
+ C
_ ABC
* B
_on ly
{ |
} }=\
( e
Ġf avor
Ġsn ow
Ġ$ .
Ġst or
(i i
_b l
Ġsy m
Ġbus es
display style
A dd
ĠC enter
------ |
ĠH ere
, A
_un ion
| y
in omial
_p oly
Ġpl ate
Ġmod ified
= y
Ġneighbor ing
s uit
ĠS peed
_s lices
if ts
sh akes
+ ,
O dd
Ġb rought
Ġar g
ri t
Ġbo dy
ak en
Ġde le
ĠOr iginal
ast er
_d own
h F
Ġh j
ha pe
Ġp ink
pl ace
ĠC B
Ġpe an
F actor
-h our
ĠJ oe
h i
Ġh ole
Ġinr adius
\ \).
h R
Ġin ch
_sp lit
Ġex clusive
am s
ll a
Ġres earch
_l cm
Ġmonot one
_h and
pr ofit
Ġn th
Ġl angu
$, Ċ
Ġ\ :
Ġnote book
Ġintern ally
Ġvertic ally
_ times
_ X
Ġbo b
ol ves
Ġsum mer
ĠIs Least
)) ^(
ĠI ts
F ive
rac k
âĦ ķ
* w
Î µ
Ġbec ome
_ axis
arg in
a id
_p re
_m en
Ġex erc
_c oprime
Ġf emales
_pi eces
Ġsandw iches
.d egree
ĠR eg
Ġf a
ag ue
.p ng
) }^{
S eq
l ceil
Ġcap s
\ beta
âĪ ª
_multip lier
h ouse
Ġsandw ich
{{ {
}= (-
incip al
Ġpre fer
á ¶
Ġestim ate
ĠT rain
Ġsh ot
Ġal gorithm
op per
Ġtr ucks
Ġexpon ents
Ġde velop
ĠVer ifies
ĠProp er
th ere
Ġcon verse
Ġcongru ence
ur th
ĠG ame
Ġâĸ ¸
i pping
Ġa ver
ph one
Ġmain tain
_f e
Ġcar p
Ġvol unte
imension al
/ t
enc ils
_pl ayers
eg an
Ġch ip
Ġfe ed
os itive
_l inear
ote l
( {
co eff
Ġsl ower
_s ystem
ĠB ased
Ġb ug
Ġglass es
N E
âŁ ¨
ĠCho ose
Ġh all
Ġm ales
_ edges
em s
ĠI II
Ġint ermediate
Ġdi ameters
ar on
Ġv ess
Ġd uration
Ġmod ular
Ġhist ory
Ġfi b
r ceil
Ġl ad
Ġz x
erm an
_four th
) a
s ymbol
Ġhorizontal ly
.$ $
Ġborrow ed
Ġind uctive
+c a
}} Ċ
_ H
\ lim
Ġ\ ))
me an
Ġâī Ī
Ġen ve
Ġtransform ed
_inc reasing
ĠR adius
âĤ ĭ
Ġpurch asing
bold symbol
= k
D i
< sup
Ġpalind rom
Ġprov ided
itt ens
Ġsch em
ag ed
Ġeg g
^{ (
Ġchoc olates
Ġmet al
Ġra ise
ĠInd uctive
i ent
Ġstraw berries
ĠO ption
Ġre vers
Ġexperim ent
] !
ĠA pril
A nd
ind y
, q
ol as
ph ill
Ġreci pe
Ġun ders
il lion
Ġarri ves
Ġb d
Ġd ad
( S
_cook ies
Ġautom atic
ĠMr s
* sqrt
_ cho
Ġall oy
/ sin
Ġm uff
_t rees
ent ers
ut ure
... +
Ġ energy
Ġregard less
i ence
t ons
| a
Ġparticip ated
r atio
Ġquadrilateral s
Ġdoub led
_mar bles
M B
Ġgra pe
arith metic
iz ing
Ġf r
Ġlike ly
Ġbow l
ĠAlgebra ic
or ner
)= |
Ġus ual
Ġemploy ee
Ġl ock
Ġconc urrent
_s er
ĠP aul
$ '
ĠPro vide
Ġsepar ated
Ġd eta
_work ers
_con version
^ c
Ġh eld
_m o
á¶ ľ
Ġkn ight
ĠIs Valid
un s
Ġl ate
a fter
r ategy
A lice
_ro und
b âĤĻ
Ã ©
Ġmach ines
Ġintro duc
_c oins
_m ove
ĠBas ic
Ġapproxim ate
Ġjoin ing
Ġcontra positive
-min or
ĠR em
Ġstre et
Ġp uppies
Ġh div
Ġallow ance
) ),Ċ
_ eg
ess ica
Ġcl oth
_or iginal
_ex ist
Ġs am
ĠF urther
d isc
h l
ol ar
Ġw oman
_simplif ied
ĠO ly
not in
ag ing
Ġpre m
Ġh l
âŁ© ,
Ġdi hedral
Ġhundred s
Ġw alls
ĠB A
}+ {
ĠN ote
_integ er
Ġ( )ĊĊ
Ġabs ent
\ mid
ver tices
_g all
. N
w ater
Ġb at
Of Digits
s mall
a e
Ġbe hind
Ġsh apes
Ġpromo tion
ir ty
_d omain
Ġma ps
Ġ }$
Ġfl ight
Ġrab bits
Ġloc ation
_equ iv
_ CD
urch ase
c ar
Ġcolle ge
Ġre wri
/ e
Ġver y
, e
Ġpizz as
*( (
) }{\
Ġprincip le
Ġf ul
_is osceles
ann y
ĠDen ote
Ġtrip s
p q
y es
Ġintro s
Ġe ating
Ġbet ter
ĠN N
and ard
Ġse lects
ĠĠĠĠĠĠĠĠĠĠĠĠĠĠĠĠ ĠĠĠĠĠĠĠĠĠĠĠ
ĠM ore
Ġ} ^{
_s ame
erm ore
Ġh g
ĠJ im
Ġpre par
Ġex penditure
ĠE d
âģ µ
Ġseat ed
'' '
urth ermore
Ġfam ilies
ĠJ ill
_par ts
Ġpric ed
Ġh its
Ġv an
mp i
it er
Ġback ward
Ġarri ve
-S chwarz
arc cos
Ġorth ogonal
in ts
}$ ;Ċ
Ġcont ribution
'' (
Ġdo or
Ġbe y
Ġt u
Ġextre mum
. a
_s ym
ci ence
_h as
Ġcycl ist
ropri ate
g roup
_y ears
Ġbegin s
Ġcalcul ating
re ak
= kx
ub lic
Ġpar ity
Ġit er
Ġtra ffic
\ to
Ġind ices
Ġbey ond
Ġc ubo
Ġsh aring
Ġw ra
ĠL CM
Ġth rows
", (-
eat ing
y perbola
_per im
f ind
Ġh ard
en th
Ġcalcul ator
Ġm ess
olution s
Ġpres er
ĠO f
Ġgrad ers
_w ays
Ġdevi ation
= n
us an
h ere
ĠM B
^( (
comm unity
ĠA m
arc sin
Ġdoub les
Ġrab bit
Ġcoup on
on t
Ġth ick
+ }
Ġatt ended
Ġhar vest
Ġfi les
Ġsuper mar
ann a
hc a
_d uration
O M
Ġh pos
Ġe fficiency
v art
vart riangle
bo th
mpi ad
Ġvisit ors
Ġwind ow
C olor
ic tion
g ing
O p
/ community
_v is
_m edian
Ġcompon ent
o times
units ize
ĠR S
Ġring s
as ts
}$ ?Ċ
Ġsp inner
Ġse ed
Ġk ing
Ġli ars
Ġopen ed
Ġ Ã·
ind a
eat en
Co mp
Ġbanan a
_b all
Ġdef initely
ĠNN Real
Ġx z
Ġt ro
ĠY Z
av g
Ġfi lls
Ġchem istry
Ġautomatic ally
_d raw
_b ag
. \)
k er
_c ars
Ġmultip lic
ĠE arth
= g
_e le
Ġt ests
Ġex cluding
ĠA rithmetic
Ġspher ical
Ġ| (-
= c
ol lip
Ġwater mel
{n one
Ġreach ed
ir m
| /
Ġconj unction
ĠChar lie
. artofproblemsolving
Ġhb c
Ġfra me
_trans form
ci ent
Ġj o
Ġer as
Ġf le
)}\ ;
Ġappro aches
C ar
n orm
Ġrep air
\ ldots
Ġw ednesday
Ġb order
Ġr upe
Ġclim b
Ġ[ (
Ġact ually
Ġyield s
B B
ĠS c
_e val
m ission
f all
Ġconsecutive ly
M e
O H
ĠB e
Ġfor ce
ĠW ork
Ġper imeters
- B
Ġass umptions
v in
Ġac id
Ġsym bol
r ance
^ *
Ġconcent ration
Ġa ff
Ġg row
let es
app rox
en ry
Ġli c
Ġwri ting
A l
. b
e fficient
-f our
_identi ty
ist ance
_arith metic
per pendicular
Ġh otel
ut y
il li
Ġindivid uals
Ġcomplement ary
Ġcost ing
Ġp an
Ġl ights
Ġclos er
Ġbul bs
os h
` `
_min imum
ow ers
ĠAn other
Ġgeom etry
Ġexpon ential
Ġa ction
Ġ\) ?-/
_ac ute
_n at
ion al
o z
= \_\_\_\_\_\_
d iff
Ġmang oes
ĠM e
uc ts
Ġ\ \)
_ mp
_d ot
-f oot
Ġ! ![
Ġshoot ing
ol f
Ġco urses
Ġ& &
Ġlog b
Ġc ab
ur al
Ġch anged
_di ameter
ĠP rice
Ġall ows
\}$ .Ċ
ĠCh ina
Ġalt ogether
] \)
Ġtw enty
we ek
* -/
_s ale
uli a
Ġ( Ċ
li ke
bo ve
_y ellow
Ġsu ffic
} [
Ġsw itch
unn el
Ġdepart ment
Ġspr ing
( )Ċ
E qu
Ġ(- \
Ġal b
_b e
ĠL ast
Ġgrocer y
Ġto k
ĠM aria
c ome
_dec rease
_th an
a i
e w
as hed
pres ent
t end
] \
Ġcontain ers
_b c
Ġvess el
{ g
), (
Ġshop keeper
- to
*d ir
Ġde ep
avi er
Ġ& \
Ġsp aced
Ġ\] -/
Ġun c
ĠMax imum
Ġcop ies
* v
h ours
/h our
Ġsuffic es
li de
b race
Ġb ath
Ġconcent ric
d elta
ack ward
Ġc ash
Ġgra y
ĠM ean
ition al
+b x
Ġro se
Ġelect ric
ĠCon n
_k mph
_l o
Ġtok ens
Ġex cess
Ġshift ing
Ar rows
A N
Ġ\( |
Ġe ighth
ĠV alid
Ġcop lanar
ĠC M
Ġp q
.I ci
) <
_f ood
m en
M P
od e
ĠAn n
_g rowth
}} }
) -\
_ L
Ġparticip ating
oth p
s el
ĠA A
ur ations
ph ab
ic ate
ĠPar allel
Ġsitu ation
E C
W rite
p is
Ġpro ceed
as cal
Ġprov iding
> <
Ġsa w
Ġl ose
_ch ord
ffer ent
h ang
Ġbor n
Ġ$ $(
att ach
Ġmax imal
ec h
ĠPer pendicular
P M
Ġfl ag
le te
Ġkind s
_ an
Ġl ake
) âĢĸ
Ġj ud
ABCD EF
uad rilateral
_sum s
Ġsched ule
sc ale
al ance
Ġc alls
ĠN E
)+ (
be ans
reg ular
Ġpar ab
wh en
Ġcomple ting
_multip le
_friend s
Ġh M
ol id
cent ricity
Ġsubstit ution
us es
_or anges
Ġstr ong
Ġ$ +
.B ijective
_p ri
-d imensional
Ġhar monic
ĠB B
.) -/
Ġh S
-sh irts
Ġ\) ;Ċ
}| $
Ġparticip ant
_c over
ĠG H
Ġown s
ĠR ound
Ġ/ /
Ġdaugh ter
Ġc ateg
ĠC ost
_t ang
Ġpe pper
_div ides
Ġdes ign
)\ \)Ċ
Ġeng ine
n othing
Ġen ro
cl ass
ari able
/ attach
/attach ments
Ġpartic le
Ġv ar
Ġdec omp
Ġ )$Ċ
var nothing
ug ar
Ġdis ks
Ġz oo
/> Ċ
/ w
= (-
- gon
_s pend
BC D
Ġsuit able
Ġ\) :Ċ
Ġmon ic
Ġfac ts
ach ine
ĠJ erry
_ec centricity
R e
Ġoccupi ed
Ġvary ing
Ġdest ination
! $
+ p
Ġqu ality
_exp ansion
( real
Ġsign ific
, +âĪŀ
_ limit
re ater
ro l
th an
Ġ\ }
Ġref lect
et ty
Ġro d
Ġnone mpty
> \
em y
ymm etric
{ âĨĴ
ĠPl ayer
Ġexam ination
& top
ĠDisc uss
{ PQ
Ġr ides
Ġat omic
Ġown er
Ġl amps
ĠJ ake
ĠĠĠĠĠĠĠĠĠĠĠĠĠĠĠĠ ĠĠĠĠĠĠĠĠĠĠĠĠĠĠĠĠ
oly a
sh op
M ove
Ġro utes
dd y
ĠâĪħ )Ċ
Ġsp aces
ĠâĪ ¥
ve ls
se lling
_con c
Ġm all
& \
ĠP at
h ole
_quadr ant
/ v
v able
_re f
Ġinves ts
N W
Con fig
C C
rac t
ĠSte ve
Ġbu ilt
Ġhas DerivAt
Ġj eans
red it
ĠH alf
_f ish
Ġ____ .-/
Ġt reas
Ġd y
Ġcre ated
Ġtransport ation
< b
A d
âĢĸ ^
ĠUn der
Ã ¡
_co mple
Ġapart ment
Ġcri tical
ĠâĪ ŀ
Î ¼
cep ted
W ith
Sp ace
Ġclass room
Ġkilom eter
bo tt
Ġal phab
Ġsupp ose
ch ant
_ em
Ġth rown
) z
ĠT rans
eg ment
$, $
_ex ample
g raph
v ies
ĠD ue
.n at
_seg ments
r fl
Ġb illion
r adi
Ġs ing
end sto
ĠG roup
ĠâĢĸ (
B ig
Ġb acter
Ġlic ense
Ġli ving
k in
ĠF urthermore
ĠD o
Ġjack et
ain t
ĠH arry
_ex pr
y an
} }-\
Ġmanag er
alle logram
ï¼ī Ċ
al ue
Ġcut ting
ĠCh rist
Ġbi ology
Ġg en
Ġunders tand
d et
p ages
Ġde b
ĠDist ribute
+ linewidth
Ġvac ation
i pe
Ġden om
crib e
an ks
Ġf lip
Ġ\\ (-
Ġa head
Ġinv olve
_b as
Ġcompound ed
h Î±
ish a
iss a
{âĨĴ }{
) }Ċ
_sc ores
_f ocus
Ġacti vity
Ġfl oors
v ities
_s hel
ĠCor ollary
el ay
_imp ossible
Ġ______ _
ĠStart ing
Ġbasket s
Ġrent al
m ary
_divis ible
Ġcharg ed
Ġins urance
Ġtrans lation
Ġmark up
Ġt ex
am ed
Ġmark ers
_eg gs
Ġunique ly
er al
Ġapp ropriate
Ġ\\( (\
mp loy
_{ (
_p h
ust um
Ġconduct ed
_ rows
Ġlabel s
H e
s imp
Ġg ym
Ġsum OfDigits
Ġco de
Ġgo als
Ġphot os
. čĊčĊ
_z eros
Ġ| -
Ġpure ly
sel ves
_d eterm
_cho ices
ĠF rench
Ġb race
Ġexpon ent
re ment
_h yp
_symm etry
_p encils
Ġmo vies
ĠX Z
Ġtransform ations
âĳ ¤
Ġh ide
_c ond
_d ogs
Ġac res
Ġconc yclic
h ill
Ġv ot
res hold
Ġfro gs
Ġte ll
Ġt a
im es
Ġhit ting
= ax
Ġdes igned
{( \
ur ve
Ġco us
_sh ift
P rime
}) -
Ġlist ed
}\ }$.
Ġshe lls
om ing
/ min
M ain
ce ll
Ġ_ )
Ġm ouse
el ow
y d
Ġf alls
Ġ\) ?Ċ
Ġext ensions
m other
= "
Ġcat ches
enth es
Ġ\ }$
_mem bers
Ġthem selves
u ry
ĠAn na
Ġperform ance
ower set
Ġrece iving
sc r
Ġc ow
Ġsuccess ful
Ġb ake
Ġp ine
Ġl osing
Ġl amp
ĠD ave
- v
p g
Ġsub ject
Ġm ush
Ġwear ing
ac y
âĢ º
. right
Ġon line
_di ag
Ġpossib ilities
| |
Ġ\( -
Ġ$\ |\
is es
ĠF rank
Ġred uce
( linewidth
. }$Ċ
{ II
Ġ import
ĠWh o
Ġidenti ties
+ e
}- (
Ġdeta iled
ĠAC D
Ġkee p
_A D
Ġwh oles
_d is
{ BD
ĠĠĠ Ċ
+ f
T rans
_l en
Ġ(\ (
Ġtax i
_ are
_ end
t ure
ĠN ot
Ġ/- (
ĠSt udent
_inter cept
Ġscor ing
ĠÂł ÂłÂł
Ġlemon ade
ĠSubs tit
Ġcubo id
âģ ¿
Ġangle B
U se
u y
le mma
ĠL isa
_r est
)\ \),
_diagon als
Ġdeli ver
Ġy esterday
ĠJ uly
Ġin valid
ĠMathematic al
Ġm el
_s eats
Ġestablish ed
Ġsupermar ket
R ound
Ġwind ows
Ġma pping
ce ler
math scr
Ġti e
Ġsum ming
Ġpl acing
Ġrot ating
Ġc er
Ġan imal
mon th
Ġdraw er
_par abola
ord an
Ġto o
ĠE nter
_ve ctors
] {\
Ġt urt
Ġg ather
Ġhand shakes
Ġ![ ![
h E
i h
Ġc ast
qu ares
)) *(
Ġ_ )Ċ
ection s
Ġsemic ircles
Ġr ank
Ġfi re
Ġ- (-
[ f
âĢ¦ +
_f ace
Ġsa ves
Ġsupp ort
ĠF red
.p owerset
ac tions
Ġ______ _.
M F
in th
eon hole
Ġg congr
Ġcon ference
Ġti es
ong ru
Ġmat rices
Ġinverse ly
Ġmaxim ize
Pl ane
Ġfavor ite
al king
ys ics
ĠâĪħ )
C P
ĠS ally
xy gen
il le
_c al
.n card
T ime
Ġs ess
Ġyear ly
ou ts
Ġb urn
an ie
ĠM P
Con struct
Ġhi j
Ġcle aring
_re m
_c ans
ro gen
ĠI van
\ overline
_m ark
ip ment
Ġdis k
Ï Ĩ
le ar
Ġm n
^{ *
od ay
_st udent
asy mp
_c ollinear
Ġu phill
Ġinst all
,\,\ ,\,\
] https
Ġprove d
red uc
g m
ann ah
T om
ĠA H
coordin ate
{t g
ĠI ff
ab ric
_m ain
_r ent
Ġexist ential
}^ +
Ġposition ed
Ġs oph
Ġch erry
F G
Ġpar enthes
Ġcircum circles
Ġpick ing
:âĦ ¤
_p olynomial
Ġob jects
_app rox
| }
od ec
_pl atform
Ġfinish es
Ġdist inguishable
.e lim
Ġh P
Ġarri ved
h h
Ġb eats
Ġs of
Ġfa iled
.m ap
u ine
ĠJ ason
âĨ ĳ
h Q
alind rome
ev in
Ġ et
on ly
Ġcover ing
Ġland s
ĠFin type
Ġocc urr
=t rue
) e
ĠW ang
ĠCh ris
Ġlit res
ian a
any a
As sume
Ġcon es
Ġre le
Ġop pon
ag ged
Ġprof ess
Ġdo ugh
ï¼ İ
Ġ$\_\_\_\_\_ \_
Ġfill ing
th at
ri ction
it a
def aultpen
) (\
{ G
Ġh N
Ġce iling
[ img
ĠC C
Ġcomp arison
lement ary
_neg ative
Ġidenti fy
Ġseat ing
Ġsen iors
N umber
}\ )ĊĊ
Ġacti vities
, p
Le ft
r an
Ġeff ective
. one
ar ter
ĠA N
Ġtrain ing
=\{ -
ĠE uler
\) -
Ġdid n
_ geq
Ġor d
ĠT âĤĻ
Ġinv olves
D ist
disc ount
Ġath letes
ĠB o
,\ ,
ĠD e
ret e
Ġwood en
Ġf riday
ĠN a
Ġpart ners
Ġcap ital
_mon otone
Ġsib lings
Ġsepar ate
ĠO P
h opper
_b alance
Ġvehic le
Ġsignific ant
Ġlangu age
c ase
Ġfor est
Ġli ve
:âĦ ķ
_f emale
Â° ,Ċ
_deg rees
pe x
ĠP S
Ar row
ti le
_s ine
ia o
ĠCar l
ĠSubstit uting
l arge
ti vity
Ġt unnel
Ġdomin oes
Ġmer chant
( |
Ġmon omial
Ġh em
u qu
-min ute
U n
Ġ$ {{
Ġe uro
Ġentire ly
ac ob
Ġl ollip
_f alse
Ġt ail
Ġlab or
Ġbr ing
Ġguaran tee
Ġnot es
_in verse
ĠCar ol
Ġlot tery
Ġbut tons
} ]$
enn a
oll ars
Ġelect ron
Ġintroduc ing
Ġg rows
Ġcount ries
P osition
cal ator
d om
t ri
, t
_s ufficient
_g ain
J ames
Ġd ra
enti ally
z er
ol ly
als o
Ġbacter ia
Ġ(âĪĥ !
othp icks
. T
un a
Ġet c
Ġ/ Ċ
u per
)) ĊĊ
_mag nitude
w edge
Ġ____ ____
Ġsl ow
âĢ² (
_d ep
act ors
ĠR ec
uck y
Ġ$\ {\
_ other
Ġ )$ĊĊ
Ġs ectors
Ġh oles
Ġhy d
id able
Ġexp ensive
_cross ing
-m eter
_fe et
Ġfind ing
as p
_n ext
Ġ urn
in ate
ĠP ark
_c ustom
-d ef
ĠRe place
Ġ({ -
Ġadj ust
g reen
n ight
is tic
n uts
âĪ ¥
S equence
, r
Ġbe ef
A bs
." Ċ
_c and
}} (
Ġwant ed
Ġs orted
Ġ$ Ċ
_sh irts
in o
cl uded
Ġstand s
c an
y n
F unction
Ġac celer
Ġv ote
}$ ;<
f ast
ĠR ectangle
_s pec
Ġn amed
_p aid
Ġdef inite
( O
_divis ibility
Ġa ward
Ġ/- $
Ġcont rib
ĠB ackward
âģ ¶
Ġham bur
- q
Ġweight ed
Ġch air
Ġm ary
l not
Ġthe ater
{ Ċ
Ġw orld
Ġrewri tten
Ġthere fore
lin es
O N
_ asymp
_m ilk
_ book
ĠCan not
Me thod
* X
_m ix
_c ycle
{ H
_s elling
_const ant
Ġma s
_pound s
Ġprac tice
g ent
Ġdoll s
ĠCar los
ĠA verage
D oes
if teen
\{ Ċ
Ġtom ato
_tw elve
Ġs ong
Ġ+ âĪŀ
Ġd ish
ĠS andy
. M
Ġsp ots
g ets
âĪĪ R
_st rict
Ġc ycles
ĠK ar
Ġj an
] ]
Ġderiv ing
Ġt old
{ }$
Ġyoun gest
_ ind
|, |
C an
c urrent
Ġ ).
Ġoffic ers
ive d
in ity
Ġin it
Ġp ed
ch eck
V er
under brace
. exists
Ġcalcul us
Ġshel ves
ĠAdd ing
Ġens uring
Ġrequire ments
Ïī x
A ns
_x y
Ġvis its
m ond
un t
T op
Ġa pex
)$ $
_comp osition
Ġsle ep
A K
{O C
Î ¾
ĠM ove
Ġexp ect
_m an
Ġsur v
_c ircles
_le g
Ġpre v
D B
fe it
_step s
ĠC ube
Ġparab olas
em ic
Ġequ ipment
\% $,
_ Î²
Ġd ance
) _{
_c ut
. coeff
Ġj ars
tit ude
= m
{ X
Ġline width
\[ (
ĠI H
ĠDan iel
Ġer ased
Ġ čĊčĊ
(C ircle
Ġartic les
Ġh ere
Ġfr ustum
^ r
es ti
Ġf er
ĠA K
ĠK L
Ġunivers ity
( circle
s a
_num s
h ear
ra b
_set s
Ġrecursive ly
} c
ĠEx actly
ĠO C
Ġte lls
Ġd war
Ġ{ {
Ġed uc
Ġscal ene
Ġmang o
Ans wer
ĠS n
int eg
^ t
h ood
G roup
Ġh oney
ÂłÂłÂłÂłÂłÂłÂłÂł ÂłÂłÂłÂł
Ġresid ents
_cons umption
Ġa ud
ar m
Ġcomp an
Ġcop per
_trip le
Ġfres hm
ĠA Q
tim ate
Ġdeli very
Ġful ly
_ eaten
Ġsh adow
ĠO ver
Ġexerc ise
Ġtr is
Ġth ursday
ĠAd am
_t rue
ti ble
Ġd ate
Ġchem ical
c ross
ĠQ uadr
Ġpre c
Ġfif teen
_ro t
Ġgrass hopper
Ġveget ables
ĠC ondition
Ġoffer ed
) cos
Ġh elper
ener ate
ations hip
ABCD E
. has
_s phere
k y
{ ,
Ġmil li
ĠO ut
Ġover lapping
d es
g round
Ġk ittens
Ġhundred th
-g rade
st ore
}. \]Ċ
Ġmeal s
\lim its
r up
T icks
)} (
,âĪŀ )
Ġv ow
Ġe m
Ġanal og
Ġ )$.ĊĊ
Ġassign ment
Ġst ations
Ġqu iz
ĠAD C
= A
_s w
Ġ\) -/
ĠO li
Ġa p
Ġsu pply
s elf
in king
wo od
_dec imal
ou th
ĠR ed
Ġtry ing
. comp
Ġcontin ue
Ġh os
ĠĠĠĠĠĠĠĠĠĠĠĠĠĠĠĠ ĠĠĠĠĠĠĠĠĠĠĠĠĠĠ
ĠSh ould
Ġch ose
_f ilter
Ġf acing
ĠAnd rew
ten ance
_ G
u ke
ill a
a o
h v
ĠâĢ ¦
Ġaltern ate
Ġphot o
er ence
Ġtoss ed
Ġbl ank
Ġtall er
Ġh ers
us ti
ce lls
t arget
Ġst age
Ġsh oe
Ġcol our
_color ing
. get
C ircle
Ġsu re
_e mpty
}\). -/
ĠDec ember
c x
ĠComp are
Ġm ight
Ġo z
,y max
)) =
round ed
_ver tices
st ers
Fin ite
av y
( .
us ing
_c up
_k g
ĠConn ect
s ec
ĠA my
est ed
_r pow
_comple tion
Ġass em
Ġd odec
ĠĠĠĠĠĠĠĠĠĠĠĠĠĠĠĠ ĠĠĠĠĠĠĠĠĠĠĠĠĠ
Ġli ft
_re mo
it ed
_qu es
D ec
ĠTh rough
Ġent rance
Ġrook s
Ġst ars
Ġp oc
ĠF G
Ġwork shop
Ġe pis
hx y
Ġradi o
- number
AB D
B y
ard o
Ġroc ks
Ġdisc overed
m ons
Ġl ay
), \
Ġre action
Ġplan ning
Ġgar age
-in tersecting
Ġin nings
_n ecessary
Ġann ually
Ġevent ually
-th irds
{ EF
ĠR achel
_m ile
Ġtr ad
ĠUS D
S ome
ĠB on
Ġ\\(\ {
j i
ic ally
_pow ers
ĠAss umption
Ġrun ner
Ġdr ank
z ens
Ġc raw
ĠâĪļ ((
Ġsn akes
.\] -/
= e
Ġrun ners
Ġreach ing
- per
_ K
Ġp lease
Ġf ail
Ġparenthes es
Ġh um
Ġh ealth
ĠM o
ĠÎ ¾
Ġeras ers
. parallel
ĠA mer
we ight
itch en
+ |
ĠE mma
re fl
Ġmodul us
Ġth ink
ĠB eth
^ [
Ġbro thers
. g
ĠL ater
Ġangle A
Ġjelly beans
)}{ (
idable Eq
+ ax
Ġa lice
id den
Ġall oc
ex cluding
Ġyoun g
( M
i ef
Ġpainting s
}\ _{
i us
| )Ċ
er ator
ar acter
Ġir on
S âĤĻ
Ġwait ing
. of
Ġsc o
Ġhapp en
, gray
Ġs aturday
Ġpay ing
b a
Ġc as
Ġpercent ages
con t
T erm
\% $.
, F
ak er
Ġenro lled
ĠS E
_me eting
Ġimp rove
Ġeff ect
um in
Ġst aff
ach ed
-hand ed
w ord
Ġear lier
) dx
l ow
ic an
âĪ ©
Ġtas ks
ĠEqu al
or row
re c
-- (
Ġfocus ing
Ġinform al
Ġconc ert
Ġconn ect
Ġcard inal
pt ember
. ph
_t able
Ġle ague
ĠCh eck
Ġli kes
sp aper
-d egree
Ġc redit
Ġan ts
ug ust
)\) .Ċ
_exist ence
_dep th
cc cc
Ġcont ent
Ġachie ves
_p acks
ĠI V
_j ump
Ġstor age
esti val
over lapping
Ġac qu
Ġke pt
Ġw ife
Ġobser ved
ĠâĪ Ľ
div isors
âĪĪ N
Ġes calator
ĠGe orge
ik a
[ -\
up les
Ġgre w
Ġso ap
R eg
Ġvol ley
Ġchecker board
ke ys
Ġpress ure
}, +\
Ġconstruct ing
ĠV olume
ĠMore over
_ it
Ġsum Digits
Ġarg ument
A O
m ates
ik i
Ġd ise
ap ters
_expand ed
} (-
Ġa im
Ġl os
Ġdomin o
Ġwholes ale
Ġinter cepts
Ġrupe es
A H
Ġh om
_s chool
ty le
S W
Ġf abric
re ed
.ph p
d ing
or ig
Ġthick ness
^ d
t le
v a
Ġar r
Ġath lete
_c andy
Ġhexagon al
Ġn ails
Ġdec or
|= |
Ġhem is
A X
Ġ$( {
_ u
ĠS o
ph er
* R
E very
,\ !
+ s
Ġp ul
Ġw ages
S T
or tions
ĠE C
}_{ \
Ġrepeated ly
Ġr ib
âĤ ĺ
ĠAddition al
Ġsoc ial
Ġcarp et
tain ed
_problem s
l ong
ent ly
Ġsh ipping
- $
our n
is ing
Ġsp in
_ve ctor
L ast
Ġstraw berry
_mo ves
\ cdots
ĠS ur
_us ed
Ġpalindrom es
Ġli fe
Ġmag az
_cub ic
Ġent ry
tic ed
Ġch amp
agon al
am er
Ġ ow
te es
Ġti res
ex ample
_simp lify
Ġcomm unity
Ġrequire ment
_circ um
* C
ĠIs L
Ġth rice
yl inder
Ġrev olutions
Ġtu lips
+ ab
. ext
ĠB AD
ĠâĢ ¹
( int
z i
_b ars
Ġcol lects
Ġweigh ed
_f ixed
Ġca f
c rip
ĠMon otone
Ġâ Ĥ
Ġma il
app le
? "
}{ {{
atur es
Ġequ i
as tic
equal s
equ ences
Ġinf inity
ug s
Ġcar n
ist inguishable
Ġsin es
Ġaver ages
ĠSh ift
Ġar ctan
= https
Ġ\ %
use um
Ġdown hill
Ġchec ks
ĠS W
Ġenter ed
_p ens
Ġsign al
y e
Ġg ifts
Ġat tains
Ġ\_\_\_\_\_\_ $.
Ġconver ges
Ġinves tig
) âĭħ
x f
Ġcan ce
Ġcur r
bott om
/ (-
_p attern
Ġknow ing
Ġav oid
ar b
Ġoct ahedron
_ er
Ġmi ke
Ġsimilar ly
.N onempty
_path s
* e
Ġr ail
Ġin g
_g rade
_equ ival
.In jective
{ lcm
Ġcomput ers
Ġshort s
reduc ible
Ġh al
{( -
Ġsqu ir
Ġbrown ies
> ,
Ġtrans actions
L ength
Ġg erm
Ġind istinguishable
Ġremain ed
Ġconfig urations
_col ors
------| ------|
Ġreflection s
_cons ecutive
= B
eat er
Ġend ed
Ġtr inomial
coordin ates
âī ł
ĠC oin
ĠComp any
C O
ĠC H
Ġlogarith ms
Ġl aps
Ġcomp osition
_min ute
Ġp uzzle
ĠS ide
ain ted
Ġcl ose
Ġt on
+b i
ĠAD E
ta u
_determ ination
ti al
Ġspec ies
Ġt er
ordin ates
Ġfres h
f riend
' \)
{ DE
\_\_\_\_ \_\_\_\_
_co efficient
Ġrot ate
.mod Eq
_al t
Ġbic ycles
ĠC oprime
Ġse a
. A
e en
imp lies
Ġi ll
_pop ulation
_reg ular
Ġprof its
Ġro ds
( âĪļ
M in
Ġr iding
Ġg ender
act ers
Ġquadr ants
Ġbak ed
_s he
tb ook
$. <
{N one
Ġgold en
s ample
ĠP ascal
_f ill
_group s
Ġwh om
Ġdo ing
! }{
Ġ$ {\
Ġh D
_co mplement
Ġhousehold s
Ġlook ing
,b lack
Ġrot ations
_p izz
ĠP rime
agon als
_add ed
let ter
$ :Ċ
S ix
les c
ĠS m
Ġrow ing
* h
\ parallel
} ]$,
Ð °
ro ots
ĠMid point
Ġs lice
)) *
Ġmatch ing
' $.
il a
ath an
Ġs ound
Ġtra il
Ġinter cepted
Ġmembers hip
Ġchar acters
Ġd rain
Ġsec ret
Ġf are
_h igh
Ġjun iors
âĬ ¥
Ġ ol
Ġ__________ .-/
v are
Ġmo le
{b matrix
Ġsupp lies
Ġenve lopes
Ġm argin
ĠĠĠĠĠĠĠĠĠĠĠĠĠĠĠĠ ĠĠĠĠĠĠĠĠĠĠĠĠĠĠĠ
_p ortion
Ġgo ats
ĠâĪ ĺ
Ġmeasure ment
_spend ing
M C
_g m
it ting
)*( -
Ġrepl acing
le g
act ual
_m ale
_r eturn
Ġmove ment
Ġenc ount
bo ys
.nat Abs
- ups
Ġst ores
Ġd ess
hear ts
Ġcomp aring
Ġmo b
Ġhex agons
p ass
ĠÎ ©
pl ain
Ġtreas ure
_s ign
Ġus age
Ġrep eats
Ġneckl ace
! }
( q
Ġ\_\_\_\_\_ \_\_\_
Ġ\{ -
-------| -------|
Ġs unday
ĠF ive
In side
pl acement
aur a
Ġb ear
Ġcos ines
Ġp ear
Ġle ap
Ġco ol
Ġinvolve d
it ors
Ġse es
ir ing
it or
Ġele ph
Ġinvest ments
Ġp ic
Ġh olid
ĠA O
t r
Ġpig eonhole
Ġalphab et
ĠP ositive
ct g
cent ration
Ġtex tbook
Ġm ow
, Q
Ġc li
Ġair plane
Ġdem onst
. j
Ġe ma
_t arget
Ġpasseng er
_a way
Ġfli pped
vare psilon
\ },
Ġper m
ĠContinuous On
_ir refl
Ġdise ase
ĠâĤ ¬
J ack
] ĊĊĊ
t rue
ion a
Ġcom mut
Ġpe b
_te am
_he ads
rack ers
Ġcompan ies
Ġhim self
-e lement
z es
Ġposition al
Ġmuff ins
O Q
ä ¸
ul es
_s pecific
upp y
Ġimp lement
Ġprocess ing
Ġcounter feit
| $.-/
ĠIn s
l ast
text rm
Ġnew spaper
_ex tra
_g reater
_position s
_bott les
Ġan cient
_w omen
_r ational
tex tit
f actor
cent ers
_bo ught
Ġad vert
_s ugar
Prop er
}.$ $
_t op
_le gs
ĠB r
Ġbo un
Ġapp lic
Ġb ears
Ġd rew
Ġm m
ĠL ean
re qu
ĠM el
Ġland ing
f ather
z h
\\ \
_w ind
_m atches
Ġmush rooms
" .Ċ
{ the
_ch oc
h T
Ġd am
ĠH ar
x min
}$ ?-/
. left
Ġbe ach
/- Ċ
Ġremo ves
Ġelect ricity
_ques tions
eat ed
ur er
Ġel der
N e
_c ream
ar ts
ĠE s
Ġfl ags
Ġser ve
? $
_with out
h G
\) ĊĊ
Ġch rom
Ġbal anced
Ġfreshm en
Ġle mm
Ġbin om
. $,
} <\
ist ers
ĠIn tersection
Ġbreak s
_ abc
Ġt ext
_b ro
ĠK ing
it es
}| $,
Ġpo ured
m ap
Ġs our
id ers
ru it
Ġnick el
( N
Ġto ward
h ide
_m eter
Ġro bot
_equival ence
Ġ )$
+y z
Ġgener ated
ĠI r
Ġstr etch
in tercept
_c urve
- time
ĠO ct
radi ct
j oy
_c ongr
Ġex f
Ġis s
ĠB rand
âŁ© )Ċ
ĠDec idableEq
Right arrow
ĠS ara
_d r
,\ ]
Ġdevelop ment
_ old
id ence
\% \
Ġ![ -
ĠR el
.c oprime
Ġsimilar ity
Ġconf irm
M ary
P D
Ġdec agon
-------- -|
sp an
ongru ent
S tep
f ilter
Ġhemis phere
. st
N on
H ere
ĠRe pr
- w
ĠN on
ĠJ ose
_ch eck
Ġhear t
- day
p ack
Ġsh ar
Ġjog ger
Ġexf also
-def ined
-m ile
E nter
Ġp ir
Ġto othpicks
_c an
_v ar
Ġocc up
Ġstrip es
Ġt agged
we ll
upp ort
Ġpartition ed
Ġcart ons
ĠA X
** :Ċ
ĠProper ty
| -|
} ^\
ach ary
hearts uit
p ose
Ġk itchen
Ġman ner
Ġdistrib utive
âĮĭ )
Ġcomm as
Par allel
Ġres er
Ġrain fall
ĠSe ptember
re ls
_le t
Ġperform ed
_dec r
\ }\
Ġ. **
Ġmain tenance
Ġt ur
ĠCD E
Ġeduc ation
Ġto ken
_c ommon
Ġplant ing
ap an
-four th
_ arc
Ġproduc ing
_me asure
Ġdon ated
it ches
oc r
Ġd ry
Ġrec ords
i ous
Ġpreser ves
Ġear ly
_t r
Ġpre p
Ġpattern s
Ġmiss ed
ĠA c
Ġpro te
ĠJ essica
_re ar
_dist rib
Ġbi kes
ĠCar la
unc ated
Ġc are
ch ange
_b us
Ġno on
Â° .
Ġthrough out
\ subseteq
re v
" >
,y min
rac y
ut ation
ir teen
_week ly
? **
A Q
f ontsize
i ers
_tw enty
Ġp ets
_per fect
Ġt in
< c
_ tip
Ġlad der
d enti
ĠF ilter
ĠP AB
Ġco ach
)} ~
Ġphys ical
* u
. čĊ
_p urchase
ĠP D
ĠLuc y
{ K
Ġa qu
Ġplan ar
Ġm ir
ĠAB E
Ġtour ist
{, }
$ |
Ġr anges
Mr s
ti tions
. $Ċ
Ġgrad u
- ABC
c ol
Ġs end
Ġtow els
ĠD erive
_are as
\ tan
_c ats
Ġti re
Ġor ient
Ġti ps
Ġcand les
Ġmathematic ian
S e
Ġw ed
ent roid
ust in
ari ance
Ġcar bon
_ro ses
Ġgrand mother
- qu
Ġli ar
Ġqu al
ĠR ob
* âĪļ
ĠM A
oun g
.c on
Ġresid ue
h ombus
r arily
eg ments
Ġ{ ĊĊ
crib es
Ġle ver
Ġsoph om
ac on
Ġbuc kets
ct ure
Ġprog ress
g ie
ri e
_ vi
Ġsp ot
ĠVer ification
n ic
Ġsu its
- ax
l ate
Ġin ver
Ġresp on
o ber
} n
ab cd
_exp enses
ĠA rt
Ġclean ing
Ġ_ ,
_k n
Ġoun ce
Ġneckl aces
ĠB ern
). \]
Ġhers elf
Ġn inth
_c ups
; i
ur ate
Ġpol ice
_ ,
in ch
Ġbo uqu
da ily
ĠPl an
Ġprem ise
Ġwash ing
Ġpay ments
c orn
ĠB H
Ġtow ns
Ġbak ing
Ġd uty
Ġbak ery
Ġchec king
Ġvolunte ers
}}$ $
Ġstop pages
Ġd ark
Ġda is
ed ium
^ z
_ cells
z ing
Ġw id
Ġli ly
_j uice
sc ores
Ġtoss es
Ġorgan ized
A x
Ġpro ven
Ġlollip ops
ĠâĦ ĵ
ah ul
Ġconsum ed
ari um
r s
ĠG rid
_second s
Ġhapp y
Ġtr uncated
\{ {\
Ġmob ile
b l
S peed
ti an
ap or
_un its
- up
k ÏĢ
_p ies
âĪ£ n
Ġag reed
Ġc iti
Op tions
Ġn x
c s
um ul
ĠC lear
pro b
Ġc uc
eter ia
Ġear ning
Div isors
- overlapping
." ĊĊ
Ġpean uts
_custom ers
( F
Ġa lex
_b read
Ġreduc es
Ġlo ad
}= \_\_\_\_\_\_
Ġnet work
) >
ð Ŀ
Ġs elf
ĠM achine
bo at
Ġpig s
Ġp C
_st op
m box
led ge
ĠO ther
.d et
})^{ -
Ġpoc ket
Î Ķ
Ġro of
_b ar
Ġaltern ately
ĠMid dle
ĠMod Eq
red i
Ġmeaning ful
ĠG r
Ġlear ning
Ġlemm as
} >
ĠU nit
_dec omp
pez ium
Ġarbit rarily
Ġacceler ation
c orrect
ĠK im
Ġtriple ts
m ber
as k
Ġre pe
_r un
vis ion
, ÏĢ
/ S
b ec
: čĊčĊ
Ġh ect
ĠB etty
Ġch anging
val ue
_le ast
an tha
Ġattemp ts
Ġ\ )).
Ġar row
[ list
_re p
Ġrul er
Ġb ats
Ġy og
_em od
Ġlos er
e li
Ġ( âŁ¨
Ġpro m
are house
Ġdecomp osition
Ġ( âĨĳ
Ġopen s
ĠCol lected
od a
Ġmaterial s
h ib
{ for
sin ce
_con centration
Ġsymmetric al
\}$. ĊĊ
M ax
_p res
_t ype
Ġangle C
Ġele ven
- plane
Ġm ic
rang ement
Ġcolor ings
-sh irt
Ġh ence
Ġwh eat
_ext re
" $
Ġpol es
ĠPro duct
ĠE uc
urn iture
Â° C
_mp g
_ rain
ol i
_fl our
Ġ- Ċ
Ġh ne
_prod ucts
hu a
* P
c ake
_d on
am etric
Ġcont radict
b b
Ġn ames
Ġperiod s
c q
h alf
Ġk ite
ak s
Ġdes k
Ex p
$ s
Ġan ti
erm at
Ġse en
th ree
ĠE li
U V
Ġt ap
ad jacent
Ġbutter f
Ġleft over
Ġplay ground
per s
Ġwe ather
Ġrep ort
Ġl ayers
ill s
Ġser ved
} }\)
_prop ortion
) g
ĠB illy
M ar
M atrix
| ^{
eg enerate
per cent
d ec
Ġe as
Ġmon key
a ving
_e mploy
I J
m t
Ð ¾
Ġf il
Ġfe ll
ot onic
Ġwatermel on
Ġver ification
tern ative
Ġround ing
ĠOly mpiad
} ï¼ľ
Ġ ess
Ġ\ _
Ġloss es
Ġcaf eteria
) âĪª
, (
x max
_s n
im a
_l ist
] here
r ings
ĠG reen
_mix ture
_mid dle
usti fy
ĠC ard
Ġarc cos
ĠJo an
S am
Ġe yes
{x y
Ġbreak fast
bser ve
_period ic
Q uadr
{ ABC
ĠS ampling
Ġorder ing
Ġref rig
g x
Ġtra pezium
x z
Ġmod els
Ġsample d
mit ted
Ġroc k
( l
Ġm useum
ĠDi rection
Ġjun ior
ili ary
ux iliary
Ġvolley ball
ok e
mul tip
lass es
o ured
ĠT ony
Ġ| ((
_r at
Ġdisc uss
Ġgain s
_ad ults
_symm etric
= |
ĠB K
Ġj ames
In d
ĠT ri
ad a
and w
)\ ]
.f actor
_sh ort
b p
Ġthe ory
Ġup ward
Ġlo aves
Ġat oms
up le
arg est
Ġu tili
\}$ ;Ċ
Ġatt ack
om as
Ġbas is
Ġstack ed
_b ridge
Ġkee ps
p y
Ġveget able
_it ems
e psilon
)$ ;<
for ward
Ġdim ension
ĠGame State
Ġoppon ent
Ġaward ed
, W
ĠC ross
Ġincorrect ly
Ġas sum
Ġsc oot
Ġfl ights
Ġsurvey ed
Ġb erries
al ty
ĠM C
Ġ____ _.
Ġear th
- positive
Ġdiagon ally
Ġstr ings
} ]$ĊĊ
J o
S h
Ġpr in
}| $.
Ġcous in
g iven
v olume
li ters
-f ree
_o z
% )Ċ
} ),
un k
dots m
hab it
Ġin fl
ĠA PB
Ġpos s
Ġsequ entially
hed ra
ĠSt ate
ĠZ hang
ĠâĮĪ (
_ro oms
)! )
} )$.ĊĊ
Ġsa fe
Ġinst ance
angle mark
wh at
- class
ab la
ĠPro ving
_rect angle
Ġgen uine
ĠCont radiction
er ed
Ġmo tion
_app le
_ Y
)) $.
Ġgre at
Ġemploy ed
{O P
- âĪļ
.re fl
Ġopen ing
" ;
Ġp ace
Ġfinite ly
ament al
p ings
Ġplan et
ĠR HS
ors e
ĠE vent
Ġobser vation
denti fy
me as
,- .
, s
ĵ Ŀ
Ġbus h
Ġdisplay ed
_w he
Ġweek day
Ġsemi perimeter
um ents
ograph y
.factor ization
us ed
t rans
w en
Ġachie vable
| z
or is
ĠSimplify ing
ĠW ill
ari an
Ġso u
> a
b an
Ġdwar f
] \),
.j pg
ign ment
Ġclub s
/w iki
$ ).ĊĊ
ĠUn ivers
C lass
_w ords
{A P
Pro duct
Ġstatis tics
ge om
Ġup wards
Ġalb ums
_con j
Ġmar ried
Ġmeasure ments
ĠClass ical
M y
Ġ om
Ġimp ly
Ġcre ating
Ġsun fl
Ġcontest ants
Ġlever aging
. math
ĠJ ulia
onst ant
_or ange
/ index
Ġschem e
c ube
Ġscal ing
end a
oc key
Ġform at
\}$ -/
Ġdem and
Ġke ys
ĠB Q
_b anan
Ġclaim s
_ball oons
Ġv ice
Ġair port
_integ ers
N o
ty ard
Ġwin ter
, P
_b udget
ĠT ogether
\ equiv
over n
Ġform ulation
Ġdes cending
ðĿ ĵĿ
olum n
ĠAng les
' D
ĠO AB
Ġpol ic
Ġtour ists
illi am
= axis
_pl ayer
[ x
h BC
Ġs arah
^{ -\
ĠS asha
Ġsci ent
_qu arters
or ns
Ġdon ation
ĠIsL ocal
_con fig
Ġroll er
R ate
Ġstatis tical
Ġ )$.Ċ
ir on
Ġpa w
_factor ization
Ġrent ed
Ġrevers ed
$ a
s ided
ati e
ĠAn al
ĠT angent
_ch ild
$, ĊĊ
ĠC N
Ġh v
ak ers
Ġar rows
Ġreturn ing
v ations
ĠS usan
_f oot
ole t
Ġpean ut
adi i
Ġï¼ ī
Ġkee ping
) }$,
= (\
Ġp enny
_st rategy
Ġbed room
ocr ats
z eta
ĠA pp
and ra
c p
in v
ly ss
rist ina
i ology
def ined
- letter
enc ies
[ ]
os c
Ġcomm un
Ġp at
ĠP ipe
tic ally
alle t
^ ^
w in
Ġpa ired
-b c
v ille
ĠA ugust
Ġco verage
b age
Ġc rate
ĠT r
ĠUn fold
ach er
Ġleft most
u ed
Ġepis odes
< =
Ġ\) ;
.f actors
(II I
Ġs lips
Ġ\), Ċ
$? ĊĊĊ
% ,Ċ
ĠV ector
Ġdon uts
Ġstre ets
Ġsc reen
Ġen joy
Ġdrop s
Ġmist aken
ĠN ick
Ġpos ts
D an
L abel
ĠEl lipse
a j
_in ches
_transform ation
b and
Ġge ese
Ġdeterm ines
con fig
C omm
R ectangle
ĠS equence
ition s
ons ecutive
Ġschem es
Ġdess ert
er ing
Ġf urniture
ĠS cience
_comb ined
a irc
Ġh lt
em istry
Ġapp lication
_st ops
* f
B AC
| <
in ated
se e
Ġno ticed
Ġfe es
Ġd ishes
Ġch ann
v ices
ĠPro d
)- (
X iao
_s ampling
ĠCo uld
Ġblue berry
-c ollinear
_ choose
Ġin put
rop ped
* S
\ perp
ĠB rian
ĠN W
{A E
ĠG erman
âĤ Ĳ
id ate
st udents
valu ation
ĠD B
}.\] -/
P N
s uch
ag o
orig in
ourn ament
$ $,
h odd
Ġj ill
ĠCh en
Ġexpect ation
( h
l oe
ĠK n
- left
\ ))
ĠR uss
ic kets
_cover age
ĠM an
el ine
Ġ$( {\
Ġsa il
}_{ +
Ġarc sin
Ġgu est
E d
ĠH u
Ġcr ates
}$ "
M O
d igits
Ġd an
_f un
Ġso up
uri ty
ĠH enry
Ġthousand s
as m
ĠC and
rot ate
on i
_pri mes
_p uzzle
Ġin habit
tt le
Ġold est
Ġla id
or ing
Ġcontinu ed
ig s
_s ection
ĠK olya
Ġcomple tion
Ġsw ap
{P A
au ti
ĠB er
-- -
Ġwhen ever
Ġgrocer ies
Ġh u
Ġext end
Ġema ils
} F
Ġad op
,âĪŀ )Ċ
Ġun equal
\ vec
f ort
ĠB N
ud y
Ġball oon
Ġperpendicular ity
.d i
| A
Ġh ens
ath ers
Ġser vings
_ oper
Î ´
Ġmilli liters
ĠC al
.I co
_I oo
Ġswe ets
Ġsess ion
t ax
ĠS P
Ġ\) ),
_f ifteen
Ġparameter ized
Ġchar ity
_gall ons
S ub
p ital
Ġh op
ĠRat e
$) .Ċ
Ġpast ries
Ġstri ps
+ by
Ġdef aultpen
^ q
Ġhe avier
_c p
_prod uction
_disc r
Ë £
Ġreg ister
}}$ .Ċ
- right
Ġe val
Ġlap top
Ġ @
ut o
than ol
Ġm owing
Ġpe ak
ĠRe p
+ ...+
Ġf uture
ĠS ymmetric
ĠJ uan
Ġbab ys
H E
n x
Ġc ra
Ġdigit Sum
( fun
Ġparallelogram s
I m
} }$.-/
Ġc ro
ul pt
Ġte lesc
Ġconj ect
Ġl ent
_p age
_f oci
Ġcurr ency
P et
Ġh un
Ġir reducible
f ield
Ġs at
Ġpro ced
Ġco at
_d egree
A L
ere k
_d og
Ġde ath
Ġbur gers
P rice
dots b
Ġclaim ed
: =
ĠS er
Ġdi me
ĠComb ining
ob ile
b ut
ac o
Ġj ake
ĠJ ordan
_class es
Ġdaugh ters
Ġsw itches
Exp and
} P
lide an
E ight
- way
_m ap
-p ound
Ġbab y
) sin
- by
_pos sible
}} )
}) }^{
A G
Ġy es
Ġpre ced
Ġsn ack
Ġindic ated
d o
ro ot
pec tion
min ton
Ġhalf way
ĠSt andard
in et
Ġres istance
Ġf ox
Ġtra ys
ĠJ acob
ener al
ĠNat ional
Ġprevious ly
Ġretail er
.In finite
_ref lection
B ob
W XYZ
| =\
Ġp ad
Ġst able
Ġrearrang ed
D iff
Ġblue berries
_t ree
Ġcom ic
O ut
} ï¼Į
ĠIn c
ĠPQ RS
_re v
ĠSt ore
\ dfrac
ĠĠ ĊĊ
pr op
Ġeuro s
Ġin eq
li que
Ġo x
Ġbook store
_equ ilateral
an za
ig en
ach ie
---| ---|
B ase
w ind
is tics
cl ub
_co mplete
Ġatt ached
? $Ċ
_c m
Ġnorm ally
ĠHe ight
Ġsal ad
Ġcre ates
_cos ine
Ġturt les
Ġr en
ĠÂ¬ ((
Ġbrace lets
lyss a
Ġg ross
Th rough
Ġ$[ -\
II I
hold s
ĠPet e
o ch
| >
ĠA G
ĠIn ter
% .Ċ
Ġch art
wh ile
Ġknow ledge
* Î²
_re ading
ymm etry
Ġpeb bles
k i
Ġf erry
ĠQ u
Ġmess ages
redi ents
ab ility
], ![
Ġded uction
Ġcycl ing
Ë ¢
ĠC la
ĠS ystem
_m ath
_b atch
div id
a is
ĠB ella
oun ce
Ġinf er
Ġtrapezoid s
âħ ¢
Ġgold fish
_comb ination
_ti les
Ġa y
Ġr ack
Ġabs c
Ġobser vations
.I io
)\ )Ċ
Ġev apor
Ġcart on
- ro
Ġp itch
Ġstud ying
Ġde vice
_ch aracter
Ġn ice
Ġset ting
=$ ______
_const raint
v iron
Ġis P
re h
ĠJ enny
Ġrearrang ing
ĠQuadr ant
-d egenerate
\ rceil
Ġover t
Ġscoot er
auti ful
g o
} )=\
\) ?-/
Ġ-/ ĊĊ
Ġscal ar
F orm
is osceles
_h yperbola
ĠZ Mod
Ġexce ll
ĠIr rational
Ġhold ing
Ġcer eal
oc ation
atis fies
u its
_c ong
if ths
ĠOct ober
ĠC O
am ily
ters ect
Ġce le
re f
_p ot
Ġex cluded
Ġacc ident
Ġconver ted
zh ou
( Q
- le
Ġhe avy
Ġacc om
diamond suit
ir a
ĠJ eff
Ġexp ense
_comp utation
_month ly
. prime
Ġt v
Ġw arehouse
Ġpain ts
Ġcardinal ity
meas ured
w are
)*( (
-v ariable
( G
] $-/
-c onstant
_qu otient
with out
_for all
) }$Ċ
s he
er ation
Ġrespon se
Ġw ishes
_e valuation
Ġche aper
Ġdeb t
s ucc
Ġ( âĢĸ
Ġf iction
Ġ\( (-
_d imes
Ġ, \
Ġb eat
Ġp ent
ct ed
Ġup on
Ġtrave lling
Ġmet res
F irst
Ġp ots
ĠEx plain
ĠC ommon
_c one
_l ost
}}{ (
Ġmass es
. }
Ġun defined
Ġtw ins
ĠS un
Ġoccurr ing
ĠA b
Fin type
Ġconn ects
r ors
{C A
A lex
b ro
â Ĺ
ĠS ix
Ġsec ant
E G
{ The
or a
Ġre act
ĠY ear
Ġdoub ling
Ġvot ers
Ġhambur gers
k ins
Ġon ions
\in t
anc ing
Ġcomp ass
(" $\
airc ase
. Line
ĠIs S
Ġdiamond s
Ġsophom ores
Ġo xygen
ble d
Ġsamp les
Ġbur ger
-number ed
Ġn ature
ĠD on
\% $Ċ
Ġrefrig erator
m onday
Ġt ub
Ġconc rete
Ġacc ess
sh aded
Ġcop y
_pre v
_gall on
h an
Ġmanag ers
_vi eta
( u
r eturn
| +\
ĠM ag
he w
_g ift
-d ollar
Ġout come
}^* $),
Ġcre w
Ġplot ted
_rel ationship
Ġeng lish
V alue
ĠC CA
_m ore
AC B
_on es
Ġsk ips
_cand ies
Ġrw a
ĠE D
Ġrest riction
mid point
$ x
ĠG ive
ĠCD s
viron ment
h our
Ġsn acks
_ser ies
Ġe con
ĠB X
ĠB rad
und ays
AC D
Ġp ublic
C ho
m itive
Ġ tick
Ġpaper s
Ġla und
Ġp ort
Ġtemper atures
|-------- --------
`` `
h L
Ġindic ates
.to Finset
Ġaccom mod
_ch ick
Ġswe et
Ġa âĤĸ
Ġestim ated
Z ero
Ġbl ood
lec tive
vis ed
Ġmultiplic ative
n ormal
{ L
at ter
_f ifth
Ġmut ual
_am gm
l ane
Ġ$\ $$
ĠAl ternative
Ġmanufact uring
N O
}- {
ĠAD B
oly gon
sh irt
Ġmagic ian
Ġfle w
] =
_m eal
Ġsp ort
Ġfl ash
_par tition
Ġinst r
Ġla unch
M ark
g ence
u led
}$ ?ĊĊ
âĮĭ Ċ
_sh oes
ĠAnd y
. )ĊĊ
] [
_ (
_ PQ
u ild
_s olve
Ġtotal ing
Ġtrip led
ove mber
( Î²
_e fficiency
} ]$Ċ
Ġsm art
Ġcomp et
ĠK evin
_al titude
- st
ĠS olution
op ulation
, ĊĊ
\ infty
_ rid
Ġh odd
âŁ© )
pos sib
Ġbasket balls
rel ated
G raph
o ught
pro j
Ġb eds
Ġj ers
}) }{
=$ ____.
m et
Ġ oly
_d o
)* "
D o
P ath
Ġm is
_par a
possib ly
h am
v ents
is ed
ĠT icks
ing er
)) ]Ċ
ĠO M
_h ome
app les
_character ization
P r
olog ical
_c yclic
# check
Ġc rackers
ex press
_val s
Ġloc ations
Ġprepar ing
s old
em i
Ġcon ic
Ġst uff
Ġset up
_g ood
Ġbar rel
( scale
= BC
Ġp ints
Ġpl ain
Ġsa f
an ish
Ġrh s
, g
c k
ĠM art
Ġ\) ?ĊĊ
Ġsimp ler
Ġinst ant
ĠUnivers ity
r ated
Ġin jective
Ġle mons
ch ildren
* |
pr ing
.. .$
oth y
Ġcon ven
ĠW ater
Ġneighbor hood
Ġb rac
Ġfund amental
Ġpartners hip
Ġrib bon
Ġprep are
I N
J an
Ġb und
---- |
_cont ribution
Ġgum balls
G e
ort y
ĠRo bert
Ġhect ares
Ġh ired
{P F
_divis or
ĠC urrent
: **Ċ
Ġcont act
_B D
v ant
Ġr ise
)/ (-
Ġh us
em on
Ġch erries
ĠM ari
ĠQ uadrilateral
res olve
_st ore
Ġded uct
Ġbow ling
n ut
Ġbe ad
_bl ocks
ĠBon anza
ĠR am
\) ?Ċ
ult ural
Ġjoin s
Ġoffer ing
Ġbath room
ĠS k
_r uns
Ġ\[ (
Ġcomput ed
_bas ket
li ter
Ġ__ _.
) {
D ay
Ġp uppy
Ġl uc
av ors
ha i
Ġpres ident
ĠPh ysics
Ġadv anced
_ DE
Ġ$ $-
oin c
_b irds
Ġsupp lementary
))/( (
c over
ĠN ancy
Ġsum m
Ġli ttle
Ġstop ping
_cal ories
Ñ Ĥ
ĠM att
ur ple
Ġun ity
ĠMin imum
n ected
| }{|
en ior
f ication
Ġf ontsize
Ġpop corn
_pr incipal
Ġtrac ks
Ġ[ \
ale b
Ġ$ ĊĊ
ĠD es
Ġcour tyard
Ġattend ees
Ġtre at
ĠProper ties
-per son
^ Î±
ĠA li
Ġsc ar
=\ {(
_to ys
Ġobser ve
el a
_f in
Ġw atches
ĠG rade
ãĢĢ ãĢĢ
ĠH orner
pi x
Ġq x
Ġbis ect
Ġbul b
iter ate
. min
_ ax
}$ $ĊĊ
Ġsh o
Ġsof t
)âĪª (
ĠB efore
ĠL aw
Ġintersect ed
ï¼ Ľ
Ġti led
Ġcons on
Ġa esop
Ġli ked
ĠIn side
pend ence
Ġpossib ly
( T
Ġ- ((
.T endsto
) Â·
R es
{A M
ĠF ollow
Ã· \
ĠAmer ican
is ible
Ġar ch
Ġcontest ant
Ġn ational
oc cer
_simp l
ĠĠĠĠĠĠĠĠĠĠĠĠĠĠĠĠ ĠĠĠĠĠĠĠĠĠĠĠĠĠĠĠĠĠĠ
_intersection s
Ġattend ance
Ġguess es
Ġres pond
}^{ +
ĠK ate
-----|-----| -----|-----|
+ {
R ed
âŁ© âŁ©Ċ
Ġcont ract
Ġweek days
ĠAn a
& &
/ f
Ġ ?ĊĊ
ĠIs osceles
reh ensive
- parallel
ĠE ric
$", (-
Ġdele ted
th ony
Ġm l
Ġq r
/c ropped
_orig in
.math pix
r ass
Ġre ti
Ġlaw ns
- C
_ if
Ġg overn
}$ ).
_c atch
Ġst amp
Ġcol oured
Ġsymbol s
set s
ist ory
par ts
_s imilar
Ġle vels
ĠH yperbola
Ġind ef
_disc riminant
& width
? height
d eg
eat ers
_s tick
Q uadrilateral
l aps
Ġk ay
Ġprec ise
R ef
is ions
ve e
ĠIn equal
eter gent
card s
Ġrepl aces
S even
} ÃĹ
Ġch i
amp les
Ð ¸
ro ll
ir al
}$ ;ĊĊ
Ġv ase
Ġpol iti
Ġclass mates
Ġbad minton
_ ra
Ġs ons
arg o
\\) _
_at tend
Ġparti tions
ĠEqu ation
Ġfl avor
ĠLuc as
\ sigma
Ġof ten
ĠN ovember
ĠTh at
, R
F D
Ġs li
Ġd elay
Ġsa ving
Ġad mission
_se eds
A ccording
j ohn
Ã ¶
Ġf lies
Ġy et
ĠS egment
Ġdec l
Ġpa ise
( Y
Ġ( âĮĬ
Ġp eg
_di am
Ġpreced ing
i ang
Ġp ati
sp ades
_deriv ative
Ġexper ience
Ġbats man
Ġc s
Ġt ape
asm ine
Ġex trac
}\ ).ĊĊ
Ġcoun ty
_co ef
-c olor
Ġintern et
Ġens ures
Ġdress es
Ġth ought
ĠWh ile
_b reak
_pro g
answer ed
ĠEuc lidean
Ġconject ure
F E
h er
Ġx âĤĻ
end y
)$ ?-/
Ġsh aped
_poly gon
Ġjog ging
ĠD is
ee p
_shel f
ĠSm ith
p ole
Ġd uck
re q
ĠF ace
_c or
_dist ances
,\ ]Ċ
Ġinterest ing
. )Ċ
ĠS im
st ery
ĠP e
Ġco con
_f uture
Ġbr ings
Factor ize
Ġman age
Ġexpress ing
Ġtheorem s
_subset s
Ġtele phone
Ġmotor cycle
Ġexcell ent
Ġ ?Ċ
_b ack
tern al
en ne
ĠJ er
Ġdec imals
Add Comm
Ġing redients
ach ers
pe ople
Ġal mond
Ġcalcul ates
ĠXia oming
Ġgain ed
_ EF
m as
ĠC Q
ĠJ apan
-b ased
Ġpack ets
Ġann oun
nit udes
Ġminim ize
Ġa áµ¢
ĠĠĠĠĠĠĠĠĠĠĠĠĠĠĠĠ ĠĠĠĠĠĠĠĠĠĠĠĠĠĠĠĠĠ
Ġsc ulpt
Pro blem
Ġmanufact urer
Ġhum an
Ġinver tible
= i
li a
Ġpr inter
ĠB lue
ĠB ox
Ġj am
Ġfer tili
! ![
Ġh ost
ĠP a
Ġsp ider
âĪŀ ,-
ĠReg ular
ĠâĪŀ )
) }$.
\ Ċ
a verage
ul ty
ĠSur vey
un ately
Ġ\( (\
Ġ\\ \\
âĪ£ x
v ator
Ġth inks
Ġdo ctor
ABCD EFGH
áµ ¦
Ġappear ed
Ġdepend s
Ġp m
Ġf ries
_c akes
g irls
Ġx Oy
Ġj oint
Ġ(( âĪĳ
p a
Ð µ
$" .Ċ
Ġsched uled
Ġaqu arium
: čĊ
ĠQ ED
_co ords
Ġsand y
AddComm Group
Ġc ry
Ġmultip lier
Ġtrans action
Ġswim s
' =
. mon
ar l
ĠT oday
}{ {\
âĪ ł
Ġassum ed
; }Ċ
ag ers
Ġdo ors
Ġhand led
dom eter
Ġm ice
et te
Ġst aircase
Ġapproxim ation
Ġdepend ing
Ġsquir rel
Ġo dometer
Ġrot ates
ĠBD C
(g raph
cont inuous
\ ne
|-------- ----------------
} )$.Ċ
Ġproj ects
_wh en
,N E
Ġtechn ic
Ġconsum es
T w
f ree
ec ks
est ra
ish ed
) }+\
in tersection
ar n
Ġin let
ĠD r
Ġprop osed
_pro jection
Ġappro ach
O bserve
Ġj ane
pt agon
Ġen vironment
Ġholid ay
al t
ĠM arc
_n ick
od y
ĠCon ver
onic a
ĠStrictMono On
_ro om
_ch arge
Ġmag nitudes
_set Of
Ġâĸ ³
Ġcontrib utes
Ġproced ure
_p ast
ĠSt udents
_or th
Ġjump ing
o oth
Ġis S
tion ed
Ġinter view
' ]
Ġh ockey
ĠW orld
_r ule
ĠEF GH
l ower
Ġp s
Ġsome times
C H
N ine
_ as
ĠEx tend
crip tion
- l
th ird
um b
iss ors
Ġpot ato
Ġ\) :ĊĊ
ain ting
Ġhow ever
Ġins p
Ġass istant
Ġsem ester
,S W
box es
Ġc oll
Ġins pection
Ġlaund ry
op es
Ġmix ing
B Q
| }{
om etry
R em
{ W
ge la
\) -/
ĠE van
Ġcol ours
_g u
Ġcap tain
h AC
v ol
Ġstop ped
Ġ$\_\_\_\_\_\_ $.
B K
z ed
Ġj im
all ow
B N
ĠPar abola
Ġbow ls
. D
ĠC ircles
w is
op ing
ath on
ĠâĢ ĵ
_add ition
Ġl ucky
Ġwait er
ĠMod el
ĠB l
Ġwid gets
}} }$
_employ ees
(fun c
\ lceil
Ġf ans
ĠW he
Ġelimin ated
. perp
D P
c le
Ġa st
P os
ab ella
_f unc
Ġd avid
ok ing
_a bove
} &
ĠC AD
! ))
( right
is k
Ġpred i
| }Ċ
Ġh omes
_inc orrect
Ġenve lope
Ġr pow
tic ip
ĠEx am
club suit
Ġs isters
re m
te l
ĠE ns
}} )^{
b as
Ġex tract
_le vel
Ġsal aries
ĠM s
Ġas ks
ĠG reg
Ġwatch ed
_rot ation
' clock
P E
_t ank
_vis itors
Ġ\ {(
Ġpig gy
ĠBern ardo
Ġfor e
_{ -
Ġrail way
, Y
] $.-/
z y
Ġcarn ations
{ only
ĠT aking
ĠB etween
ĠÎ ĵ
ĠJan et
Ġpic nic
_ achie
u lie
Ġfish ing
{P B
T ri
\ rightarrow
Ġc age
Ġo vers
spades uit
Ġk id
Ġpar rots
Ġche f
p airs
Ġe igen
Ġcand le
en ed
Ġjump ed
Ġvolunte er
* *(
Ġb ond
_con vex
_th reshold
'' Ċ
valu ed
On ly
Ġwrong ly
| $.Ċ
Ġ: ---
Ġpr int
Ġdigit al
,\,\ ,
Ġisland s
f ers
ĠV al
Ġfli pping
Ġwatermel ons
_let ters
) })
Ġ$ Â±
Ġn ested
}$, Ċ
Ġser ving
Ġmir ror
Ġb egan
_n onempty
_w alk
Ġfi x
ĠJ os
}^{ *}
ï¼ Ī
Ġro de
Ġdo ctors
Ġproj ected
Ġtom orrow
b ack
Ġf ed
Ġpass word
Ġrepresent ations
_y ield
Ġmistaken ly
Ġsm ooth
_st ock
- .
Ġr ation
Ġw ine
Ġgra vity
or ation
Ġh Q
Ġl ists
Ġzero es
_co ord
ĠLi am
- valued
} âĢ¢
st ant
ĠP T
ap ter
Ġe mily
ĠM at
Ġbl an
Ġph ase
Ġpump kin
l ers
ĠR ay
}\ }
)$ ?Ċ
Ġmi ch
w est
Ġs pi
ĠM ia
Ġli m
ich ard
_un iv
\ omega
pi ece
_re write
\\) ĊĊ
Ġrais ins
Ġwatch ing
r atified
_s hells
h O
Ġhd iff
Ġcuc umbers
ĠS hape
ĠE num
}^{ -
ĠMon th
= r
P ositive
b d
{ ctg
Ġe f
Ġbe lie
Ġst airs
arrow size
A T
Ġun p
Ġfre q
Pet ya
li ts
ir aff
_he x
Ġpir ate
fort unately
. num
m eal
Ġt allest
ul ated
ru ce
di fferentiable
f aces
Ġrepe tition
Ġl g
tain er
Ġdes cribes
Ġfar ther
ĠLe ft
Ġrele ased
_ en
e tition
_p ie
}| \
ht ri
el le
Ġjo bs
Ġj ose
Ġderiv atives
Ġph ones
Ġpop ular
Ġcarry ing
h V
_th irty
Ġtele vision
( ax
V D
p uts
ry an
_m orning
Ġanswer ing
- length
â ĩ
un ks
B H
Ġh ill
Ġfam ous
_ec c
+ ac
Ġl asts
)^ ((
Ġdata set
Ġcele br
= AC
Ġbe es
}, -
ĠQ S
ĠÏ ķ
Ġevalu ated
- cent
F igure
dist inct
Ġstrict Mono
Ġpri zes
_car rots
Ġhos pital
Ġnumer ators
_max imum
_sp ace
( log
r x
ĠR yan
_l ong
Ġno tices
Ġh ac
ĠCh emistry
S O
-s ized
Ġcontinuous ly
Ġsystem s
* Y
Ġs lip
Ġex hib
Ġro bo
Ġinv ent
|-------- |--------
F B
F un
P air
R andom
Ġ(Â¬ (
Ġevalu ation
Ġquadrup les
(right anglemark
h U
Ġmark er
ĠA T
Ġch all
Ġdra gon
$ A
} ))
In itial
_in scribed
Ġbooks hel
Ġacc urate
Ġvisit ing
Ġindivid ually
B ased
o hol
ĠR es
ĠÎ £
_in jective
Ġcook ing
{B E
Ġprefer red
Ġs acks
âĪ Ĵ
}+ âĢ¦+
uc ed
l en
Ġmed ical
_condition s
_ele ven
n ext
r ates
mp er
ĠB arb
Ġmon keys
Ġtop pings
_sh adow
_pi ece
=b lack
h cd
w ash
ĠF iona
Ġout f
Ġref er
ĠMar tha
Ġter rain
_ ob
in it
es h
ĠS T
_w rong
Ġ| |
Ġform ation
Ġno vel
Ġdisc r
Ġhypothes es
umin um
g rad
h ar
_op posite
ker age
\ pmod
up on
ale y
Ġ(âĪļ (
E l
h X
qu al
Ġbut ton
_st at
_co ordinates
}{ -
Ġfun ds
Ġspecific ally
Ġped est
^ j
_ alpha
_p q
Ġ__ (
Ġ__ _
d ogs
yc led
.P lane
deriv ative
Ġperform ing
Ġvow els
Ġdi et
Ġdi ffic
Ġmag n
Ġelectron ic
E B
ul us
Ġgovern ment
g ht
Ġa e
Ġs us
ĠA x
un ion
Ġfor g
Ġqu e
Ġinvest ing
G CD
S c
Ġch est
{A F
ĠSte ven
ĠJ ustify
ĠAB F
ru th
Ġsod as
G ive
m allest
Ġd ave
}$ $.
Ġcl ar
M ike
re ddy
_t om
Ġj erry
ĠV alue
\\) :
Ġsug gest
an o
ĠL ou
Ġwra pping
ĠDo ug
/ total
C or
Ġfield s
Ġair line
Ġshel ter
Ġbran ches
Ġimport ant
Ġb ra
ĠJ on
Ġbec ame
ann ual
Ġmist ake
Ġstation ary
Ġord inary
, -\
Ġp oll
{C B
itt les
ĠN umbers
Ġbe am
ic ations
Ġshow ed
ycl ing
Ġvan illa
Ġs ite
âģ °
b ed
h Î²
Ġat tained
Ġcom mer
_g rid
Ġweigh ings
Ġtransfer red
Ġtra iling
Ġelder ly
Ġs its
Ġ} (
ĠAn ne
-s quare
Ġstr ength
Ġw allet
ĠT own
Ġst orm
ĠConver ting
( $
\ }_{
in f
Ġh eat
_of f
_qu arter
Ġcateg ory
! \
E nd
d og
,S ize
Ġste el
ve ys
lib ri
_c ows
ard ing
Ġind ust
_tri ps
Ġx f
um ing
ch ed
Ġpl acement
Ġgra in
Â° )Ċ
ĠR ef
_re qu
Ġstat ue
_sub st
|\ ,
+ (-
end ra
eng lish
_exp on
Ġabsc issa
libri um
)) )^
Ġout ward
Ġdis card
.t wo
_pass ing
Ġunc le
R el
{( {
ĠD em
ĠD iana
Ġsh ake
}_{ +}
Ġdistribution s
Ġfore ign
bo ut
Ġele vation
_pr ism
Ġconsist ent
i fty
Ġreal ized
Ġrep airs
Ġquar ts
app ed
] \).
_ V
ĠT ang
ĠH el
Ġcent re
Ġele vator
ever al
(i ii
. vertices
An g
Ġevalu ates
] --
igh bo
G F
_t ables
_per ms
_ro ll
Ġquar tic
Ġindic ate
Ġf ine
ĠH annah
_f old
Wh ile
y ellow
Ġg ate
ĠL HS
ong zi
ĠDi agonals
ather ed
Ġdiff ers
Ġsh akes
Ġti ed
{b c
ions hip
Ġpill s
ĠB ook
Ġcl o
Ġtw in
ĠM a
_ W
n abla
\) :Ċ
rid get
+ w
+ xy
D raw
ĠD VD
M D
ĠRat io
ĠO b
_g ap
Ġsn ake
Ġmagaz ines
_whe els
r est
Ġr et
_n ormal
_c entroid
St atement
Ġpalindrom ic
Ġinter cept
ĠâĢ Ļ
âĢ Ķ
Ġpart ner
. ceil
m ale
Ġb acon
tex ts
alc ohol
Ġsp lits
the w
\}$. -/
[ u
)$ $,
Ġtrip let
_bl ock
ay ment
Ġatt ending
Ġreduc ing
Ġoccup y
' }
ver tex
_c d
Ġti m
_in ner
Ġcar ri
\\) -/
Ġalb um
Ġmuff in
ĠOly mp
ĠCand idate
Ġth reshold
Ġmul t
}.$ -/
^{ |
}} }}
+ =
Ġd ates
ce eds
Ġh Îµ
Ġv oted
ĠE lla
Ġdais ies
B G
te ll
_l ocus
)} ^
Ġpack ed
. $.
om y
_m atrix
Ġdirect ed
Ġinhabit ants
! +
\ subset
Ã Ń
Ġv ia
_d ollars
Ġ. .
ĠJ ay
Ġpe ach
ĠAM C
ĠConsider ing
_m atch
_m argin
Ġlog ical
,S E
Ġphot ograph
. }$
a bove
j ack
Ġarrang ing
Ġben ch
lic ity
enn if
Ġpop s
Ġtables p
Ġorch estra
ĠKar en
_er ror
Quadr atic
O T
Ġti ling
Ġ(âĪĳ '
.c ount
z x
Ġh T
Ġc row
Ġr aw
_s ec
= C
C ircles
or ical
ĠP red
ven ir
\\) ;
+z x
Ġput ting
Ġcollect ing
{g athered
_m a
ÃĹ n
Ġtrad er
Ġeleph ants
i om
_s un
_h ouse
min utes
Ġran king
_c op
_l ayer
Ġob lique
\}$ ;
Ġsold iers
ij ing
l ash
Ġcho ir
Ġminim izes
ch i
ĠJ am
Ġmess age
( Note
E A
Ġf etch
Ġm b
re present
ĠB iology
Ġeas ier
adi um
Ġlad y
Q S
\ }\),
v o
th ur
ĠC irc
ĠRem aining
=\_\_\_\_\_\_ $.
Ġregister ed
Ġoly mpiad
ĠT w
em ies
and s
_shel ves
ĠâĢ¦ ,
Im age
Ġration als
ennif er
N um
_s equences
Ġmile age
_integ ral
r ons
.. .Ċ
ĠBC A
Ġselection s
Ġmin i
Ġapp lies
ĠIn tersecting
Ġno vels
Ġqu art
Ġcommit tees
* M
p A
Ġma ster
Ġsh uff
Ġpack et
ĠEs timate
| $.ĊĊ
ĠL inda
In c
Ġer ase
) ?-/
e fficients
ch ain
_over lap
ĠT ra
ther n
Ġ$ $Ċ
_s ines
_l argest
Ġfly ing
measured angle
t om
ĠB O
_p lant
ĠH ilt
cho ice
Ġintern ational
_asymp tote
og n
ĠC indy
st ack
_bott le
-ro bin
, Ticks
A I
c ial
as ons
ĠS elling
Ġnot ed
( H
st rategy
oc c
$" .
c ast
Ġ\ |\
le ep
ec reasing
and er
Ġmotor c
c sc
f emale
ork s
Ġmag ical
Ġmaxim izes
< n
* D
Ġma ple
ĠSt ring
Ġsun ny
ĠE H
_re ce
lo ad
ĠÂł ĠÂł
Ġta uto
P hi
Ġs ad
Ġz ongzi
{ abc
ĠD anny
_m eters
ĠL aura
} )$.-/
ĠC ancel
.I ic
Ġ} )
Ġover laps
ob al
Ġarrang es
ĠAm ount
_banan as
^ s
re et
Ġun answered
S A
o ong
ĠB ro
og er
rom atic
vi ch
inc ome
Ġex it
und ant
Ġfl avors
ĠGeometric Space
| =$
ĠN H
it ted
âĪ£ (
Ġreflect ing
, M
_ ord
_w all
Ġsy rup
ii i
{ Y
{ If
Ġb ir
ĠS ue
Ġhe ptagon
in i
Ġc ater
Ġw orm
Ġto ol
Ġline up
)}\ :
_me et
ĠLe o
E H
_pizz a
A OB
U nit
ĠN orth
_p ick
_tra pezoid
m ass
re ci
ĠWe ek
âĦ ¤
Ġg aps
ĠG u
Ġfe b
Ġlo op
Ġsupp osed
itt le
ar o
}= {
Ġdo zens
ĠComb ined
_ver ification
Ġassign ments
{ answer
Ġth irty
ĠA g
vers es
Ġcongru ences
Cho ose
Ġmich ael
{ j
Ġins er
amer a
Ġnot ing
Ġarc ade
Ġbin s
Ġformal ize
Ġattemp t
= Â±
ge ometric
_l unch
}| =\
di fferent
Ġmanag ed
Ġsco ops
Ġv B
ef actor
Ġweek ends
-f ifth
ï¼ī ĊĊ
ĠPred icate
F A
w alk
y ears
Ġbe ll
)-- Ċ
_fl owers
Ġtechn ology
Ġmas ks
Ġinvestig ate
_t aken
Ġne ighbo
Ġanalog y
ab ri
Ġcoup les
c yc
re at
Ġcont rol
ĠExpand ing
ĠOli via
Ġa li
Ġth inking
Ġma j
Ġ, -
_sq m
) (-
Ġc y
Ġdri ven
_ad jacent
S olution
l oss
Ġstick er
( R
W in
s pecial
Ġcom mod
ator y
_e ff
Ġjack ets
Ġcance l
a inder
u k
or gan
ĠF D
_c he
ne ither
Con t
Ġthrow ing
ĠAnn ual
. z
ĠL uke
)= (\
.to Nat
ech an
ent ral
Ġpric ing
_al b
ew el
t or
}\ \).
ĠâŁ¨ âŁ¨
Ġchec ked
Ġprepar ed
}$ $-/
Ġus ually
ĠIns tead
ĠWhe ther
Ġw a
ĠL ee
Ġapp s
Ġrec ent
cal efactor
units quare
ĠMe asure
* Î¸
ul ate
Ġres ts
ĠAn ton
Ġcharacter istic
eta ils
Ġnew ly
Ġarri val
N orm
Ġx min
_s andw
_c a
_simp le
ĠÎĶ x
Ġcommer cial
/ âĪļ(
> c
P h
f our
Ġl bs
iz ations
Ġright most
_g as
_we ights
Ġplan ks
Ġgrand father
Ġcontradict ing
mon ths
enc il
Ġte eth
_par allelogram
}^* $.
Ġsaf ety
_pl ay
.to tient
oong i
ĠA reas
im age
_g ra
Ġsle e
ĠH Cl
all on
Ġar ts
Ġbi king
Ġdeposit ed
g n
Ġh F
Ġc ott
Ġsh ore
_h undred
ĠAn nie
Ġproj ec
Ġhus band
( Ïīx
P O
Ġab cd
â ĸ
ĠK e
Ġpentagon al
mar ked
Ġp anc
Ġpol led
Prop osition
/ A
in ating
ĠN ik
ay a
Ġjud g
Ġbush es
_p red
ĠZ oe
{P R
Ġ ]
te am
e lement
Ġd etergent
)\ ]Ċ
Ġbe an
_ch airs
![ ![
C N
P T
} ).
Ġm olar
}$, $
Ġel lip
ĠEx ists
lic ate
.s upport
_st ream
Ġhi king
{Q R
Ġ ),
ĠA aron
Ġas k
yl er
in os
Ġp up
_d ata
Ġwhere as
ĠK ey
Ġsour ce
. Finite
Ġfi ts
Ġsw eater
}^* )$,
_remo ved
Ġsou venir
. edges
Ġh ops
Ġn a
om a
ra ys
)$ ",
Ġsp iral
w all
Ġha irc
Ġk ern
Ġqu ick
Ġag ree
Left rightarrow
h K
} m
he x
Ġ_ \\(
ile y
Ġmet re
n am
ĠN ine
Ġtri als
ĠJ ess
Ġvari ety
ĠDan a
color ing
Ġdodec agon
! )^
/ |
Ġbe et
or g
ul f
_g old
< -
@ {}
] ));Ċ
y ard
Ġt oll
ĠS w
Ġpl ums
Ġtri al
-s tep
Ġback pack
re p
ĠB ag
_f inite
_al ways
Ġtextbook s
or ange
Ġs ally
Ġin ning
Ġal ign
Ġli f
ons es
Ġent ers
Ġbrace let
_nick els
_l aps
_h ar
Ġpromotion al
month ly
_p en
); [/
Ex pr
Ġdough nuts
Ġlook s
ĠMean while
| (
Ġa uxiliary
Ġv s
ĠE G
_pro j
_st ate
aw n
ĠChar les
Ġj oe
Ġmed als
On es
. line
_ ag
_ alcohol
j a
_per m
Ġ. čĊčĊ
" )
Â ¢
\}$ ;ĊĊ
Ġdeal er
ĠM asha
ur ric
Ġbo ards
Ġpl astic
)= -\
ha ve
ĠIs Odd
{t wo
Ġaud ience
. F
ain tan
ĠWh ite
Ġdec ks
Ġtan ks
\\) "
aintan ces
a uss
igh teen
Ġbe a
iod ic
- one
Ġth ief
Ġb atches
Ġs tip
ram s
perb ack
_e ach
_co mplex
_not ation
Ġmen tioned
Ġlight er
atch ed
ĠVer tex
etra hedron
Ġpri mitive
+ âĪļ
/ cos
Ġw ar
ĠG rand
_sh op
Ġadv ance
{ âĩ
Ġ- |
Ġmar athon
Ġelement ary
_stick ers
{âĩ Ģ
s equence
_p aper
_six teen
_pe aches
cross ing
Ġox en
- circle
T im
ĠR andom
Ġpepper oni
< d
r angle
Ġwith draw
ÂłÂłÂłÂłÂłÂłÂłÂł ÂłÂłÂłÂłÂłÂłÂłÂł
= p
t able
Ġst acks
Ġcirc uit
-f ive
? čĊčĊ
i pped
un ches
}^{ +}
_re ad
ĠY ork
Ġlinear ly
St ring
Ġprem ium
C all
b ridge
h igh
Ġe fficient
ĠB OC
_d et
ĠL ily
Ġdown ward
roxim ately
Ġsubtrac ts
l angle
Ġh R
se ven
inter est
P lease
ĠUn fortunately
_reg ions
Ġgather ing
Ġfi fty
_sh aded
.in v
Ġfactorial s
_o vers
Ġbig ger
Ġlock er
Ġboun ces
+ j
c omb
j an
Ġbl anks
Ġgu ard
Ġapart ments
ab y
Ġro b
Ġfactor ing
res h
Ġcamp ers
t erm
Ġm ac
ud ge
Ġbis ected
- ab
h H
Ġb akes
ĠL ake
}\) -/
_rec ip
ĠâĨĳ (
> }
ra mm
Ġacc ounts
{B A
ĠC K
Ġre ward
-c on
Ġorch ard
Ġqual ified
Ġde ad
Ġwin ners
lif ied
Ġconf idence
ĠM ic
ĠP E
.con j
{âĩĢ }{
* pi
V ec
Ġ[ [
val ues
Ġcup cake
$ f
( sin
U R
m able
} }}{{
ard en
Ġbound aries
rict ed
,N W
Ġlogarithm ic
}+ |
Ġtest ing
Ġvi olet
) b
Ġr asp
Ġg ear
ĠD BC
ans wers
ung k
ĠCla ire
s lope
u racy
_ne ither
âĪĪ (
ĠAr rows
z ab
Ġre view
ru its
Ġperform s
Se lect
_d im
Ġli ons
Ġcar ried
Per fect
{II I
ĠSampling Method
d ashed
r pow
s till
s ticks
am i
_f are
ĠJ osh
)--( .
Ġext ending
Ġref lex
_te achers
Trans form
C Q
m ore
ĠT ina
Ġbe e
Ġpolygon al
_ under
Ġh on
Ġst adium
ĠO Q
Ġsib ling
Ġsuccessful ly
Ġpedest rian
y axis
Ġm L
Ġm echan
ĠF estival
ĠG raph
Ġlabel led
Ġmajor ity
Ġprecise ly
- {
ac c
il via
Ġcoup le
uild ing
ly n
ĠÂ °
Ġ\\ )Ċ
B O
am in
âĪ Ľ
_f ree
âĢĻ t
Ġaccount ing
Ġbak er
ĠCl ub
integ ral
friend s
Ġadop ted
( v
c ri
Ġbi jective
Ġcontinu ity
B elow
f alse
Ġs ends
ch ild
ĠD ima
ves tig
ĠIn tern
Ġmaintain ing
Ġd iss
ig ible
ok emon
Ġso il
Ġ~ \
M E
Ġf ails
< j
ĠR on
Ġmar ch
the ast
ult ure
Ġag ed
Ġdis pl
- ounce
Ġt rick
ĠA I
_d ri
In ter
Ġperfect ly
oly n
Ġcap ac
Ġyog urt
( The
ĠM F
ha o
Ġdes cribe
ÂłÂłÂłÂł Âł
tand ing
Ġdeliver ed
ungk ook
ĠC at
Ġst ated
ĠÎ ¶
fl ow
.. ..
ĠEns ure
Ġch lor
Ġsell er
Ġlo af
ĠChrist mas
_p ants
ĠD P
ues tion
Ġt ric
ĠSimp ly
Ġpepper s
) âĮī
hm n
ĠF A
ĠF er
ĠD N
____ .-/
Ġgo at
Ġtyp ing
Ġsuggest ed
ĠO D
Ġtra y
Ġcommod ity
- order
\ div
ĠS u
_c ents
)^ ^(
Ġdr um
Ġchamp ionship
Ġmaj ors
Ġb n
ĠÂ £
Ġadd itive
Ġassoci ativity
Ġre vised
_st atement
C ase
L M
Ġat Top
Ġcar ame
AD E
_us age
Ġbat tery
Ġequi librium
). ..
Ġseq A
Ġfold ing
ĠJim my
R ow
d binom
Ġth rew
_s k
_f iles
áµ ¡
work s
Ġappear ing
_bill s
Ġpitch er
Ġ= !![
ĠS ales
ĠP BC
-s ix
num s
tim al
_comp osite
Ġd art
ĠT anya
Ġreal izes
ĠJ ia
ron ze
_di rect
P olynomial
Ġl isa
Ġh idden
ĠS lope
ĠCh apters
Ġarri ving
Ġsco op
y ear
ĠTrans form
T en
Ġ Ã
Ġmy stery
_cl ub
Norm ed
_p aint
pi eces
pr incipal
Ġdivis ions
Ġhigh light
Ġgrow ing
requ ency
Ġlaunch ed
O F
at in
ch art
_f ull
_b ut
- Î±
ĠS ame
ĠP ower
Ġ\\( (-
ĠK en
-------- ---|
Ġiter ate
Trans late
outs ide
L ines
_d ev
-f ifths
Ġtrivial ly
cq cq
Ġs ock
Ġdi ametric
Ġexam s
- choice
m ag
p an
ar en
ĠS an
uct u
* l
| $Ċ
ĠO N
ĠJ un
_equ ations
St art
Ġharvest ed
\ rho
o vers
Ġproof s
_p yramid
Ġcont ribute
Ġno thing
Ġexper i
Ġlit re
( K
w w
ĠB oris
ĠN ina
_y ards
_p ct
ĠC all
)}\ )
ĠÂł ÂłÂłÂłÂłÂłÂłÂłÂłÂłÂłÂłÂł
Ġloan ed
Ġvow el
_remo val
Ġoper ating
Ġadjust ed
- liter
> Ċ
r ating
te ed
_m iss
Ġti ger
ks h
pl atform
Ġsur rounded
_inter ior
Ġcyl inders
. }\
Ġ$ -/
Ġe mer
âŁ© âŁ©
Ġcar ries
Ġmed ic
ĠÂ± âĪļ
}} .Ċ
ĠK elly
Ġsh ips
} }^{
Ġa unt
he it
_s upp
_c offee
ren heit
ah renheit
sc ore
m l
Ġm c
ri pe
par tial
Ġ\\((\ \)
Ġprojec tile
: y
l vert
_n a
ĠW est
ordin ate
ĠJ enna
lim its
Ġbab ies
_do zen
F C
Ġpred ic
+ Î²
Ġf estival
ĠF ocus
_t ournament
Ġal igned
Ġse w
Ġorgan ization
l ad
end or
_c ylinder
Ġmathematic ians
ik o
- P
m ove
y r
Ġis n
Ġsubs equence
-t erm
Ġill ust
, v
{ is
ĠO ur
Ġsk ate
Ġâ ĭ
Ġex circle
Ġgre y
Ġfl u
ang ulation
Ġk gs
ain st
Ġti ght
ĠCh loe
_par am
ĠVi ctor
bec ca
y uan
Ð ½
Ġf rac
ĠM il
ĠL ight
Ġlo ads
.mul Vec
Ġoccurr ences
Ġbo ats
_b i
ĠY ang
_choc olate
R ational
ir us
ĠTh omas
Ġrepresent atives
uth or
}|= |\
ĠL arry
Ġdiffer ential
Ġthrow ers
ĠPr ofit
Ġ ''
Ġ\( -\
AB E
ush es
ĠAl pha
at meal
_s cal
ĠOther wise
J ane
] ])
d ies
$. )
Ġcomp rehensive
_re present
add ed
}) +\
Ġcompe tit
Comp are
Ġposs ibility
) d
in y
Ġc umul
ac ts
ĠS undays
row ers
ĠK M
ĠRel ation
( {\
, ~
ess a
_b onus
Ġoccur red
Ġshoot er
Ġstuff ed
ri ch
)) ))Ċ
_d ice
Ġlin ed
}) \)
ris b
ĠPh il
Ġtro ut
/ kg
Ġb isc
Ġang ular
Ġli lies
Ġturn ing
Ġbrand s
Ġprofess ors
/ T
al a
_s how
Ġback wards
})$ -/
(s ize
ĠTe acher
Ġfew est
L i
ath y
_s ocks
ĠL M
_add itional
Ġblan kets
/ R
er es
Ġr ac
ĠH yd
ag ram
_sh ots
Ġteach ing
Ġoccupi es
= z
B X
C K
M s
T ick
ĠT est
ly ing
_t est
Ġche ap
Ġrub ber
g raf
er ts
(\ \)
Ġ______ ,
Ġlangu ages
m iles
ĠR ahul
Ġj une
ĠQ ue
Ġfall ing
ĠCard inal
[ (
} ]$.
Ġcom ing
Ġhi ke
Ġsunfl ower
} z
ĠM egan
_per mut
ell s
ĠK ay
Ġconc ave
Y ear
is or
ĠM D
Ġg iraff
Ġcon sume
Ġal most
.im age
Ġquarter ly
Ġstri pe
$ </
A m
c f
_p ole
Ġro tten
Ġwas hed
Ġcar rot
Ġdri ed
_cos ts
ĠS I
Ġint ensity
Ġmar sh
Ġrep orted
) P
ph ones
Ġde parts
Ġspec ify
Ġref erence
}}+ {{
_reg ion
Ġassem b
/ B
_p yth
Ġcan oes
pp ings
Ġsix teen
Ref erence
ĠN eg
Ġdi lation
trac ting
Ġsimplif ications
Ġprov isions
, G
ro v
Ġd ining
ĠA ce
Ġj ewel
Ġfl uctu
Ġguaran teed
_don ation
Ġdwarf s
' \),
s w
_t rig
ycl ist
âĹ ĭ
/ sqrt
A pply
P aul
_ answers
th us
ĠB rown
ĠF orm
ot a
_c our
Ġpos ted
Ġver ified
Ġperson al
Ġciti zens
C hr
Ġg n
Ġobtain ing
Ġfro st
Ġaccommod ate
Ġdiametric ally
h div
ĠI dentify
ame le
_sq ft
âģ ¸
] .Ċ
ĠB ound
Ġfriends hip
_im aginary
week ly
Ġprogress ions
n ecessary
)) |
pe ti
Th ursday
ĠAB P
Ġbre vity
Ġscient ists
ig ning
_c enters
ĠNo ah
Ar range
Ġpet rol
ĠRuss ian
_s ongs
)) $,
Ġst ays
Ġsh r
}}$ -/
Ġacc omp
Ġlo ves
( cos
M aria
R o
} M
en ge
ĠA re
Ġ\\(\ \
eff ective
AA AA
Ġord inate
Ġpops ic
Ġth in
ĠC z
Ġco des
Ġbas il
Ġrequ iring
Ġcommut ative
/ day
G ood
id ents
$. čĊčĊ
has DerivAt
Ġvers a
. odd
un ning
st ract
_c rayons
_b ur
fect ed
Ġcal end
Ġexch anged
+ v
Ġh gt
ro ids
Ġd simp
Ġst yle
Ġtr ade
sum mary
Ġsn ail
Ġelectron ics
ĠRep ublic
- adjacent
] ]Ċ
Ġt iss
ĠD aily
Ġcondition al
uff y
Ġjers ey
ĠInequal ity
. E
< y
{ h
ro y
Ġw ealth
ors es
ind i
ĠJ uli
lic ations
oth ers
Ġhi ker
Equ al
Ġsess ions
P i
_ ed
Ġa f
). $-/
Ġve g
Ġpa perback
Ġinterest ed
order ed
\; \;
T e
_p ig
Ġvi ct
+ D
o op
Ġs pro
}$ ",(
_f ocal
ĠG o
Ġcont ents
rad ers
... ,
Ġh h
Ġj ason
Ġch amele
Ġsw apped
ĠBe ijing
. center
om eter
Ġdi pl
Ġpl ots
rip le
ĠSp anish
. perpendicular
Ġst ocks
_r ad
_te ams
_wind ows
Ġdenomin ations
ret ch
}}}{ {{
Ġdepart ure
ĠRo ute
Ġdam aged
_bread th
Ġpent agons
c he
^ +
` ,
Ñ Ģ
ĠS egments
Ġdi ed
Ġship ment
= dir
R T
Ġb uns
Ġr achel
Ġk i
Ġst mt
=f alse
Ġexperim ents
Ġclimb ing
Ġindef initely
.mon omial
_ ate
er vation
ĠW al
Ġun f
/a âĤĻ
}^* $
\\( )\\)Ċ
ĠSam antha
Res ult
Ġn odes
over par
omm y
ighb or
_pass ed
Ġbouqu ets
overpar en
{ XY
} S
Ġn ut
ĠM ad
\) ;
\) ;Ċ
ĠE n
Ġsa us
ext end
Ġcateg ories
Ġpolic y
_ ABCD
d ed
{ proj
ĠR ow
Ġe thanol
Ġw ish
Ġg olf
ha w
Ġconn ections
til de
Int eg
Ġran ks
Ġanaly ze
_ph ot
Ġtelesc oping
ĠA L
Ġi de
_d es
ĠE ither
Ġdon ate
Ġom itted
' }(
ĠR ose
Ġprop os
(p ic
Ġcycl ists
Ġoffic er
ĠDis joint
Ġtablesp oons
- like
Ġ$ {(
Ġgra ins
)\) .-/
Ġvac u
H M
Ġw ings
ĠE ve
_b irth
Ġf red
Ġ/ *
_p ainting
_c art
Ġ$( (
Ġnon agon
Ġsur veys
Ġseed lings
Ġpoliti cs
" ?
S ide
` .Ċ
_a pply
Ġanaly zing
Ġstrong er
F ace
al ie
_b ed
Ġevery where
Pl ace
Ġinstr ument
ĠG ames
Ġser ves
Ġstor ed
* T
B ox
a que
x âĤĻ
um e
ĠM edian
ĠF ermat
Ġj ug
we eks
Ġ\\( |
Ġpast a
Ġconver ting
ĠCl ara
: **
D egree
] Round
s al
Ġc able
_l ow
.c onst
Ġaccident ally
Ġfertili zer
ĠC up
ĠÎ ·
ĠL ittle
Ġdenomin ation
_six ty
& =
N D
Ġbo ots
Ġtr ash
ens en
Ġbi ased
ï¼ľ \
âĪ© B
_ vec
ar rangement
Ġmo on
_con v
Ġorient ation
vo ir
D en
ĺ ħ
in ery
le an
Ġhc a
Ġprov ides
Ġbe autiful
_d elay
Ġch ores
Ġimplement ation
ĠJapan ese
, H
en ing
ond a
Ġcircum centers
Ġobser ves
Ġrestriction s
_ax es
Ġtechnic ians
r ish
t uce
u v
Ġp eter
ĠB L
Ġrec all
Ġï¼ī Ċ
t ail
Ġ ;Ċ
ĠD erek
ĠU pon
ps i
Ġw olf
Ġmar king
Ġlog s
Ġmeet ings
Ġstation ery
D avid
ï ¬
Ġb it
Ġl en
irc ular
Ġdifferent ly
Ġfinish ing
_quad rilateral
,x max
Ġbul k
Ġtransl ating
ĠInter est
Ġconson ants
Ġp al
Ġp ortions
ĠC BD
ĠW illiam
_k ids
AD C
Ġinde pendence
{O M
Ġste ak
ĠPr incipal
or us
em bers
_exp ense
Ġdevi ations
oinc ident
Initial ly
J erry
Ġd ashed
em a
_f uel
_bo ard
Ġexist ing
Ġrain y
ro ad
_in f
_a p
Ġsw eaters
Ġacqu aintances
} e
Ġno od
tan k
\\( (\\)
|-------- -|
_ad ult
_rem ain
A re
ol ars
_sc ale
_ear ned
}^{* }$,
Ġinstant aneous
Ġ( __
en iors
Ġn y
bo b
Ġpar ent
Ġre b
pec ts
Ġ. $
Ġpre vent
Ġforg ot
C omb
J im
J ason
at tice
Ġth ings
Ġ} -
Ġbro kerage
Ġhel ps
ĠEqu ilateral
Ġorch ids
Ġaction s
pass ing
> -
_ Î¸
Ġb ones
_p ears
ad ult
}} )^
ĠIs P
Ġbro ad
_fill ing
zab eth
j un
Ġ\) :
ĠOn ce
Ġnumer ically
Ġreser voir
N umbers
Ġc ages
Ġc rease
Ġchann el
R ect
)) )).
{P M
Ġinvent ory
ĠM y
Ġcl ay
Ġsp iders
Ġwitness es
Ġhyd rogen
S quares
j in
ĠC AB
Ġz one
ick ness
ĠÏ Ħ
Ġref ers
_sh irt
Ġen emies
ĠBP C
Ġvill ages
Ġ: :
ts h
Ġv endor
Ġcheck ers
Ġturt le
e ither
f ra
ĠĠĠĠĠĠĠĠĠĠĠĠĠĠĠĠ ĠĠĠĠĠĠĠĠĠĠĠĠĠĠĠĠĠĠĠ
_h ats
Ġrevers ing
S te
_ leq
Ġl as
Oper ation
oc enter
ĠG old
Ġback yard
integ er
' (-
Ġ _{\
Ġc old
ĠC he
Ġcont ing
Ġ______ ;
Ġdes c
Ġevalu ating
Ġcharacter istics
Ġclim bs
Ġquadrup le
Ġmic ro
Ġha bc
lic ia
Ġmagaz ine
ĠBr enda
ĠC X
Ġfun ext
ĠJ ar
Class ical
M ultip
| }$
Ġl hs
_s atisfies
ber to
Ġvi eta
Ġflag pole
ĠMel anie
_f req
Ġlead er
* ln
a pping
ĠR os
ĠR oger
Ġfor ec
}, \]
_se lected
Ġpast ure
_interval s
Ġenter ing
r ally
ĠR est
_f emales
adi an
ĠCon vex
}âĢ¢ \
% $
ĠC I
Ġcan oe
math it
Ġwas te
Ġsur faces
Ġkil os
h ABC
ol ic
Ġv A
Ġk ate
Ġlet tuce
ĠH istory
Ġcent roids
Ġrec ycling
_h its
Ġser ial
Ġmil let
Ġdis like
_multip les
Ġconf ir
_pack age
Ġow es
r at
Ġha w
Ġal uminum
}}{ {{
_bound ed
Ġacc uracy
Ġ_______ .-/
_ ft
ce l
}} )$
.c ol
ĠDifferentiable On
_de posit
_stat ements
* N
- of
ĠB lack
par ents
omin ator
Ġpow der
_tw ice
Ġindic ating
Ġrupe e
Ġcash ier
s ale
at en
Ġr opes
_s oda
ĠP okemon
sa vings
) t
Ġangle D
ĠK at
ĠABCD EF
] [/
Ġp our
Ġt shirt
ĠB eta
ag les
rang ements
tra ight
Ġer rors
ĠUnit ed
Ġdeduct ed
Ġn ap
Ġr efine
_work ed
Ġtri es
Ġhapp ens
Ġconting ency
: x
Y X
ĠS A
_d ollar
ĠH CF
rop s
Ġop aque
_st andard
Ġrain ed
\ )).
or othy
eg rass
ay lor
Ġo ak
_r hs
Ġsal mon
Ġdes ks
da ugh
Ġbelong ing
Ġarg uments
ĠS ilvia
'' $
Ġiden tically
ĠBarb ara
* Complex
A pp
B en
Ġfl o
_st raw
lif e
enari os
Ġreti rement
, sqrt
N ow
Ġc âĤĻ
ĠE ur
Ġcentim eter
Ġbuild ings
_attend ance
h dist
Ġb ol
ĠT ed
_b ul
omin o
_B E
Co eff
Ar ry
Ar rx
Ġorgan izing
J oe
} D
Ġd ar
Ġex ec
ĠD AB
Ġtr ading
_par ameter
Ġestablish ing
ĠJohn son
bound ed
Ġgl obal
% ",
[ a
g b
v it
{ gcd
ch er
Ġdis placement
ĠAm anda
Ġf at
Ġrel ay
Ġsufficient ly
_j ourney
eral d
Ġbouqu et
- ÏĢ
Ġs earch
ĠL ower
.f old
inc lusive
_cont inuous
ĠAE D
S econd
T U
(" %",
pl ing
Color ing
Tri angles
O b
S hape
s ome
ĠF ill
_s mallest
Ġdi es
Ġquadrup lets
_pizz as
Ġbookshel f
. subset
g rade
Ġs lide
_m ales
Ġ\\ ),
Ġref lects
Ġmanag ement
Div ide
Ġac cept
_mod ulus
_par ity
Ġdodec ahedron
Ġm p
Ġfor th
_l ap
els ius
Ġsitu ated
( rotate
B L
al ia
Ġh neg
ĠB reak
os is
Ġdef eated
Ġrec ently
ĠIs Even
ott om
Ġencl ose
Ġscal ed
itt en
' A
- Î²
S P
ĠF ahrenheit
ĠD M
Ġhand les
_selection s
ĠL u
ĠK atie
Ġhambur ger
Ġbrac ket
> +
} }$.ĊĊ
Ġe mma
Ġw iz
Ġfun c
pp y
( j
ĠS outh
ft ing
Ġprop ortions
enc ed
Ġnatur als
Ġcle ared
Ġbar rels
Ġpot ential
Ġcri ter
ĠFer ris
) n
d ouble
e tical
Ġ| âĪĳ
ĠW in
ĠE vents
ĠAn s
Ġgu it
ateg ory
Ġfrequ encies
ĠRem ainder
- ex
Ġf rench
Ġin verses
ĠS oph
_in finite
_ch ips
Ġresid ues
_col lection
Ġutili ties
Ì Ħ
ol anda
ach able
_b eans
Ġchar lie
express ed
] $.Ċ
le e
as ty
Ġam gm
_cap s
Ar g
ĠBE C
Ġcompet e
al ph
ĠF l
)) (
_con ver
\\) .ĊĊ
$" .ĊĊ
start ing
_bro ther
_if s
Ġp atch
Ġcompound s
_for ward
cell ent
Ġtrad itional
p urchase
Ġc ement
_c rit
ex pr
ĠV as
Ġsp ade
co ok
lo ves
v ince
} ÏĢ
Ġsix es
Is osceles
uzz les
et tes
Ġun ic
ĠâŁ¨ _,
Ġbi jection
ĠAl bert
Ġsuccessive ly
Ġcraw ls
Ġren ov
Ġa wards
ĠR ick
Ġto tient
ĠâĪĳ (
_succ ess
)] ^
Ġgather ed
stack rel
+ S
P Y
em ma
ĠP opulation
Ġmid night
Ġad min
Ch ar
ÎĶ x
in eg
Ġincl ined
_frac tions
Con vex
Ġnood les
| $ĊĊ
Ġm ower
ĠB a
eng u
exp and
ais y
) |\
Ġ )\
Ġp add
Ġf ountain
Ġin k
Ġk ph
_st amps
An na
Ġresp onses
Ġcoinc iding
Ġtransl ate
Ġste ve
Q P
_ head
_ answer
{ ax
Ġh ung
et z
Ġdistrib uting
izz es
fic tion
Ġcocon ut
S everal
d oor
Ġf eat
ĠR ichard
ĠN athan
_p uppies
}\ ,\
}\ }\)
Ġmon och
com ing
_BC D
c tive
in ished
_n ote
_s ticks
CD E
_chick ens
Ġrobo ts
ĠB G
Ġgroup ed
,d ir
_o ct
_round s
p rev
Ġcon vers
Ġbe lt
Ġmach inery
âĪĪ Z
_mark up
Normed AddCommGroup
\ }\\)
h PQ
Ġr id
_p olar
Ġsu c
Ġac re
_ir rational
_ actual
ĠA lyssa
o ys
Ġt ue
ili t
ĠG B
rop h
ari ant
}}\ ).
s ame
Ġmon itor
}} }+\
Ġcap t
Ġth erm
Ġs ne
Ġc in
Ġm pg
ed ing
_s ell
)) );Ċ
Ġz e
ef ul
ĠWe ight
ĠY i
Ġcontract or
] $.ĊĊ
Ġs ed
Ġn ights
Ġk y
ĠU pper
-d ecreasing
-c oincident
Ġtro us
- M
Ġc amera
Ġch apter
ĠSt reet
ĠDi fference
ĠSh ang
Ġdecl ared
s ales
ĠS ymmetry
The ory
_b elow
to Nat
Ġcomput ing
mo ves
Add ition
_ob tuse
+ )
o ti
Ġn ail
ig ration
set minus
ĠF r
ĠWh ere
_in side
ĠĠĠĠĠĠĠĠĠĠĠĠĠĠĠĠ ĠĠĠĠĠĠĠĠĠĠĠĠĠĠĠĠĠĠĠĠ
Ġup d
ĠAs ian
Ġproportion ality
ĠMonth ly
_ outside
v dots
an th
ac ements
Ġ\( [-
ĠZ h
ighb ors
ĠPar allelogram
percent age
w omen
al anced
ay e
Ġso on
Ġtre ats
Ġexperiment al
ĠWork er
Ġa z
Ġlo aded
ĠAl an
Ġhal ves
+ h
Ġin fected
Ġhard cover
[ k
h ac
Ġin her
\ }\).
l on
Ġw ild
_c ri
Ġmultiplic ity
Ġciti zen
! "
Ġper c
upi ed
ä ¹
Ġsu fficiency
_b ike
Ġcl er
Ġgener ates
ĠOli ver
ĠIsLocal Min
_p ump
_w ait
_d ensity
}+ ...+
_sub s
Ġchrom os
Ġh ang
Ġ\ {\
Ġ* /Ċ
ĠS al
Ġtetra hedra
ĠSe ven
Ġsho ots
+ A
_ theta
of ess
Ġ-- -
ri al
ĠS us
st udent
)) ),
edi ans
Ġnewspaper s
} dx
ti e
_bo y
ĠABCD E
=axis pen
? <
ĠB I
ĠF ifth
ĠS pecial
sh ort
_const ruction
Ġsk ip
long rightarrow
Ġfil m
ang o
ate l
ĠSt ratified
_exp ected
Ġsplit ting
_go al
Ġboun ce
Ġcalend ar
ĠL in
Ġsub t
_j ack
|-------- --
Ġparti ally
Ġpeg s
] +
ow els
Ġre asons
ex cept
Ġd oc
Ġo atmeal
pr int
_f ifty
Ġre ve
}=\ {
_pack ages
Ġcontrib uted
_rear r
ro ke
ĠI D
Ġcorrect ed
Ġfar th
=axis arrowsize
Ġlif es
_ Z
l as
Ġb ish
Ġm eg
Ġinc rement
Ġdef ining
rang ing
ĠDiv ision
ĠBob by
Ġdeal t
t uesday
)$ ?ĊĊ
ĠE r
Ġext ends
Ġ\_\_\_\_\_ .
Ġpres ents
Ġfit ting
= CD
b ow
Ġh are
Ġ\ |
ĠCon c
Ġsign ed
ory a
con stant
Ġbug s
n ote
Ġl axis
_m onday
Ġsp arrow
pl ayer
Ġhel met
-------| Ċ
End Arrow
F ac
ĠC elsius
me lia
_c orner
_r hombus
Ġrec omm
ĠAn thony
Ġdon ut
Ġbabys itting
( Î¾
ĠB ec
id i
bo y
ip ts
Ġmultip lies
Ġover head
Ġpa ul
/> $
Ġrev olution
_dr ink
h CD
Ġâī¤ Ċ
Ġsa uce
Ġsp oons
,b lue
Ġer ases
Ġhear d
ĠN OT
ri ver
Ġst d
... +\
_trans lation
O E
p B
} /
le ments
Ġy en
ill age
ĠPer imeter
Ġencount ers
Ġcott on
ĠQue en
* g
. head
L uc
d an
Ġs lic
Ġd ancing
ĠB rit
ĠS mall
Ġli z
Ġcour t
Ġeras er
Ġcro iss
= d
B efore
m ain
Ġh Î±
angle A
_t ails
Ġsimp a
Ġresult ant
Ġsub total
ram a
ĠZ achary
Addition ally
B I
I H
K M
\ pm
i y
Ġh AB
Ġg ap
ĠF reddy
ĠY our
Ġmain tains
occ upied
d ata
Ġm arg
bo ards
ut or
_r w
old s
}} )$,
ĠAr un
ĠInc reasing
ĠCirc um
urric ular
Ġmonoch romatic
Ġs ara
ar r
se y
ress es
Ġstay ed
Ġimprove d
osc ow
- (-
. arithmetic
Ġ ome
Ġk ÏĢ
st al
_d em
)}\ ,
EF G
Ġlo ve
lo aded
h Î¸
Ġn at
Ġd s
ch oc
}$. <
Ġtw os
ĠCount ry
_tang ency
_oper ations
ineg ar
, l
A Y
per m
ers hip
cent age
pos its
Ġcross ed
_factor ed
_im ag
Ġlear n
ĠPe ople
Ġjewel ry
± ¼
â ±¼
Ġs ort
ll en
Ġst ory
_f amily
Ġinc lusion
}} }$,
_st ar
)| $
mid dle
_option s
pp osite
Ġdem ocrats
Ġdots tyle
Proper ties
Ġprin ted
o il
Ġin j
ĠC enters
ĠW endy
Ġsqu aring
_six th
})( {
He ight
Ġburn s
Ġpup ils
' }{
c kets
Ġw ise
ur red
_s occer
Ġpi ano
âĢº Ċ
Ġcapac ities
e mph
Ġth irteen
_h orses
}\) ?
_th irteen
_y z
}=( {
Ġcous ins
_t u
=\ \)
Ġtravel led
_pass eng
Ġrack ets
i as
y ch
Ġma ppings
od ium
_trans fer
ĠAr thur
ĠWith out
Ġadvert ising
ĠExam ination
qual ities
}$ ",
Ġ[ *]
Ġch apters
pos itions
Ġcomm ute
ĠSe par
Ġsculpt ure
C ondition
Ġs und
Ġr am
ond ays
ens us
Ġid eal
ÂłÂłÂłÂł ÂłÂł
Ġprocess es
ĠFactor y
Ġassoci ated
Ġcumul ative
/ time
B r
ĠL inear
_l ocation
Ġproduc tivity
Ġhand ling
Ġsupp lement
\_\_\_\_\_\_ \_
att le
Proper ty
divid ual
----| ----|
Ġr B
_s cience
Ġcent rally
ĠBC E
Ġsur round
ĠSt at
Ġvis ion
_o il
_hand shakes
_mp s
Ġquick ly
= linewidth
Ġb rid
Ġbl ond
_ine qualities
Ġvot ing
Ġeleph ant
---------| ---------|
wash er
m ilk
et ype
_c ake
Ġtr ump
Ġ$(- âĪŀ,
_after noon
(l axis
I V
Ġf riction
ĠT en
ĠF riend
Ġbe ha
âĢ »
ne eded
Ġear rings
Ġwal nut
Ġtable t
Ġser vices
ĠAr range
Ġanaly tic
-section al
=\_\_\_\_\_\_ .$
ĠFollow s
, X
/ are
L CM
x axis
ati al
ur able
_t yp
Ġ} ĊĊ
)| Ċ
Ġverify ing
> </
Ġr ises
Ġe li
ĠF C
we et
.$ $Ċ
hy p
Ġcontinuous On
ĠDirect ly
Ġ\_\_\_\_\_\_\_\_ .
Ġinfl u
+ +
+ ay
ors t
Ġâī¥ Ċ
Ġ\), ĊĊ
Ġview s
{ J
ĠR aj
ĠS olving
hel le
Ġ\_ \_\_\_
C L
ass uming
uc ch
Ġ? **
big g
Ġseas ons
Ġ+âĪŀ )
$ _{
S arah
oun ces
Ġtow ers
Ġmedic ine
M ichael
} ;
Ġl b
Ġz inc
ag er
Ġstraight edge
Ġir regular
Ġspe ech
onal d
Ġchecker ed
Ġmarsh mall
o ise
)= \_\_\_\_\_\_
ĠK yle
Ġcoun ties
Ġcircum s
aps ed
Ġrais es
-g allon
Ġformal ization
( arc
b el
as ks
Ġdim inished
Ġliter ature
= $ĊĊ
] b
d egree
ub es
** $\
Ġmid line
.e ven
Ġextrac urricular
_requ ired
/ P
\ binom
ph an
Ġcomp ris
_pl an
Ġtransform s
Ġdeli vers
Ġtele graph
_prog ression
_ag ainst
T otal
Ġa mp
Ġb rad
ĠE m
ĠH aley
Ġattemp ted
eep ak
Ġr ating
ĠT ry
ous ly
Ġkern els
l ights
Ð »
Ġvict ory
olars hip
ĠAns wer
) :Ċ
- effective
O G
{ [
ĠR adii
_s ister
Ġless ons
res pective
Ġ\_\_\_\_\_ \_\_\_\_
-t rip
Ġregard ing
Ġsubstitution s
Jo an
Ġbisc uits
! (
n card
s n
ear ranging
Ġl ends
Ġtr aded
Ġemp ties
Ġprog ramm
Ġbar n
Ġpen alty
C ut
Ñ ģ
ol ph
atur al
Ġac tive
Ġmove ments
ĠSum mable
Ad jacent
ĠâĪĽ (
Ġchamp ion
_hex agon
. G
ĠB ridget
Ġtotal Cost
_r atios
ug ene
}, -\
Ġar m
Ġsl ight
ĠRo ad
Ġpati ents
cri pt
_phot os
- pres
{ mod
Ġd t
_n et
Ġ. čĊ
ĠâŁ¨ (
Ġsp acing
------ |Ċ
Ġcab bage
_circum ference
f ier
Ġf rank
ĠĠĠĠĠĠĠĠ Ċ
_b ow
Ġge orge
Ġac ad
uan ti
{A ll
Pro vide
/m ol
Ġbo oth
Ġsc ales
Ġ) :Ċ
prod uct
= mx
E mily
b read
g i
} âī¤
Ġst em
cc c
ĠAB M
Ġname ly
Ġbat ter
)... (
p ot
Ġh E
Ġd el
te ch
inter val
Ġ\% $
Ġc argo
_w ed
our ce
Ġres ist
ax iom
Ġtri be
Ġsc issors
Ġrepresent ative
Ġmatch sticks
_ele ments
Reg ular
Ġpanc akes
* ls
ar mer
Ġf ri
em an
st ate
Ġcon text
inder g
ĠComp etition
_us d
Equ ilateral
*ls f
, O
T rue
Ġh deriv
_n b
Ġapp li
ĠAE B
Ġpump s
Ad am
comb ined
' }$
* j
in ters
Ġb ronze
Ġsc enarios
Ġmil ksh
P erson
T S
Ġb ull
Ġs usan
ĠEx ample
ĠÂ¬ âĪĢ
}) (\
Ġcard board
_discount ed
_ass ignment
ĠJo ey
ĠPat rick
Ġwed ding
ĠP ri
Ġ. ĊĊĊ
Ġread y
_all ow
,S tep
ĠIsLocal Max
ĠDVD s
' ))
S ize
a áµ¢
i oms
s ides
Ġm g
Ġstud ies
Ġde er
Ġautom obile
_rid es
Ġrefer red
\ sim
Ð º
ans ions
ĠV in
Ġde posits
{n o
Ġsw aps
Ġeg y
Ġatt raction
hd iff
Ver tex
inderg art
en ic
Ġd orm
_b inomial
âĢ ĭ
Ġtable ts
ĠMonotone On
Ġa rith
er ies
Ġi cos
he e
ok es
)) )))
ub le
Ġj uly
_l and
Ġdri vers
Ġtec h
Ġtreat ment
eres a
T ra
Ġco aster
)$ $Ċ
il ty
Ġcalcul ators
Ġtyp ed
ĠAl ways
na ire
tri vial
- and
M el
b ike
Ġis L
_w ash
_t ruth
Ġun shaded
Ġcomp utes
vi or
the y
Ġoppon ents
}=\_\_\_\_\_\_ $.
Ang le
vit ational
Ġfarth est
B oth
\ lg
d f
ĠD ra
_g uests
Ġag ency
Ġbank er
Ġscar ves
( w
+ u
_ ages
Ġn arrow
Ġle op
]{ -
Ġair lines
ĠSk ittles
Ġpredi cted
M ath
} ax
iv an
Ġdef ect
ĠMart in
Ġhighlight ers
? $$
D M
g ra
m ers
Ġh prod
Ġ\ #
ĠT am
bo o
ic ket
ĠH and
}= $ĊĊ
Ġrem ember
ĠLet ter
Ġtri hedral
(a âĤĻ
âģ ·
Ġfriend ly
Ġconn ection
inter cepts
.st rict
.inv Fun
t w
Ġc ulture
ic it
pr oper
ĠShow s
arg er
Ġfe athers
Ġpa ving
ĠG auss
Ġ$| -
_th irds
_sub traction
_co efficients
_function s
uro s
- j
on ies
ĠE B
Ġout let
rid ays
ĠIs abella
Ġfle a
Ġhom oth
Ġannoun ced
ĠDem ocrats
Ġdispl ays
Ġassemb ly
m ate
r vert
ĠM K
add itional
ĠSe lect
P a
Ġp uzzles
Ġf ake
ec tivity
ĠS ection
ct ures
Ġor bit
Ġre union
ens ation
ĠV ariance
Ġnew s
Ġtrans mission
Ġalloc ated
_tr uck
\ $
\ phi
Ġr acing
_s till
it ance
ab a
Ġsh ifts
}$, ĊĊ
up per
ĠâĢ Ķ
ick en
Ġlast ed
Ġdele g
_vis its
.st rong
) {\
g lasses
ĠM isha
_length s
Ġinvest or
ĠAl gorithm
Ġcab in
\ bot
is sible
Ġm us
ĠS quares
_d om
_th is
the ir
Ġunfold ed
Ġcharg ing
ĠPar ameters
limit ed
_an imals
^{* }$,
vestig ate
] }
f oot
Ġ\ ,\,
ro g
ĠS C
ĠIn finite
ĠK y
_sp acing
_dis joint
Dec reasing
ĠSystem atic
Ġs i
per son
_l n
Ġdo ug
_g en
Ġsp read
Ġsub way
Ġpain ter
_comm ission
Ġtrac tor
= S
c at
Ġf risb
Ġle cture
_n ow
Ġ$\ \{
Ġallow ing
âĭ ¯
emic ircle
circ um
Ġtrans fers
rox ide
ĠSam my
oz ens
_cup cakes
ĠShang hai
} &\
Ġb ri
Ġ\ }$,
Ġr intro
Ġ< |>
ĠF H
ĠS phere
_d ie
od up
Ġro les
_f ruit
}= -\
ĠMeasure Theory
Ġpropos al
$ :ĊĊ
P airs
Ġf ilter
Ġt et
ang zhou
_n x
Ġg room
_t uesday
Ġhe ading
). $$
Ġconst r
_b rown
ex actly
Ġgra vel
_par ab
_prop osition
Ġche es
_down stream
f ive
w ords
Ġth u
Ġd c
Ġest ate
ĠAM B
Ġconver gence
equent ly
_ad j
ĠKe ith
ĠM iss
Ġk op
Ġk ang
ch arge
uc ket
pos ition
Ġbu ff
hp q
-qu arters
' m
B ill
D ays
E E
st ac
st ring
ind ings
Ġch op
ĠâĬ Ĺ
Ġ\_\_\_\_\_\_ $.-/
hour ly
* ,
Q B
_ iter
)) --
![ ](
Or der
_color ings
/min ute
_decomp osition
D D
M o
å ħ
_p ep
Ġfor wards
_ch ain
Ġhp q
Ġhist ogram
Ġgar bage
_achie ved
r als
ĠS port
Ġengine ers
_pres er
_rece ived
_p ure
Ġj enny
Ġsimp licity
_r ank
Ġstud ied
}}{ {\
ĠRe becca
ĠGrid Point
. -
per im
ĠC ars
Ġexp osed
atch ing
ĠâĬ ĵ
alind rom
Ġcontra pose
S andy
ĠA R
ĠF B
Ġv en
)) --(
ertain ment
Ġgra m
Ġswim mer
) âŁ©Ċ
h orizontal
ver tical
ub ble
ĠO F
Ġnon fiction
Ġexp ansions
Ġprocess ed
Ġwalk way
Ġlear ned
er yl
ĠE ight
Ġim ag
Ġsw apping
Ġremo val
ĠPl ayers
Â· a
_multip lication
b us
b ons
| b
per fect
ce an
Ġ/- [
cc oli
Ġaver aged
b idden
_s co
Ġhas h
ĠJ ean
respond ing
)| )
Ġpri mary
_te ch
ĠMar co
ĠFactor ize
Ġvac c
simp lified
Ġdiscard ed
c il
e ons
f red
ĠRat ional
ĠC ategory
ĠS eat
am boo
_m ust
Ġman ages
Ġconc aten
ĠâĬ Ĥ
htt p
Win ning
ĠD elta
ity a
Ġpar ake
pec ies
Ġli on
Ġodd s
_ex act
_tip s
Ġbeet le
- sum
} p
Ġh min
ut en
rect angle
num bers
Ġimp lications
Ġsecret ary
Ġshar p
C X
Ġf orty
ab or
_con n
Ġinv ited
Ġsemic ircular
ĠJer emy
i ant
ĠC ap
ĠS uper
_s ector
Ġtri ed
_bo b
-x y
Ġdon ates
ĠCan ada
As suming
_draw s
. row
{ DC
Ġh mod
ĠR en
_s ci
Ġpar rot
Ġpair ing
_ro lls
Ġdistrib utes
Ġsol ves
S ally
[ hide
en tion
Ġop in
+a i
de pendent
Ġquestion naire
Ġpine apple
Ġbutterf lies
ĠJos hua
I dentify
M ore
l ock
_c ycles
Ġch ris
ex tra
Ġred ist
Ġins ects
ĠCan adian
con vex
di fference
) :ĊĊ
* log
pr et
Ġinc enters
ĠCo ordinates
Ġbro ke
Ġsol ar
Ġapplic ants
_extre ma
Ġinser ted
Ġcarame l
c frac
ĠT ree
ĠF e
ut ually
ĠD ick
Ġbo unc
se a
}} .
Ġfac ulty
Ġinstall ation
Ġtris ection
Ġadvert is
Ġearth qu
U T
\ xi
in ety
og ene
Ġg t
ĠFin ite
}, \]Ċ
ason ing
Ġunder g
Ġclear ly
Ġhear ts
_be ads
o Zero
ar ks
Ġt ube
Ġr are
Ġe asy
ĠB us
_p alindrome
_s ilver
_d oll
Ġsome where
ĠIs land
ĠAn ya
eck y
ful ly
,N oZero
ĠJack son
_pot atoes
ĠPa ula
I P
c ertain
\) ),
Ġdist rict
_b ig
Ġnumer al
' /
_ rab
{ V
Ġ ãĢĢ
Ġc asts
ĠR earranging
ur ban
)= {
mit tee
ov an
Ġess ay
-color ed
, BC
, (-
- co
E s
Ġtotal s
am ilies
Ġman us
arg ets
.d en
Ġsoc i
Ġsignificant ly
_she ets
``` Ċ
ĠJam ie
) [
A R
m orning
Ġr anging
_c los
am ing
_b en
ĠPl ace
ï¼Į -
Ġben ef
Ġcli ents
$ $(
_s lice
ĠIn dividual
ĠAnd rey
Ġbreak ing
}^* $)
_represent ation
c lip
Ġsp atial
ĠAn gela
_min s
AD B
Ġhar ry
Ġpump kins
_ \
{ XZ
Ġt al
Ġr x
Ġpoint ing
_t ogether
Ġcomp act
Ġwin nings
" .ĊĊ
@ {\
w ednesday
ĠC oun
pi ll
Ġac orns
Ġbis ection
Ġrearrang ement
_oper ation
_pick ed
) '
ĠA OC
ĠC ristina
Ġpos ters
ĠD ed
Ġsh ut
Ġterm inating
_bo at
Ġref orm
ah s
Ġsec urity
Ġsquir rels
O ption
b ag
Ġbo ol
Wh ite
Ġvari ances
_e lement
}\}$ ;
Ġunp ainted
$ )Ċ
} )\\)
} âĭħ
ool s
-in ter
Ex actly
g ain
r r
u ity
} ~
en ya
Ġs ack
Ġp engu
Ġr ents
ch em
ĠL og
Ġge ography
}| +|
.P erm
_weight ed
Ġnear by
_t urn
Ġax ial
Ġsol ids
ox ide
otonic ity
_allow ance
* ]Ċ
Ġr ahul
Ġg uppies
_d ucks
Ġcol lective
Ġim ages
Ġimp lication
Ġbul let
Ġsurv ived
Ġchall enge
Inc reasing
] $;
b f
Ġh ire
Ġf ig
ĠR ot
ĠE lementary
ass es
ound s
Ġph r
Ġtravel er
_cap ital
}=$ ____.
KL M
Ġrewri ting
/ N
M K
Ġx max
_m ed
Ġso y
ĠAC E
Ġmanus cript
! }+\
* )
P eter
S S
c andy
ro s
_c oin
Ġad s
ĠIt em
Ġoct al
Ġaff ect
Ġunc overed
map sto
Tw elve
' }\
H I
P art
P oly
ĠD eepak
Ġpar ty
tern ally
Ġsur jective
Ġdown wards
Ġluc y
Ġslic ed
B lack
_ ounces
c ement
u z
ĠS UV
pi cture
Ġ(- âĪŀ,-
Ġpr etz
Ġins ert
Ġnumer ic
ather ine
MA T
/ *
eg o
Ġg em
Ġk a
_s hape
_m n
Ġca fe
ĠSh op
Reg arding
Ġreflex ivity
z ation
ç ļ
Ġw orst
Ġ[ Ċ
Ġplan ets
Ġocc urrence
Ġgu ards
Ġlimit ed
ĠHel en
b rick
al d
Ġmar ia
vi ation
_v ariance
_bott om
ĠWork ing
H as
\ otimes
_ Ïī
re ation
_s im
atis fy
_st d
Ġgener ate
Ġ\, |\,
Ġcompe titions
Ġchann els
R oy
p ace
s am
{ -\
Ġr ug
Ġe ver
ing ers
Ġg rown
ĠP N
ĠH ence
Ġany one
Ġmul ti
Ġdec ision
_me thod
Ġmountain s
_ own
Ġs ens
ĠS pring
Ġ_ âŁ©Ċ
Ġam oe
ĠInt eg
}}= $
di ameter
})= $
Ġapplic ations
_ lim
Ġ ]Ċ
olog ist
Ġfold s
Ġindic ator
big cup
Ġprote in
Ġsunfl owers
ĠTang ents
Start ing
, w
V asya
b ugs
| n
on ia
ast ed
,\ \
_hand ed
Ġpaw ns
. ge
h Y
Ġ= (
ĠB ar
ĠM ondays
ine q
tic le
Ġdiv er
_pos ts
hed rons
Ġrot ational
Ġdr inking
Ġtrac e
\\( )\\)
çļ Ħ
/ or
or ed
Ġd ps
ĠD eb
am ount
", "
Ġobtain s
{c a
Ġperiodic ity
(d ps
Ġtechn ical
p re
} Q
Ġl atest
)) $?
ric ultural
Ġpast ry
vis ions
Ġscient ist
_direct rix
, ...$
O AB
f ront
Ã ³
Ġr y
Ġd er
Ġde pi
Ġhc ont
fer ences
Ġchrom ium
Ġp ing
Ġp ans
it ing
pr ise
Ġkn ock
Ġkn ives
ĠK endra
Ġcurve d
Ġtax able
Ġca using
{B F
ey ed
âĢ¦ ,
Ġfund ra
Ġbund le
Ġdiffic ult
Ġskate board
R achel
W Z
c oins
Ġt argets
], (-
Ġgum my
ĠBrand on
Q C
y oung
Ġn it
Ġv ie
arg ed
Ġtop ping
ĠEd ward
ÂłÂłÂłÂłÂłÂłÂłÂłÂłÂłÂłÂł Âł
Ġap peti
Ġdemonst rating
Ġiss ues
.fold l
) ?Ċ
+ cd
> $
{ {(
Ġs ick
ĠB ank
Ġnumber ing
Ġran ked
Ġjud ge
ĠCondition s
n et
| f
ĠP i
Ġless on
St ructure
St udents
ĠPar ameter
" ;Ċ
' F
n at
s ky
Ġb le
_c ounts
enti le
Ġdisc s
Ġacc umul
Ġradi an
} d
Ġc ul
ĠM arg
ĠM olly
ri mes
ut er
\) ?ĊĊ
_f ruits
-p age
Ġexch anges
_col s
N onempty
Ġa ce
Ġa pr
Ġw ickets
_w alking
Ġsp ect
Ġcar los
,$ $
inc rease
_ac res
Ġjud ges
ĠChrist ina
Ġdish washer
Ġdies el
, âĪļ
e ong
in ue
Ġe man
Ġall ig
Ġj er
Ġresid ual
Ġaim s
Ind uctive
divid end
Ġtick down
' *
{ Only
Ġp ec
ti fic
Ġw at
_c om
ĠD ays
_le ak
)\ \).
âĪĪ [
ĠMod e
- line
A c
^ l
Ġb illy
Ġs atel
_b ricks
Ġde pendent
pl anes
_di fferent
ĠReturn s
ĠCE D
_li ter
Ġfeed ing
ĠRob in
Ġindust rial
Ġgn omes
: [
x oy
in ia
âĤ İ
_n z
ĠH aw
\\ (\
}_ +
ĠDifferentiable At
Ġdevelop ed
ĠNa OH
S C
{ one
} >\
_n ight
ur face
ut ral
Ġwe bs
_st ack
Ġcontinu ing
Ġposs ess
ĠAnal ysis
Ġcommun ities
ched ule
S R
Ġr aces
âĤ į
Ġd m
ĠA EF
ĠF ridays
_s eating
Ġas ide
_l ight
We ight
+m y
Ġcli ent
Ġdeduction s
' \
b mod
Ġc z
ĠR andy
ĠD ean
ĠG race
Ġax ioms
,y top
Ġ______ .ĊĊ
Ġplan k
ĠExp ected
ĠPet rov
.of Nat
Ġevapor ated
a ugh
v ate
_d ozens
ĠSt ates
Ġ? _
uit able
Path s
" ).
t ake
Ġe ye
Ġres ident
label s
Ġsent ence
respective ly
Ġ ^{\
Ġf an
Ġt alk
Ġe ars
Ġg loves
ur a
Ġti er
ven ues
Ġclass ical
lit ude
Ġmen u
{ab cd
_ext ension
,\,\,\,\ ,\,\,
Ġiss ue
) }=
= F
Ġd f
ĠM ars
ĠC alcul
Ġpre ference
_pl ants
-c ongruent
_j ar
Ġpop ulations
ĠGe ometry
vis ible
(d ir
,+âĪŀ )$Ċ
ĠNick y
/ gx
h op
p hew
_n eckl
ĠW u
ĠL aur
Ġ(- âĪļ
Ġrest ricted
Ġland ed
ĠPer form
Ġguess ing
M Q
[ j
us ement
ĠE ast
_con tains
Ġfactor izations
inc reasing
Ġdrop ping
Ġslight ly
O li
V i
ĠB Y
ĠI an
ab lo
Ġstat ues
Ġachie ving
Ġsof tball
Ġmonomial s
_run ning
, h
ĠC G
ĠO xygen
Ġinc omes
ha ppy
ott en
_pl ates
ĠMat thew
Ġoutf its
f ib
p ic
| B
Ġt rom
Ġy d
_th ickness
Ġpack ing
Ġpyramid s
ĠCube Face
. resolve
p lant
ĠT ommy
ĠC one
Ġ" -
Ġhy z
_A E
-h alf
$ $.
- seven
D ef
_ Î³
{ MN
Ġh bound
Ġx s
li te
ra p
cos Î¸
ĠO H
Ġsc atter
Ġking dom
Equ ation
Ġbutterf ly
ĠT arget
ph ant
Ġeccent ric
Ġteach es
_P A
anan a
Ġcat tle
! /(
. points
bo dy
ain s
_in ch
ĠWe igh
-t uples
Ġinstall ment
ĠHu a
Ġlim its
ogn ize
/ gy
\ }=
_ others
d on
{ div
ass ie
Ġdraw ings
-d i
_exp ect
Ġcongr Arg
Ġtens or
vis or
Ġalloc ation
ĠisP alindrome
Ġenvironment al
_ MN
Ġn ancy
Ġl ung
ĠS a
ĠS cient
ĠP os
_t ens
_g irl
There fore
ĠCD A
Ġ` `
{D F
Ġcontribution s
ĠRepublic ans
. *
_ index
{ GH
ĠT racy
ĠN or
ent al
Ġ$\ {(
ĠC L
}\ \{\
\[ |
br as
Ġaltern ative
_op timal
_win ning
Ġunderg oes
w i
ĠB enny
Ġat tain
ic ago
ĠD AC
(" ",
ĠHe ather
_y ard
Ġcompound ing
ĠMe thod
A rithmetic
Ġb a
um an
ĠI N
)$, Ċ
_C A
Ġcap able
ĠDi fferent
mar ks
Ġtransport ed
)}~ \
ĠSim on
Ġbeha vior
= ceil
Å ĳ
Ñ ĥ
Ġh ous
Ġ\ }$.
_g lasses
Ġrais in
Ġfenc ed
}^+ $
Ġforec ast
= R
ĠR iver
Ġx e
Ġcon v
âĪ ģ
}, \)
Ġpoly hedra
Ġpa ved
{P C
anc ial
_cons ec
Ġmanage able
g age
p oles
ĠC os
ic als
)$ :
Ġcl ocks
ĠY uan
Ġmarshmall ows
Ġd ump
_c ur
Ġaddition ally
Ġdis prove
Ġthousand th
Ġlock ers
_an al
Ġorient ed
ogene ous
D isc
b etween
m edian
r ina
_s lopes
_d ed
Ġte asp
Ġquanti fier
Ġinst ruction
Dist inct
Ġreport ers
ticip ants
\ lambda
s m
Ġd and
Ġdi l
ĠPro vince
_st rip
Ġnor theast
Ġsuit case
Ġide a
Ġbatter ies
= ab
ĠF ed
Ġfi le
Ġli mes
Ġtri angulation
_order ing
Ġmow ed
ĠRel ationship
Ġsmart phone
Ġspro ckets
Ġdorm it
- perimeter
C ube
i let
t angent
u ous
ĠS odium
ra ble
_b ij
(" \
Ġ____ ,
Ġfast est
Ġfit ness
! /
E vent
Q F
] );Ċ
Ġc artesian
ĠB ruce
ĠM oscow
ĠS B
ĠH ouse
Ġhe ven
_mod e
Ġsuccess ion
Ġreduction s
non neg
Ġclimb ed
! )Ċ
- D
ĠA Y
/-- Ċ
_d eb
Ġhe avi
In ner
Ġhot dogs
ĠBec ause
, height
- card
\ ,$
ï ¿
er ase
_s ections
_s low
_d uty
Ġsc enic
}( {
Per pendicular
Ġart ist
_li ves
ĠIvan ov
P olygon
k ers
l ayer
r c
Ġsid el
Ġj acob
_f ield
Ġnon linear
ĠSub tracting
Ġocc as
ĠLi u
Ġcommut ativity
ï¬ ģ
Ġhaw ks
C I
s quares
} N
th ough
iv ia
_up stream
Ġpaw n
ĠHand le
G B
] âŁ©Ċ
_ es
_ ceil
al do
is er
Ġr ipe
ec hn
ok er
{M B
ograph ic
ont inuous
ĠLight ning
> (
A ss
m em
{ YZ
Ġr ather
Ġg one
ĠD ar
{c is
ĠDi agonal
Ġelimin ation
Ġiter ations
Ġdecor ations
\ Delta
g ames
p et
ç Ķ
or ph
Ġp ood
ig e
Ġ\) ;ĊĊ
rop er
lin a
Ġreach able
=x left
=y bottom
Ġprofess or
] A
b es
or ch
ues days
Pro d
_ma jor
\ notin
Ð Ĳ
at omic
Ġf ridge
Ġex amples
_g ave
Ġlog ic
_B AC
_fl at
- N
r ence
ul u
Ġfor bidden
Ġsh ark
_b eta
Ġsome thing
Ġsp an
Â° .Ċ
ĠShe l
_un iqueness
oph er
Ġinvestig ation
$ (\
' )^
, AB
] B
l ov
Ġf irm
Ġt aps
_s mul
_m om
Ġhy perb
Ġcar ol
Ġclass rooms
ĠJohn ny
Ġouts tanding
.sq r
Par tition
_sign s
ĠMarc us
Ġjudg ments
{ ar
ĠC ylinder
}$ -
_b uy
_g raph
_jump s
Ġbund les
tell ig
Ġcompetit or
= tick
Ġd up
Ġres ting
sin x
_se lect
_de li
Ġswitch ed
Ġmotorc ycles
thus i
Ġearthqu ake
e ys
h AD
Ġv inegar
_w ay
Ġj ogs
Ġbuild s
_AB D
ĠMax well
Ġfer ris
Ġclar ity
Ġsaus age
uanti ty
) \}$
> **
u er
al i
um my
ĠF u
ĠF requency
Ġcon cept
}} .\]
Ġwal nuts
Ġag ricultural
ĠAs h
-four ths
Ġdeep ak
Ġsoci ety
) },
> x
J essica
t uples
v y
ac qu
Ġnum Divisors
}\ ;
ĠE valu
Ġrec reation
Ġ... $
ĠNe ed
di agonal
Ġreason able
index ed
Ġ ,Ċ
in n
Ġm k
Ġpro ceeds
ĠM c
ĠD H
_f ail
Ġ_ ).
Ġve gan
osen e
ĠPer centage
Ġassoci ative
.nat Degree
Ġhal ved
Ġshar ks
ĠCurrent ly
Ġsne akers
Ġreve al
( where
b rid
Ġn ode
ĠâĪ Ĵ
ĠB ing
ĠE than
Ġas king
_l ateral
Ġcar l
Ġcoup ons
.comp l
. V
S ystem
_ tsh
h ouses
s k
s ingle
| ))
Ġg ene
Ġk indergart
div ision
_ch ords
Ġparticip ates
Ġgard ens
Ġfail ing
ĠEnum eration
Ġwiz ard
Ġinher itance
: b
P AB
c ong
quad r
Ġus eful
______ .
Product Space
ĠVal ent
ï¿ ¢
S ampling
ĠB ert
_m ade
_t oday
Ġsimp ly
Ġinc ircles
ĠV anya
enti ation
Co mplete
Ġinst alled
wide tilde
Ġdeta ils
Ġholid ays
Ġcul ti
_expect ation
l ined
ĠB x
ri et
oin ing
_s am
ĠD G
ĠH ong
over y
Ġre venues
ĠG abri
ket ball
ĠY oongi
ick ers
omin oes
bur g
Ġwra p
ĠValid Move
Ġdoc ument
-inter cepts
ĠS uch
Ġv ans
ĠI tal
}\ |^
ĠH ex
Ġ" +
Ġgo ose
ĠIs Comp
sc ar
Ġtrac es
Ġprefer ences
grad ed
ĠOlymp ics
c lips
Ġc ogs
Ġk Wh
Ġli ps
Ġgu ilty
})^{ \
Ġconven ience
_alb ums
ĠSepar ate
Inner ProductSpace
ad ec
Ġst orks
ĠQ RS
ĠÏī x
-----| Ċ
ĠKn owing
Ġp y
ĠA ust
ĠM onica
_p urple
Ġg s
ĠE UR
_b race
Ġam usement
** .
ĠÂ¬ (-
ĠÂ¬( Â¬
Ġbr ush
Ġhyd roxide
Ġï¼ī ĊĊ
Rel ation
( AB
- eyed
on ent
ĠS traight
Ġ/- $\
_h al
_th ousand
\{ -
(m n
Ġassoci ates
Di amond
_move ment
R ec
ol ated
ĠS ean
Ġproper ly
_e pis
{C F
app roximately
Ġgr an
âī¤ x
unn ies
Ġcast le
R atio
Ġsh amp
ĠIn tersect
ĠJ ustin
ival ent
ĠCar a
/s econd
pper s
Ġdais y
_pres ent
ĠConc lusions
' E
O X
\ dots
o ct
s er
Ġt orn
_s unday
Ġval ve
il lie
ud s
Ġthere by
ric a
\), Ċ
Ġcol ony
Ġcl own
Ġcorrect ness
Ġob stac
ĠâĬ ķ
Ġsod ium
Ġsen se
_rect angles
_ QR
th ursday
Ġf ort
Ġf ir
Ġ$\ ,
_c artesian
_re placement
not es
iss ions
ĠBD E
Ġprov ince
Ġkey chain
Ġprogram s
Ġintroduc ed
Ġmel ted
Ġperc entile
| -\
op lanar
ĠT D
_c ow
Ġinteg rals
_le mma
+x z
_ch anges
ĠCont inue
Ġce il
'''' '
Cor ollary
/ L
m ike
Ġb amboo
Ġh cd
Ġt ed
_p et
Ġ$\ #
ist ration
_l abel
Ġ\\ čĊ
Ġ" \\(
Ġhy per
Ġqu it
_to y
Â· b
Ġexpl an
Ġsl abs
Ġclean er
duc ation
Ġta ught
}ï¼ľ \
allow een
! $.
% )
+ abc
X ia
b i
Ġv o
_m edium
Ġ(- (-
_f riday
Ġdiffer ing
Ġ____ ____.
_inv est
{th ree
b efore
ĠR un
_v an
ĠLe wis
Ġoffic ial
Ġbir ch
" :
/ C
= P
Ġm ine
un ji
Ġpr ints
Ġthere after
Ġcomp ress
Ġvide os
ref lect
Ġvacu um
_tu lips
F H
S ymmetry
m ill
Ġh enry
ator ial
de p
ism s
Ġcollection s
Ġresid uals
Ġtris ect
_she ep
Ġreb ate
- the
F actors
e ties
Ġw ax
Ġsh ook
ĠV ariable
ĠUn cle
_small er
|/ |
reci ation
/ g
_ english
{ l
ri anna
ab ly
ĠH alloween
_l ocal
Ġfollow ers
ĠQ C
Ġen h
_function al
Ġorgan ize
ĠSc ore
Ġlollip op
Ġassem bled
x e
ĠB el
ĠJ ulie
_ro ad
lim b
Ġfra mes
Rational ize
sal ary
, _
f ood
} âī¥
ĠC ell
ĠWh y
pend s
com mon
_ver tical
{M A
- geometric
s mul
w art
Ġp ull
_p ics
_p encil
{R S
Ġequi angular
Ġps ych
Ġd arts
Ġhc on
Ġent ertainment
Ġenro ll
ĠScient ist
I C
Ġb age
Ġn urses
Ġy i
_s at
Ġcent ury
Ġaddition s
Ġsubst ance
Ġsing ing
Ġfed eral
Ġtool s
Ġtrump et
Ġcollective ly
. all
a ven
o up
| ,Ċ
Ġtri via
ĠAB O
)\ \
Ġimp roper
Ġseq Term
ov ies
Ġpost age
Ġjohn s
Ġdele ting
Ġpul led
O Y
n ice
p oration
ĠB eat
_p entagon
Ġco ck
_f lip
_b uses
ĠK rist
Ġregular ly
-s lope
Ġ\_\_\_\_\_\_ ,
Ġen thusi
Ġdeterm ination
Ġcamp ing
g g
p ens
er osene
ĠT odd
Ġass ess
_def ective
_pri ze
< m
Q T
c b
ar el
Ġr C
ic ole
tic ing
Ġve c
Ġperpendicular ly
ĠY ellow
_pl ace
Ġpack aging
.c olor
_sur vey
ĠMo ving
Ġpir ates
-qu arter
ĠFr anc
Ġhous ing
S he
s te
s chool
Ġc i
Ġy max
Ġgra vitational
})$ $
Ġorthoc enters
Ġkee per
ĠLength s
_bas kets
ongru ence
- indexed
ol en
_p rices
_s emicircle
ĠD yn
Ġlit ter
ĠRepres ent
, Z
s f
Ġs an
ry n
Ġun limited
}+ ...+\
ĠĠĠĠĠĠĠĠĠĠĠĠĠĠĠĠ ĠĠĠĠĠĠĠĠĠĠĠĠĠĠĠĠĠĠĠĠĠ
Ġtang er
Ġ\\( {{
Ġshamp oo
) ÃĹ
- E
- month
> =
\ operatorname
Ð ŀ
_c at
Ġsh ed
ost ers
ĠJ i
hb ack
Ġlaw y
Ġsent ences
Ġaff ord
Ġprom ote
/ ÏĢ
\ varphi
t x
Ġ= ![![
Ġg iant
_s y
Ġte en
,\ \Ċ
ln x
ĠRe asoning
_j ohn
Ġrhombus es
Ġgl ued
Ġunc ertain
Ġdwar ves
. three
_ ice
e ast
j ected
Ċ ĠĠĠĠĠĠĠĠĊ
ed ro
Ġbe th
we ights
_b d
eterm inate
Ġrec ording
ĠEF G
Ġsurv ival
Ġhairc ut
Ġeccentric ities
* L
Ġ$ )$.Ċ
le ge
Ġx áµ¢
ĠB AE
ĠC entroid
_c ity
sin Î¸
AB P
}}\ ),
Ġbor rows
Ġencl os
Ġbed rooms
Ġaccess ories
R P
_ open
o ard
ĠA uxiliary
ĠT ex
re ads
os ter
ĠP ol
ĠE A
Ġrec ycled
_inter cepts
Ġtemp s
Ġmiss es
Ġmix es
Ġspeak s
âĬ Ļ
radi i
Ġexhib ition
O R
_ ent
s ugar
y ze
| \).
ol m
ll og
_f ast
ĠQ i
_x yz
hel sea
Ġsec ured
ĠEd ge
_hyp otenuse
Ġdemonst rate
' âŁ©Ċ
c ars
h I
w rong
Ġ\ Ċ
Ġto ilet
as te
ge l
ist ent
Ġtra p
-d ollars
_ind uction
Ġgerm inated
_kn own
Ġscar f
' ve
) c
Ð ²
ad emy
Ġk itten
)) }
Ġper ms
âĪ «
Ġqu een
Ġamount ed
to od
Ġgener ating
Ġoper ates
Ġca uses
fact ors
_tang ents
ĠRuss ia
Ġport ra
Ġacad emic
M T
S ince
j ay
Ġc rows
id end
iti ves
_f air
fl ower
Ġac cepted
crib ing
Ġhand ed
], (
_red uced
step s
Ġprac tices
Ġspot ted
represent ed
choc olate
_ enc
Ġa ster
ar ti
ĠB orya
Ġy arn
ĠC alc
Ġte lling
Ġele ctive
+c x
_sp ots
,g rey
' |
W ork
p ower
u ying
| \)
Ġb on
al ice
Ġp ins
ĠC ustom
Ġtra vers
Ġcor related
lin s
Ġad m
_ex change
Ġbro ccoli
Ġsch olarship
Ġpers pective
Ġgradu ates
Ġast ron
, T
j amin
Ġis In
ĠB ud
Ġl ighth
ĠH ad
ĠG amma
}) }{\
sh irts
ann ually
ï¼Į +\
Ġfarm ers
Ġadv ant
_ser vings
Ġfire works
ĠRec urrence
_wind ow
Ġshuff led
Ġhon est
Es timate
( abs
, $Ċ
< u
^ e
c or
Ġ Operation
Ġs are
ĠC omm
Ġst ages
tit ution
ĠCon verse
Ġgener ally
Ġmem ory
Ġequival ences
)); [/
Ġfle as
Ġ+âĪŀ )Ċ
Ġovert ake
= $"
F actorial
R Q
d ue
Ġ ign
Ġside walk
atur days
ĠK el
_h ouses
Ġob jective
aff e
ux ury
Ġunf air
- annually
Ġm ort
ĠN um
he ls
_m uff
_cub ed
+ âĢ¦+
, CA
a ired
f a
p acks
} },\
om inal
sin Î±
ero us
ĠCar ter
ĠEqu iv
down stream
Ġgiraff es
* Î³
/ l
= intersection
ri val
Wh o
Ġgener ation
_abs ent
ĠDiv iding
Ġsupp lier
ĠAd jacent
Ġepis ode
_doll s
M ean
h geom
Ġh dist
Ġis Prime
og on
_m ost
_per c
ha ired
); }Ċ
-s ymbol
Ġpaper clips
Ġsubstit uted
_ver ify
Un ion
( point
] ^
Ġn i
Ġex c
+b d
ĠExpress ion
_th rowers
=f ontsize
/s peed
{F riday
yd ney
Ġfetch ed
_passeng ers
_proposition s
{ Thursday
Ġ )$,
Ġp ud
ric ia
Ġcol s
}} }=
_at t
ĠDec reasing
_trip les
_cook ie
Ġrib bons
_let ter
) ",(
+ g
F rank
P at
Ġ( .
Ġm ind
Ġ{ |
Ġbu mper
Ġoutf it
Den ote
? \]Ċ
C ol
Ġp ads
$. "
ĠD aisy
_f igures
Ġver ifies
iqu es
ĠCar olyn
Ġfa uc
âĪ¥ </
crip tions
"> âĪ¥</
_extre me
] a
f ull
h j
v as
} k
Ġm ats
ĠT uesdays
se ll
Ġany thing
wh o
Ġvari ation
Ġcarn ival
Ġpati ent
Ġbelie ve
Ġchamele ons
Ġwebs ite
% ),
in for
_n uts
_s leep
Ġwe eds
all ows
ĠJ ennifer
Ġup coming
âĦ ĵ
Ġass er
Ġgrand parents
Ġsun glasses
ceed ing
Perfect Square
f initely
Ġe p
ub s
Ġj osh
up stream
ĠV illage
Ġdisc rete
Ġtrans ition
ĠIs Quadratic
An n
ĠCar rie
Pro b
-g raders
Ġestim ates
ĠPr ofess
Factor ization
_list en
Ġheavi est
op ean
ĠT yler
Ġto ads
$. čĊ
}+ (-
eterm ined
ĠG erm
âĢĸ )Ċ
.un ique
}\\) ĊĊ
_period s
_sal t
omp son
Ġ", (
_pre f
Ġkay aks
. deriv
A bout
h ne
Ġâ ĺħ
Ġp D
_p ush
ĠE ddy
Ġne phew
_g rad
Ġqu izzes
.$ $-/
Ġpig eons
Ġconver gent
Ġdepart ments
_sw ap
Ġlift ing
Ġtur ban
Ġalmond s
_sandw iches
Ġrasp berries
Ġchees ec
Q A
b ad
d etails
Ġf ant
il ton
.t ake
Ġbal ances
Ġobser ving
{D A
mean ing
Ġlabels calefactor
ĠTri vial
p aper
Ġb ubble
Ġbo dies
Ġsm oking
Ġbis ecting
Ġmed ication
ĠAr n
Ġdele te
Ġacqu ainted
daugh ters
Ġtrous ers
$ âĢĿ
- prime
Ġb unch
ĠT echn
_p ennies
ord ers
ĠCon st
urs ion
Ġimp act
Ġgu ide
_al ice
_vis it
Ġdam age
ĠHyd rogen
# print
C onsecutive
es ha
op posite
Ġma sc
Ġsh ipped
od ing
fl our
ĠIn put
Ġinter iors
ĠâĢ Ŀ
Ġwork day
_v ide
Ġbig gest
g l
Ġb id
Ġb ales
alc olm
ĠÂ· )
Ġfl or
_hour ly
Ġmat t
_week end
Ġoptim ally
Ġformal izes
_tra jectory
pq r
Î ©
Ġt ag
ĠR ub
Ġr A
li kes
ist ence
ĠRe achable
Ġatt acks
Ġ(Â¬ âĪĥ
_bis ect
Ġful fill
amer on
_tr ucks
Dan iel
s ufficient
Ġc red
re mo
ly a
Ġz ucch
Ġab stract
Ġtrapezoid al
Ġpet als
Ġfail ure
rev or
Ġtric ycles
Ġtiss ues
Ġsparrow s
Ġamp litude
- clockwise
> :
J enny
W ays
p Tick
er oll
Ġr ap
ĠB T
ĠH E
Ġro y
}+ (\
Ġrem embers
Ġdeterm ining
mer ged
St udent
oub ling
_che ese
Ġpengu ins
_deb t
$ čĊ
_ ke
{ ac
Ġy min
ir g
Ġco al
ffer ences
-d ays
{B P
Ġdon ations
Ġmush room
Ġstip ulated
_anal ysis
N ancy
_ key
b reak
in ates
ri a
Ġj ordan
Ġro le
Ġqu ite
âĳ ¥
_e vent
ames h
ĠPar ametric
ĠDraw ing
Ġhos tel
Ġdepi cted
p ayment
ĠC R
_s eat
_s orted
âģ ¹
Ġfin ancial
Ġmay or
ov a
Ġsing les
ĠIntern ational
* ÏĢ
R ob
a ire
c ue
m art
m ets
p age
Ġc ultural
ti a
âĤ ļ
ĠA PQ
Ġen emy
Ġnecess ity
ĠMay a
Ġrele vant
ĠIV T
.di fferentiable
_chick en
Ġupd ated
$ <
' Q
, L
- isosceles
Ġh atched
ĠA ir
per iod
Ġg ad
Ġv irus
Ġinc line
_h at
_par k
{C E
_P B
Ġcro c
Ġsurround ing
_typ es
B e
H enry
R at
Ã ¼
Ġp ours
Ġn B
Ġun s
}} }$.
ole c
Ġprism s
pon se
Ġovert akes
Ġleop ards
ĠWeigh Result
. v
on a
Ġp ub
ti ed
Ġf g
Ġd elta
^{ +
Ġtechn iques
Ġwa its
Ġlifes pan
Ġkop ecks
B T
\ |
Ġs ti
ĠR ange
Ġcon cluded
_g erm
_div idend
other wise
ĠAnd rea
Ġfold er
,âĪŀ ),
Ġalphab etical
Pr ofit
Ġhomoth ety
( {{
\ {(
d uction
Ġâ Ĺ
Ġp oor
ĠT ax
ĠM ap
_w ire
ach in
Ġus er
Ġus ers
_b inary
tit udes
Ġshe ll
ĠâĢ ĭ
Ġrel ating
Ġsal ty
out er
}}= -
ĠFollow ing
B illy
Y es
Ġthe me
Ġp ap
Ġro bert
}} )$ĊĊ
isc o
ĠSt ation
Ġph il
{m edian
ednes days
Ar rangement
Ġpress es
{T uesday
Ġsleep ing
Ġcarri ages
n el
t uple
v t
{ all
Ġw ires
_s on
_s enior
Ġch ief
Ġform er
Ġdec imeters
_con tain
Ġgard ener
_fl oors
Ġsk ipping
den oted
raf ts
+ cos
W X
} ;Ċ
in tersect
um bo
_s ess
}\ \\
ĠV en
_h orizontal
,\ ;
)} .Ċ
Ġpartic les
_sh ares
Ġra ft
rel ative
Ġmarket ing
Ġworm s
Ġbounc y
B Y
| .Ċ
ĠB uy
Ġto dd
Ġun bounded
to Finset
Ġhand sh
_par tial
ĠCar bon
Ġlea f
Per iodic
Ġhist orical
_cl osed
Ġluc as
Ġdormit ory
- haired
H int
T ax
Ġb erry
Ġs ulf
ĠR alph
Ġis Good
ic o
_m other
_g um
Ġneg l
_mod Eq
jac ency
_out er
Ġecon omic
aby tes
\ {{
m os
Ġa âĤĺ
Ġd irt
ĠM ust
un ny
Ġper im
Ġangle E
Ġcoun ters
exp ected
(A rc
Ġlist en
- out
Î ·
Ð ķ
Ġe Ë£
Ġk ings
alc ony
_t ennis
ph anie
}) }
Ġser vant
ĠâĮĬ âĪļ
Ġiter ation
ĠKar l
Ġdry er
_cor rection
_har vest
. X
= q
Ð ´
ati t
st one
Ġst ruct
erm ost
Ġbuy er
Ġemp tied
Ġyield ing
Ġstay ing
Ġtur key
dep th
- integer
/ X
] good
_ view
_ annual
Ġh anging
Ġha mm
equ ilateral
Ġ/- $(
ĠD D
ak sh
Ġ\\ \
ĠSam uel
Ġrele ases
\\)_ \\(
Ġbrid ges
b ie
Ġ$ =
Ġh max
et ries
ĠA ustin
ĠM i
âĪ §
Ġj u
Ġgroup ing
\\) -
Ġ\_\_\_\_\_ \_\_
)\) .ĊĊ
Ġ_âŁ© ,
ĠReg ion
Ġmultiplic ations
inv estment
{W ednesday
Ġchall eng
_cour ses
Ġicos ahedron
Ġlips tick
P alindrome
Ġp un
}$ =(
ur jective
ic ycle
ĠW inter
Ġvie wers
Ġallig ators
. W
L E
| .
ĠR ock
ĠT aylor
Ġg x
Ġk erosene
ll ll
Ġti ll
Ġless er
ls on
_ex terior
ĠSt acy
Ġsupport ing
Ġsatel lite
S ara
a âĤĸ
h BD
j ames
Ġth rees
Ġin puts
Ġ$( $
_f ri
ĠCo upon
_speed s
_par ents
Ġtyp ical
Ġidenti fied
ĠSh aron
Ġsk irts
Ġveget arian
Ġunders tood
_conver gence
+ E
ĠM Q
ra ig
Ġun occupied
}^{ (
Ġgra f
Ġ$| {\
_A P
Ġsk ating
ĠLe ague
.to List
Ġmaintain ed
Ġcry pt
- ABCD
/ tan
P ower
s hip
Ġh o
Ġin version
ĠM ale
ĠC am
_s uff
_c ongruence
Ġst ood
ĠO E
=\ \{
âĪļ x
\] čĊ
tern ating
Ġfold ers
ĠContinuous At
Ġpress ed
_lo an
ĠAc ademy
E stablish
} }=(
Ġh L
Ġh ose
ĠF low
Ġch inese
ĠO PQ
atis tics
ĠJ en
iff any
_e ighteen
Ġmil lim
Ġread ers
Ġworks he
}|= |
Ġgrand children
Re ad
ĠShift ing
Rem ark
_sandw ich
. derivative
P erm
Ġh iring
Ġm or
Ġn est
ist r
ĠH an
Ġsqu at
Ġun ordered
ĠQ uestion
Ġ) __
Ġgr inder
}=$ ______
_ti le
Ġprin ting
_note books
B AD
h W
Ġs ized
Ġp b
ĠS ize
}$ $.Ċ
_d rop
_m achine
_l b
oc ity
log b
ĠG eneral
_sub jects
.m ax
-------- --
\text rm
Ġorgan iz
ĠInd icate
Ġdest roy
_cho ice
Ġtrinomial s
Ġslee ps
[ X
| m
ĠA p
ent re
ĠS R
_s outh
Ġun less
_a ux
ĠG ina
_o x
_sur v
Ġguess ed
}^+ $,
Ġpredi ct
_permut ations
Ġconvers ation
( $\
- lo
- bound
H ar
_ vel
et t
ĠB elow
Ġor phan
_t reas
ĠQ B
Ġdef icit
oy ce
Ġrational ize
di ag
ject ure
( origin
, AC
c ape
m oney
Ġp ascal
Ġd anny
ĠF ixed
{( {{
_m ay
il o
_eq n
/( âĪļ
Ġel d
Â° F
ï¼ ļ
Ġca use
Ġown ed
_pi les
_loss es
}ÃĹ \
ĠOlymp ic
Chr is
) ÏĢ
S I
g ram
ĠT ank
el t
)$. <
})$ ;Ċ
Two Digit
ĠPQ S
Ġaltern ates
ĠPerson Type
Ġprac ticing
_ ends
a a
l av
Ġg ates
Ġpl ough
ag le
Ġcomp eting
Ġ_____ .-/
_custom er
Ġrespond ed
Ġcarri age
/ V
Ð ĺ
ĠR oy
ve ctor
re ate
as ers
ang oes
Ġk o
Ġfl ood
res ult
ĠSt ructure
ĠVer tices
Ġvis ual
Three Digit
symm etric
Ġpred icate
âĪª B
Un der
d m
Ġc lips
Ġv amp
ot ing
Ġwe ed
lin etype
Ġboard ers
Ġminimal ity
Ġham sters
_rid e
Ġlas er
Ġconfir ming
. arg
S B
us ion
ab ili
Ġco aches
Ġas sets
od ge
ĠĠĠĠĠĠĠĠĠĠĠĠĠĠĠĠ ĠĠĠĠĠĠĠĠĠĠĠĠĠĠĠĠĠĠĠĠĠĠ
Ġexceed ed
Ġann a
ĠHer on
ĠLi ang
Ġste ven
group s
-le vel
Ġcapt ures
ĠâĢĭ âĢĭ
S egment
_ rac
g u
re tion
Ġcon ical
ĠE ducation
Ġch ances
Ġrate B
Ġmat ters
Ġsay ing
ĠDes cribe
Ġry egrass
) aâĤĻ
A EF
A my
_ life
ro lled
re venue
te in
Ġex ha
_w est
_d ress
}, +âĪŀ
ĠG F
_g eneral
}| =$
_ch ar
Ġ\_\_\_\_\_\_ \
Ġassign s
Ġsupermar kets
aro os
_gra pe
_hal ves
Ġp ony
es tion
ac ute
Ġis C
ĠTh ompson
}| $.-/
part ment
Ġgl uten
_lo aves
Ġhun ter
Ġexperi enced
N C
_ el
x áµ¢
id y
Ġcan tal
Ġch ests
Ġinter pret
ĠJ ensen
_y es
ĠCh icago
Ġassem ble
Ġbol ts
+ .
- off
- real
= gray
J ake
\ oplus
Ġw edge
ĠM utually
om eters
_d inner
ĠL eg
_a v
Ġwill ing
lif ication
Ġoper ator
omes tic
Ġsec ure
Ġfil ms
}& {
Ġsouvenir s
O ur
_ eng
Ġh card
Ġt y
Ġw ears
ĠS ides
_c amp
_b ears
dots tyle
Ġcircum ferences
_j elly
-point ed
_asymp totes
_expon ent
A PB
g old
Ġh en
Ġt x
Ġin n
ĠB arry
ĠP enny
ĠL a
Ġgrid s
Ġab ility
Ġtax ed
], "$
ĠAll ison
Ġgu ine
di rect
Big r
Ġpopsic le
cook ies
infor cement
) _
P X
Ġb anks
end ers
ĠD orothy
_f rench
Ġ\\ (-\
_in st
_A l
-s c
amb ur
inc orrect
ann ed
|-------- ---|
Ġadj oining
Ġrevers es
Ġdeb ate
Ġmilli ons
_ race
w ins
Ġb es
_s ib
ĠP O
Ġo cean
Ġj ulia
Ġout door
ĠCh ang
Ġbuy ers
Pro of
-e ight
_rear range
Ġque ens
ĠTex as
Ġguine a
or ough
Ġr ich
Ġw et
ĠB ecky
ul ls
_w inner
_s kew
ĠH y
Ġal ter
_in nings
Ġpa isa
_pl acement
áµ §
Ġleak ed
KL MN
Ġaver aging
l ot
t ops
Ġa k
Ġf inger
Ġdec affe
)\ }$,
Ġcount Ones
\\) .-/
)\) ĊĊ
Ġatt ention
Ġbr un
.mod eq
})\ \),
âĸ ³
Ġkindergart en
Ġdecaffe inated
, âĢ¦,
D G
K C
h min
i osis
s egment
is ks
ati ble
Ġbe verage
oc ad
}, {
off ees
Ġbat ting
Jan et
H H
Ġth er
Ġb omb
Ġ$ <
Ġt ina
ĠS of
Ġ/- "
Ġde vices
}}$ $Ċ
Ġsk y
aint ance
Ġill umin
( W
A lso
p op
{ There
Ġf ight
Ġw icket
ĠT erry
ĠM al
ec ti
}{ [
_c uts
)$ -
_d augh
_t etra
_f amilies
oc ial
Ġcons ervation
Ġsy n
Ġsymmetric ally
ĠAmer ica
ĠAc ute
ĠSer ge
_sci entific
atit ude
/ u
D istance
S ides
_ arccos
e z
s ister
Ġt ort
Ġw ore
st ones
AB M
Ġspeed ing
Ġam y
_g arden
Ġab undant
{B M
Ġlaw s
To Plane
{F G
Ġconsum er
_tra vel
-------|-------| -------|-------|
$ b
+ T
/ Î±
\ star
r w
s aturday
le tt
ĠF emale
ĠS tan
ĠS âĤĸ
ĠI m
_A M
to le
-s ize
ĠBo ard
_banan a
_bul bs
C G
c ons
Ġw ave
um n
Ġg eck
ĠC athy
Ġon ion
ad y
_s emi
Ġch rist
ĠV an
(" (
Ġfactor ies
_min imal
Ġrece ipts
Ġdistrib utor
Ġsales man
Ġfall en
ĠCauchy S
color ed
Big l
, I
. h
Ġ ig
Ġn ond
Ġcon vey
ĠP res
Ġpos ter
rom o
_r adii
cent ric
Ġtang ential
Ġcoun cil
to tic
Ġsw ord
.c ontinuous
Ġflow ing
-t en
posit es
Ġengine er
Ġcocon uts
_bur gers
ĠEvalu ates
G C
\ hspace
f ixed
} Ã·\
al ties
}$ :Ċ
ch ar
ĠD el
ass em
Ġdisc overs
>\ =
Ġcuc umber
Ġecon om
Ġlady bugs
Ġmac ar
+ ÏĨ
] ))
g as
as ible
_p igs
he el
Ġco ats
ĠD eriv
_f ence
air es
)$, ĊĊ
ick y
Ġvari eties
ĠCh ild
Ġamong st
_ear ning
] !)
Ġ urban
Ġa pril
Ġd rama
Ġto oth
In s
_re verse
ĠV ol
ian ca
Ġbet ty
Ġvi ol
Ġmanufact ure
Ġsing ers
ĠCoun ty
Ġpub lish
\ over
t est
v on
al ya
_p ink
ĠP re
ĠÎ ¦
Ġj asmine
ore tical
ĠQ M
Ġ\\( {
{R e
Ġsix ty
(f ontsize
_P R
Ġdifferentiable At
ĠEqu ations
_im age
.get Last
_meal s
fra me
Ġpood le
B ook
b ags
h ard
{ inf
Ġth ough
ĠA lt
Ġg ig
Ġk im
Ġor e
_g rams
_v s
Ġmod ern
\\) .Ċ
ĠDi ane
ĠComp uting
Ġcatch ing
_she et
, u
. height
g rowth
q r
s egments
v otes
Ġb unnies
ĠF armer
Ġel apsed
Ġsc outs
Ġmo thers
cap acity
hp A
Ġnormal ized
app ear
Ġtruth ful
ran ch
Ġdar tb
Ġvo uch
N ot
\ approx
z ers
}{ (\
_w ednesday
Ġco ef
Ġo ven
Ġout puts
Ġass ist
Ġcook ed
_C E
Ġlead ers
ĠPerpendicular ity
ĠRec ognize
pher es
_ded uction
Ġb rian
Ġs ending
ĠC BA
ok ers
ĠI J
_d ry
ĠH angzhou
_te a
_D C
Ġstrip ed
Ġband s
_config s
{ar ctg
_epis odes
= N
K B
\ rvert
g ies
h area
m ust
_s te
ic y
_c ash
ĠW ednesdays
eq n
rect angles
Ġconvex ity
$" Ċ
Ġtetra hedrons
subset neq
ĠJack ie
go ing
umb re
Ġlighth ouse
. last
< p
æ ķ
Ġr ival
ĠC y
Ġfinal s
Ġshow er
Ġwidth s
ĠâĬ Ļ
Ġdis in
-h ome
Ġflow chart
ĠBon nie
Ġcra bs
---|---| ---|---|
Ġcater pill
Ġhcon tra
| }\
Ġa i
Ġh ge
Ġf x
ed y
Ġmax well
ra z
ct ual
ĠW alking
_f x
+m x
Ġdiffic ulty
= |\
s uper
Ġc b
ĠS pecies
st andard
ach ing
ÂłÂłÂłÂł ÂłÂłÂł
Ġadjust ment
Ġmas k
requ ired
ĠJose ph
_but ter
$ y
Ġe c
Ġle o
he ads
ch lor
am bs
$\ $
Ġpur se
_comp ound
Ġche eta
âĬ Ĩ
Quadr ant
Ġutili ty
Ġcriter ia
Ġadvant age
s i
Ġ iv
_n orth
ven tion
_le ad
Ġcount Digit
'' )
âĮ Ī
Ġgrad ed
}\\) -/
âĬ Ĺ
Ġgym n
Ge ometric
* Q
= $Ċ
_ eating
t own
u itive
os ha
ĠF E
ĠS ample
om i
_of fic
Ġinc urred
Ġbl ind
elf th
Ġen l
{P S
âĪĪ \
kn ows
Ġtrail er
edium gray
( +
{ multip
ĠB á¶ľ
ĠC OD
ĠJ ones
ola i
)^{ -\
Ġref use
Ġrest ore
ograph ies
Ġ$\_\_\_\_\_\_ $.-/
Ġow e
Ġpretz els
{inf initely
$ p
) }+
. erase
s pring
al an
Ġc rab
ĠT oy
_s uper
ĠP X
ra h
dd ie
Ġtri ath
Ġbl end
_count ing
{O N
_ass ign
ĠAP C
Ġrais ing
IN T
Ġflo ating
* W
P P
\ }\\),
b en
r un
u ing
or i
Ġp ension
is Valid
ĠA melia
od s
ant a
Ġcom ics
_bo uqu
_ne eds
}_{ >
ris on
Ġfre ight
ĠUS A
Ġconduct ing
Ġyog a
Cont inuous
Ġchlor ine
L isa
U S
Ġh X
Ġ\ _{
eg gs
_p a
)^ \
ĠD K
Ġch alk
Ġti gers
text normal
_b ijective
Ġar ms
Ġintersection point
Ġded uctive
limin ary
_own ers
Ġdisin fect
. K
W ater
Ġp ork
Ġm ill
Ġm ittens
_f avorable
_r ates
oriz ed
Ġpet ya
Ġ___ .-/
_alb um
Ġeld est
e lim
ĠM abel
Ġl sf
Ġg ears
ĠC entral
ĠS kew
Ġwe aves
_f ront
}, $$
_in radius
_e thanol
Ġturn ips
Ġtac os
app y
Ġ\\) ĊĊ
ĠBo at
Ġcraw l
Ġspin ners
Ġflavor ing
) {Ċ
al gebra
Ġy axis
Ġun sold
Ġcomp ensation
ĠQ A
Ġpur pose
An al
}}\ \)
sp lit
Ġnormal ization
Ġhd vd
.t op
_pay ments
az a
Ġcame ls
ĠSc ott
ĠBe a
Tra pezoid
m b
Ġp t
Ġin tellig
_p ine
ĠC Y
_c lean
ĠW ays
Ġdist inguish
ĠL iz
Ġhex adec
ĠMultiply ing
Ġlabel ing
Config uration
Ġjers eys
_expon ential
| -------|
ti les
Ġr ush
ĠB ur
ĠM eg
Ġg er
Ġfour teen
Ġcub ical
pl ings
Ġbus y
Ġmath s
Ġtoss ing
Ġcubo ids
A S
D N
\ big
h ong
} ).$
Ġ( "
Ġr ural
Ġr yan
ĠT ig
Ġl ens
Ġg h
ĠF GH
_c s
ĠD Q
rom ino
_f und
,\ ,$
_i A
inc ess
}}\ ]
Ġcoeff s
_man agers
ĠEli zabeth
ĠMari e
llog ism
* .
V al
Ġb ass
Ġc ave
Ġg hee
ĠC ons
Ġint ended
Ġsa plings
Ġapp oint
In dependent
_le aves
_e ast
_e vents
_pl ate
Ġca uchy
unit circle
Ġdecomp osed
_comple ted
ĠâĪŀ )Ċ
Ġneighbo urs
F act
L inda
Ġp ist
ar ch
Ġto ast
Ġex circles
_d ir
Ġne utral
ip arti
Ġel igible
Ġtri pling
Ġdr ums
ĠAE C
Ġ&= &
Ġappear ance
Div isor
remo ved
T ony
\ vert
Ġn ative
Ġd ug
os hua
_n ec
Ġfor ces
_s izes
pro bability
ĠQ T
Ġpa il
ĠColor ed
Ġmist akes
Ġcas hew
Ġpoll ution
roph ysics
. red
å Ī
Ġ( ![![
Ġs ilk
Ġd b
ri er
ow ed
ĠS aturdays
Ġdi oxide
Ġany where
ĠĠĠĠĠĠĠĠĠĠĠĠĠĠĠĠ ĠĠĠĠĠĠĠĠĠĠĠĠĠĠĠĠĠĠĠĠĠĠĠ
ys ical
ĠPro jection
la im
áµ ĥ
Ġenc ry
Ġbar b
ĠGe org
_dis like
Ġencount ered
ĠTri angles
_straw berries
iparti te
+ Î±
J eff
f rown
o vich
Ġs ue
ar p
ĠS emi
ĠH orse
ĠâŁ¨ -
Ġkm h
ĠAfter wards
Ġrep aired
_j an
Ġcombin atorial
.re p
ĠUn certain
_mem ber
Ġwra ppers
itor ium
factor y
Ġconson ant
ĠCars on
: (
; ++
_ XY
j im
w alking
st rict
Ġval u
Ġj in
_neg ation
Ġdes cent
Ġdog wood
rep eating
Ġrenov ation
Ġtanger ines
E n
F ifteen
Ġc amps
Ġn ines
ĠS i
Ġk b
ĠH indi
alle y
Âł ĠÂł
Ġpe as
ĠIs C
Ġsubs cription
Ġsw ans
âĪĪ {
})= -
Ġol ives
.con tains
_sn ow
- aged
Q RS
n aires
Ġb orders
end an
ĠS ch
Ġj usti
_l ollip
Ġparticip ation
An ti
.c ot
Ġclos et
ĠMic helle
oup es
tole my
$ âĭ
: -/
_ tal
c ollinear
f riday
is et
Ġt read
ĠM er
ul li
Ġon wards
Ġv asya
_c r
ĠH ill
_m ovies
Ġwe b
Ġdec ade
Ġcont rac
triangle up
Ġins cribe
Ġfl ows
}}$ ;
sup set
mar ket
.\) -/
çĶ ²
/ log
M L
h cos
} O
ri ors
_p ol
ul s
ĠC T
Ġse v
Wh ere
Ġsub merged
_h r
pl aced
_st ones
trac k
-s ide
Ġrul ers
Ġrearrang ements
_ref lected
Ġgerm ination
she ets
-six th
Ġaccomp lish
- old
R ad
b ean
w n
in visible
ĠH am
)/ âĪļ(
Ġop lus
Ġdes cription
Ġdr ug
-th ousand
Ġrent ing
Ġlight est
_sa ved
.S urjective
ĠTV s
âĹĭ âĹĭ
Ġ(__ ).ĊĊ
D on
F raction
H C
H arry
er ate
ĠS andra
om orph
Ġst olen
am a
Ġspeed B
Ġop posites
ĠK enny
_mod el
.d ata
Ġra vi
Ġgrand son
big triangleup
And rew
Ġcool er
_whe el
ĠTicks Arrx
H G
b udget
s olution
is ector
Ġt endsto
us lim
ul ates
ot omy
Ġsin k
Ġgra zing
ĠCon jecture
_e lim
ĠAM N
Ġmatch ed
Ġpred iction
Ġstretch ed
har monic
irg inia
- F
J osh
_ und
a ign
n u
{ otherwise
li hood
Ġle ash
Ġz achary
am al
eta iled
mon ious
_e yes
})$ ;
Ġasymp totic
_comp l
_al ex
Ġfro zen
Ġbirth days
Ġconf ident
erc ise
_eg g
ĠTrans late
ourn al
_cor ners
ĠSoph ie
_push ups
< k
L ong
c ut
Ġa ux
ry s
Ġj essica
ĠJ ungkook
Ġsub grid
ĠNew ton
.N odup
Random ly
Ġellip ses
rish an
Ġsidel ength
Ġnegl igible
* labels
- ch
\ ,\
| }$.
Ġ( Â±
Ġk ho
Ġbe lla
Ġcan teen
_l ose
Ġ(âĪ «
_g rand
Ġkn ew
âĢ ¹
.p ush
Ġbring ing
Dec imal
Ax is
*labels calefactor
! }$
F red
H Q
ä º
th ane
Ġ( =
ĠR equ
Ġw ond
ĠA f
ĠM ountain
ĠH ours
dd en
Ġresult ed
Ġph en
_ac id
{F A
_ti ling
tri angles
------|------| ------|------|
Ġcry stal
ilit ary
.rep licate
D es
N M
R ing
\ circ
\ not
d imensional
v et
og dan
ach ines
Ġnorm s
Ġdi ve
ĠE ugene
ree k
_r fl
)( (
Ġ$(- âĪŀ,-
Ġalong side
sp ot
-k n
ĠLe ah
Ġhel ping
_hand s
col on
_ PQR
} ï¼ŀ
Ġb alcony
_c yl
Ġun able
Ġclass ic
ich i
Ġob vious
Ġpa ve
Ġ\] čĊ
áµ Ģ
Ġsk ill
ĠMar ket
Ġcoinc ident
Ġgrand ma
Ver ify
_sw im
Ġcin ema
ĠVin cent
von ne
) }}
N et
| {
ĠA z
ĠB oy
_c age
ĠD wen
Ġcirc us
_l arger
_f ifths
ili a
Ġneed ing
oth em
hd s
{M onday
_he ights
Ġ$\_\_\_\_\_ \_\_\_
Ġdra gons
_dr inks
oti ents
ĠBrit ish
- quality
r ise
Ġr at
Ġr isk
et ti
ĠM et
_d ough
AB F
Ġstat us
+y i
_j un
$" ;
Ġca used
Ġstraight forward
Ġcollinear ity
rew s
Ġlib r
_cut ting
sa fe
Ġfeat ures
Ġparake ets
= D
_ ago
Ð ¼
re ments
ĠC helsea
_w on
left rightarrow
all ons
}}{ |\
ĠU nd
Ġsp are
}) Ã·\
$? čĊčĊ
)\) ?
.\] ĊĊ
Ġ\\(\ \{
Ġsuper visor
ĠSc ores
Ġdipl om
Ġopin ion
, white
- Q
V olume
e or
Ġb an
Ġn abla
ĠB ryan
_c orn
_f a
Ġsp ades
ari us
_j ob
Ġunivers ities
Ġeleven th
Ġstruct ures
. neg
. Red
p ect
u a
Ġ ticks
Ġh ollow
Ġj ay
_f ro
fl owers
ĠG erald
_div s
Â° ),
Ġad option
)+ (-
Ġref ill
{O Q
Ġspeak ing
Ġcab inet
Ġdesign ated
Ġgrasshopper s
Ġsoft ware
Ġchlor ide
Ġeman ating
_sy rup
G rid
Ġd anced
Ġâī ¢
Ġpar ked
_t oss
bab le
Ġrec ess
ĠWhen ever
Ġalgebraic ally
Ġhi ked
Ġnormal ize
_ar ctan
Ġsk i
Ġsl ots
ĠAr row
Ġbrown ie
ĠChar acter
Car l
olec ular
D ata
V iew
] ;Ċ
Ġh alls
ig id
ĠM andy
Ġl atitude
as i
Ġ[ ]
ine e
_to uch
_equ idistant
Ġref ere
ĠCase y
ures h
_comp etition
Ġche w
_go ats
_ele m
ji ang
Sh ift
. pt
P UT
S n
m g
Ġm ol
ĠB ottom
_s aturday
ĠE llen
Ġj uli
Ġlin ks
Ġlong it
Ġ-( (-
_sol s
Div isible
Ge orge
Ġmillim eters
Ġenl arged
E Q
Y W
Ġl uxury
ad poles
_c overed
_m et
Ġ(( (-
____ ____
\[ (\
ĠK C
tan y
}) }^
_A F
Ġexce ption
Ġgeneral ity
_j ars
Consider ing
ĠExp o
.re verse
Ġleg al
Ġcamp aign
ĠLast ly
Ġpolic eman
ĠNeg ative
Ġ"+ "
+ l
- type
c ity
it als
Ġdown load
Ġexerc ises
Ġjo an
Ġiss ued
Ġconven tion
-ex clusion
/ F
b ank
r as
Ġâ ¨
Ġh BC
ĠL arge
ond on
Ġnon constant
vers al
av ig
Ġhi pp
Ġlib eral
Ġwash es
}\\ Ċ
ĠNa Cl
Ġaud itorium
Ġshar pen
Ġcra ft
Ġchromos omes
- white
\ lvert
c u
p ost
| $?
Ġh ind
Ġt una
ĠR P
eal s
ĠF AB
}$ $\
equ ivalent
Ġre bound
_b ad
_re pair
pos sible
Ġrate A
_e ur
Ġdis j
aw s
Ġhr s
}\\) :
ĠIsG ood
ius hao
âĬ¥ \
Ġsail ors
Ġinstr uments
gra pe
ĠDeriv ative
ĠAlt ogether
) p
. white
T rip
a us
ĠW XYZ
se lected
ĠL N
Ġro osters
=\ \
Ġdis p
_even ing
Ġhappen ed
Ġtub es
Ġder ang
$ n
A Z
H D
h roots
{ an
{ mean
Ġh Î²
ĠM O
pos ed
ĠY una
par a
})$ $,
Ġhm n
.n orm
Ġhum ans
.di rection
atin um
{mod e
= origin
U p
_ Ïĥ
Ġin struct
rac ket
id emic
_t ue
od ed
Ġher d
Ġqu ilt
Ġcateg orical
Ġprec ision
Ġrepe titions
Ġque ue
L inear
\ forall
s y
Ġf ingers
Ġt ent
li d
}) ÃĹ
Ġcircum cent
-s elf
_mar ket
_li ke
Ġguaran tees
_ph ase
Ġcraw ling
inet een
$ ^
( extend
= invisible
Ġ( --
Ġd ock
Ġtotal Area
ĠD awn
Ġal g
Ġmed ia
yl an
hy d
ash ion
_cont ent
_ve g
Ġprepar ation
Ġpan els
Ġsculpt ures
Ġpal ace
s phere
Ġ ul
al ex
le ak
Ġw asted
ig in
ĠT B
_n ails
=\ {\
ket ch
res ults
_th u
_B AD
ils on
Ġdomain s
ĠVer a
Ġ"$ |
sc ape
_tra ys
yd ia
Ġjudg ment
ĠJun ior
S igma
e pendent
Ġ: -/
Ġh neq
Ġc rafts
ĠM aterial
Ġl inda
ok s
ĠP olygon
)) )/(
ĠD O
ag ger
). \]Ċ
Ġ. }{
Ġ} _{
$( $
pl ants
ĠDi ego
con tains
=$______ ,
Am ount
uer ite
ĠDyn asty
R ot
Ð ļ
ĠR oman
ĠT ian
ĠS ydney
Ġk ick
)) \
ĠE Q
_m any
_m ixed
_f ra
Ġpr ison
}} }\
Ġrec ruit
_th ursday
ĠCh ord
Ġstr ateg
ĠAll an
Ġatt ends
ĠWith in
Ġpine apples
.min Fac
H alf
K im
ĠM L
ĠF eli
_c rates
_d eck
âĪ ¨
ili o
ĠSt ar
ĠÏ Ī
$",( .
Ġ}{ -
ĠSp ace
Pl ayer
(ÏĢ x
Ġindex ed
âĪ¥ \
Ġsurv ive
ĠHar old
_cart ons
ĠSus ie
Ġfundra iser
! ,
- income
F ield
e i
t ree
ĠP ath
ĠQ P
_con tainer
Ġtan ya
]$ ;Ċ
Ġen um
sp ent
ĠBE D
Ġadmin istr
Ġrecomm ended
+ F
, CD
N atural
c and
x right
Ġp and
Ġx right
Ġd olph
ĠA da
qu ared
eg rid
ĠM other
_p an
ul um
_s hip
Let ter
ap y
uc tible
_re ach
ys tep
-s econd
Ġsign als
_se ason
Ġown ers
_seven th
_N a
Ġpost cards
{I m
Ġassoci ation
_ph one
"> $
win ning
Ġguit ars
Ġhcont r
. at
= {(
L aura
^ N
t ry
Ġp unch
ĠR a
ind ed
Ġconcent rated
Ġtour ism
Ġorch id
ĠDra gon
A li
B alls
a zz
j o
or as
Ġi Ph
ĠC urve
Ġint uitive
ch otomy
Ġat om
ĠE agles
_t rack
Ġadd ress
olve d
par tition
co mplex
ia h
_def ect
}^* $).
ern ary
_ti res
Ġprofess ional
_strict ly
Sc enario
E M
U B
Z eros
c ing
j eong
l ost
Ġm ig
ĠR avi
ĠA th
ol k
ĠT ower
Ġl av
)) )/
ĠCo ordinate
Ġthird s
_ne ighbor
Ġbre eding
_inc rement
_at temp
Ġfin ance
Ġunivers e
Ġimprove ment
$ P
% -/
( Label
N A
Q uestion
p ants
} PF
ar et
Ġm olly
Ġt ony
ĠC om
ĠW ar
Ġgre g
Ġdef ines
_y esterday
Ġsitu ations
Ġmotor ists
Ġcarp enter
_rent al
Ġpic ket
Ġcelebr ation
Te am
- T
/ D
S imp
T ake
l ucky
Ġd omestic
Ġj ade
Ġmin t
). \]-/
art in
(( .
_ro se
_par ticipants
_pi ctures
Ġchar ts
_mar ked
Ġpresent ed
_identi fication
Ġindust ry
aksh i
m iss
Ġc rop
Ġc ensus
Ġg erman
Ġk elly
Ġint ake
Ġval ves
our ces
Ġwe aving
Ġhy brid
Th irty
Ġte ac
Ġge o
Ġsold ier
Ġsee ing
ĠHar riet
Ġqual ify
Ġmotorc yclist
) }=\
+ Q
, light
/ M
c onsider
Ġ$ *
Ġh orner
Ġha y
ri ps
se ed
ĠL ena
ĠO scar
ili ar
_k night
_sh ared
Ġsuccess es
Ġtu lip
Ġlay out
Ġcance ling
Ġindef inite
ĠstrictMono On
Ġpour ing
Ġoccas ion
Ġep idemic
- value
. point
\ !
b n
Ġn ominal
Ġd ash
ĠN C
Ġl ots
Ġwh ale
ĠD ouble
Ġcan vas
.pi le
Ġar en
lic ious
Ġmed al
Ġspe ll
Ġinfl ation
ĠProd uction
Ġeigen value
æ ľ
or anges
ĠT able
ĠB uilding
ĠC orrect
Ġk atie
ĠD a
ĠU ses
Ġsub graph
Ġdisc retion
Ġpain ters
(b x
ĠOr th
ivers ary
Ġsk ates
Cl osed
Ġaff ected
Ġjan et
_tom atoes
ĠRef lection
.z ip
) ln
/ BC
b acks
Ġm u
Ġr eroll
Ġto gg
ĠP edro
_c laim
Ġinc ident
Ġar ti
ĠCon tainer
Ġcar la
{y z
hy ung
Ġdeal ing
Ġspaces hip
Ġsafe ly
ĠWal ter
k o
r ink
s unday
Î ĵ
Ġc rops
ĠB aker
Ġst o
ven ess
čĊ č
Ġtop s
_pre m
Ġess ential
ĠEur opean
Ġmilksh ake
Ġhyperb olas
Ġdisinfect ant
m inal
} -/
Ġ ĊĊĊ
Ġ ï¬ģ
Ġn ation
as per
ĠD igit
Ġwe ak
ose ok
pend ing
}| +
})$ ;<
ĠMar tian
Ġ$\_\_\_\_\_ \_\_
ĠGr ant
bec ause
ww w
Ġsund ae
Ġappli ance
Ġkang aroos
$ );
( ln
+ ÏĢ
h rec
Ġb illi
Ġp it
ad j
Ġk enn
ĠE M
_f ound
ric ts
ĠG ar
rid e
_D F
Ġhel mets
Ġjun k
Ġdiscuss ion
free ze
_cri tical
_rab bits
' d
* V
. black
. roots
F inal
F aces
s tick
Ġw log
ĠT akes
li ers
Ġ\) **Ċ
cos h
Ġcomp art
Ġtri bes
ĠJ asmine
ĠY esterday
.f our
BD C
}\}$ ;<
ĠMid points
Ġshr imp
arel al
* F
O S
T H
Z Y
] +\
] size
Ġ Ñ
Ġe uler
ĠM E
Ġun used
Ġun ripe
cos Î±
ys on
Ġins ulation
ls a
_th rows
ĠDef ines
ĠLe Roy
Ġdomin os
ĠDisc ount
Ġiter ative
illi an
Ġdeduct ing
Ġdeleg ates
Ġconstr ucts
alindrom ic
s ix
Ġh annah
ĠR h
Ġr b
Ġto othp
ri age
ĠF ox
ĠP attern
ab bit
ĠE aster
_m aterial
_f ather
Ġ_ ))Ċ
Ġnon real
ĠG er
Ġsp y
Ġref l
Ġnick y
ĠAlex ander
Ġindex ing
Ġgradu ate
Ġbrac kets
Ġpopsic les
Ġze bras
ä¹ Ļ
Has DerivAt
ĠPos itivity
ĠMap le
eqn array
X C
] {{
w inner
ĠM ac
Ġl l
_l ater
Ġdig ging
ish ul
Ġmar tha
}| ^{
Ġclos ing
-e ighth
Ġfree ly
ĠCor responding
Ġdecor ative
Ġpeb ble
}=\_\_\_\_\_\_ .$
tw ice
N ew
h Ïī
s oda
ar oo
Ġx left
ac tive
)) +
ect ar
inc y
_dec ks
_ar rival
rick eter
.n ormal
Ġlat ter
Ġuniform s
_over time
And y
ĠQuadr atic
_choc olates
ĠMag gie
Ġmis read
Ġsumm ed
ĠInequal ities
Ġbelie ves
' H
w ife
ĠF lor
Ġfor ks
(x max
Ġst abili
âĪ ħ
over time
ĠO p
ĠY olanda
\\) ;ĊĊ
ib ble
_sh orts
Ġtac o
Ġsk illed
_S n
Ġrad icals
_op p
Ġsouth west
ĠEur ope
Ġven ue
Ġteasp oons
ĠVen us
M H
b irds
g r
{ eqnarray
Ġ- $\
on est
et ary
ĠM AB
ĠF lo
_w alls
Ġ/- **
Ġcomp ar
Ġspeed A
ãĢ ģ
ames e
Ġag rees
Ġoper ated
Ġlist ing
la ine
)^(- (
Ġtex ts
âĹ ı
Ġflu id
Ġbish ops
/ \
J udge
] ^{
_ arcsin
b irth
s andy
Ġb f
Ġ$ {(\
Ġd in
ĠN Y
Ġg ang
pe ak
Ġinitial s
ĠV IP
Ġdisc us
Ġ\[ -
Ġtrans mit
Ġvalid ity
Ġmetal lic
Tw enty
Ste ve
=intersection point
Ġcred its
romo tion
( L
) ]$
- round
Ġp in
Ġt ags
Ġn h
ĠA bs
ĠT endsto
me eting
ra k
ub ic
Ġal pha
fun ction
}.$ $Ċ
Ġquestion naires
Ar rangements
'''' ''
Ġdeal ership
Ġdy e
Ġhom ogeneous
ĠEli za
_permut ation
Chr ist
Ġwat ts
Ðŀ Ð
_grad es
æķ °
- fl
- cell
- leg
O ver
w orth
Ġ Ã©
)$ :ĊĊ
cos x
we ets
_sp aces
Ġresid ential
Par allelogram
Ġcas hback
) ",
m oles
q q
Ġc ricketer
Ġj on
Ġus able
Ġre li
_g ives
\% $-/
Ġcorrespond ence
Ġsw am
Ġbi ographies
Ġfish erman
var rho
_cont est
}. $ĊĊ
_seven teen
ĠâĨĳ âĮĬ
Per p
Ġjog ged
Ed ge
Ġtelesc ope
Ġreact ant
chlor ic
$ ABCD
Ġf ram
Ġf ires
un ique
ĠC ut
ĠH all
_t ro
ĠTh urs
Ġinc lusions
Ġop s
Ġbas ement
jor n
_D EF
Ġsug ges
ĠAP D
\, |\,
Ġtre bled
Ġbird house
Car la
Ġ$+ $
ĠangleB AC
Ġgerm s
IJ KL
Ġannoun ces
/ Î²
= AB
^ Real
in tersecting
at z
Ġh ires
Ġm ilitary
og ger
_s upport
_{ -\
ĠD ennis
ĠO pposite
ĠEx t
Â· (
Ġcre atures
uff s
Ġes cape
Ġmom ents
_school s
Ġol ivia
Ġflash light
Ġinstruction s
d c
Ġb ary
ĠR hombus
Ġw and
Ġwh ist
ĠP entagon
_work s
_c ot
Ġsum mit
_l ate
Ġmin s
Ġ. )
ĠIn finitely
ĠV alley
Ġext ensive
How ever
yl ar
Ġdr unk
limin ation
_class ification
andw ich
Ġtort oise
) S
A b
K N
N F
f action
p C
Ġc q
Ġis Parallel
ĠP OQ
_b in
ĠQ uantity
rang ed
ray on
Ġinv ariant
week day
âĢº ]Ċ
-le af
texts tyle
ĠAp oll
. index
= [
N P
P attern
] M
Ġb âĤĸ
Ġc lic
Ġha bit
ĠN A
ĠM ah
ul ating
Ġk ola
ot o
Ġ{ $
ĠG av
Ġgener atrix
anc ers
Ġspin ning
Ġsumm ation
Ġrasp berry
Ġther apy
! =
X P
a hedral
g ame
g ency
tb ound
Ġ< \
Ġk yle
}\ );Ċ
ard less
ĠO BC
ĠQ in
_e ighth
Ġbooks hop
Ġbus hels
Ġref und
St rict
_cont r
Ġfly ers
Ġpreser ved
Ġhealth y
Ġtechnic ian
Ġ.. .ĊĊ
_deli very
Ġfant asy
' ,$
A ge
Ġ å
Ġh final
Ġt alking
qu arters
ok jin
Ġ| âĪļ
Ġal ley
_g lass
ĠEx ternally
Ġmar c
Ġkn ocks
Ġgall ery
}=( $
{B AC
_q r
ĠLe on
_tra p
_ser ving
ĠConn or
Ġlabor atory
Ġdrain s
osc ill
succ ess
Ġsmooth ie
ĠOb tuse
Ġbull se
_sco ops
Ġaster isks
_muff ins
' +
- tell
> Round
D ave
q ing
on struct
Ġw arm
Ġl ays
Ġg m
_c alcul
_m ango
Ġtriangle Area
equal ity
Ġver anda
mm y
ĠCh ecks
/s ec
ash ing
{E H
Ġvac ant
ĠCal vin
Ġguit ar
ĠRun ner
$ čĊčĊ
) á¶ľ
. em
T ickets
{ For
Ġ\ ,\,\,
ĠT ask
ĠC x
ĠC raig
ic ient
_t etrahedron
}} |
OD O
_te acher
Ġconj ug
Ġpoc kets
Ġ$({ -\
Ġneighbo uring
Ġbri ef
.at Top
+ R
P BC
v ariable
| )^
Ġb inder
op al
Ġf udge
ĠR T
Ġe ighteen
ĠT ODO
ĠB ird
Ġv m
Ġas c
Ġch ase
Ġterm inate
ĠIn vestigate
ĠIs In
Ġtop ic
Ġph arm
=x right
mit tees
Ġfish es
Ġsk ills
ĠAr c
ĠBM C
=y top
Ġped ometer
_conj ugate
Ġsli des
Ġpredic tions
) }}{
+ Y
B OC
K e
e mploy
f c
| P
| }+
Ġth read
ri m
ĠP ablo
Ġcan cell
air wise
Ġar rays
=$ ____.-/
Ġann iversary
Ġsn ails
Ġdet our
Ġfeed er
_ox en
$ )ĊĊ
D AB
j ane
ro chloric
Ġw olves
Ġis Even
Ġl ace
om er
ĠH I
ost on
ĠG ood
Ġget Digits
Ġsp ark
_h ens
par ag
Ġsubs equences
{m ore
ep ing
âī Ī
Ġrain s
Ġspeak ers
ĠAb by
_pig eonhole
_cur ves
) ?ĊĊ
+ N
= h
Q D
[ h
c ks
w olf
ĠS Q
Ġsh ade
Ġsh iny
and an
ĠQ ing
ĠCh ildren
_un ity
no ulli
_fl ow
Ġlook ed
ĠÐ ²
ĠâĢľ $
Ġpul ling
_kn ights
Ġcroiss ants
Ġphr ase
" ĊĊ
c are
d ave
l awn
p encils
er ical
on ya
Ġn avig
_c li
Ġj ournal
ĠJ iushao
Ġsc rap
Ġfl ock
Ġad jacency
_e v
_ne ighbors
_int ermediate
Ġland scape
Ġorange ade
Ġmet ro
Ġdep reciation
âī¤ \
ĠPh ysical
Ġvess els
cell aneous
Ġcoll ision
. âĢĿ
/ AB
D Q
F M
f req
Ġt orus
Ġ* /
Ġd ust
Ġin no
ing les
Ġl ant
Ġg lue
ent le
il ot
math op
_f eb
air y
par ent
ĠCh ad
Ġag ent
{F B
_res id
Ġeast ward
Ġpear ls
Ġranking s
Ġhairc uts
Ġappeti zer
M M
e ometric
ĠA mm
Ġle aps
ĠC aleb
Ġk aren
bo ught
ĠI ce
_t ask
Ġre inforcement
Ġtra verse
arg es
mul tic
Ġsur charge
Ġconver ge
Ġenter prise
Ġadjust ments
ĠDaniel le
_scal ing
Ġdisj unction
m atch
q x
| ĊĊ
Ġp ics
Ġh le
Ġr ats
_s eniors
ĠP Y
it ation
}\ }$Ċ
ĠL ex
up arrow
Ġhe ap
Ġfi red
---- |Ċ
Â° -/
av ailable
ĠApply ing
deriv ing
Ġcater er
Ġexperi ences
Ġfrost ing
Ġbroad cast
.index Of
& Ms
. O
g allons
Ġt ut
ĠA ge
_s uit
}\ ,
_c redit
)$ :Ċ
Ġsequ ential
ord on
_in valid
Ġel ves
** )
ĠK N
ĠAs ia
uri ous
iction ary
Ġbabys it
Form Triangle
El lipse
represent ing
=tick length
ĠConverse ly
. antisymm
Q Y
R ay
} ab
Ġ( [
on ous
Ġ$ +\
Ġw ool
ĠM H
Ġo u
ĠW idth
Ġj ury
_in center
}) .Ċ
the tic
_trans port
Ġpick les
ĠEvery one
ï¼ľ x
Ġeng aged
_draw ing
|/ âĪļ(
Ġstretch ing
Ġmir rors
ĠApp roximately
Ġdan iel
bro ken
ï¼Ľ <
$ **
= ï¼Ī
C T
G E
H annah
t ens
} ))$
Ġb indings
_p ots
ĠF raction
_s and
_d oub
ĠD AE
Ġli l
ĠâĢ ĺ
ump s
Ġdes ert
Ġer asing
ĠLou is
ĠKy lie
_vel ocity
_lollip ops
* G
m ic
s cience
| ax
} Ã·
Ġh geom
le vel
Ġan gel
Ġd inos
ĠN am
ĠP oly
ĠP aco
cl oth
_di rection
_order ed
Ġpill ar
Ġanalog ous
ao h
Ġ.. .Ċ
ĠKay la
Ġdiplom ats
( V
M ay
S un
or ie
Ġh G
Ġd z
Ġd ances
og ical
)) ^{
left pt
Ġj ustify
_pos sib
In tersection
Ġme adow
Ġsub com
ĠY an
_st ars
Ġmake up
_mon otonicity
Ġroc ket
Ġol ive
_orth ocenter
_gu est
ĠMa jor
ĠTra pezoid
Ġexplan ation
Ġcroc od
_possib ilities
_ ending
_ energy
ĠR ule
ĠM oe
ĠP CA
iti cs
_t v
_b ackward
ex ter
Ġinter p
_le mon
_h ole
_x z
Ġoff set
_exp licit
-t ri
mark angle
Ticks Arry
Ticks Arrx
Jan uary
ĠDoug las
ĠKat ya
_ omega
Ġb ets
Ġd ream
ĠT ournament
qu et
un ter
Ġex its
)$ "
Ġcol a
ĠV lad
Ġrec ogn
ĠY ann
Ġtw elfth
ĠSt ock
Ġpay check
Ġcomm and
Ġprac ticed
Ġwholes al
yn th
-qu estion
_sn akes
-co efficient
M ul
R ange
[ g
b ill
f ume
g h
ĠA licia
ĠN P
_p oles
ĠS ec
_m eat
Ġwe ave
Ġcomp l
Ġcomplex ity
div ided
ĠIs Periodic
sh ops
ĠExp licit
Ġperform ances
Ġwra pped
Ġparab olic
Ġengine ering
Ġencount er
Ġaccept able
Ġnit rogen
( )ĊĊ
N eg
b ri
b one
Ġe ll
Ġin jection
Ġv b
it ations
Ġval ued
ĠW all
ili p
Ġtr ades
Ġcor rid
Ġcons titute
}) |
-c ar
Ġbank notes
Ġassoci ate
Re present
ĠBo ys
Ġcare er
ĠFace book
Ġmort gage
- ad
E li
M arc
Ġ }+
Ġh AC
Ġn p
ac s
ĠA S
ĠC olumn
Ġk ill
\) :
ĠE va
Ġreal ly
Ġpre liminary
_pl ot
}^* ,
ĠIsG eometric
_lo ad
_cover ing
ĠChrist opher
Ġjan uary
ĠApp le
Ġali en
Ġdipl oma
Ġcroiss ant
Ġdartb oard
multic olumn
> },
E P
T E
_ J
f uel
h prod
m L
Ġth orough
Ġp ant
Ġt ents
Ġr ising
ed es
Ġch urch
Ġangle ABC
Ġ" âĪĢ
Ġins ufficient
Ġind oor
Ġkm s
Ġlast ing
_C a
-t wo
Ġav ocad
Ġsli pping
Ġast rophysics
isk ers
_oct agon
Ġ)__ .Ċ
Ġalg ae
-leg ged
parag us
, Arrow
: c
\ triangle
g rey
h root
ĠB et
$, $\
ĠP al
ĠE quality
Ġmi a
_e lect
.P airwise
{c yc
loy d
}.$ $-/
_week day
Ġvol t
_ve hic
Ġliter ate
Ġcric kets
ĠRem ove
Ġreser ve
Ġ(âĨĳ (
_gra pes
Ġpadd y
Ġhung ry
" );
= M
O I
j ill
r ations
u ric
Ġ rom
Ġf ashion
ĠN et
ĠS ilver
ud o
ĠL y
und le
_b a
_b orrow
Ġcor rection
Ġno tice
co mplete
oo h
}}$ $,
{A G
_prop s
-th ree
Ġscal ars
Ġsilver ware
Ġwash er
Ġap othem
trans form
Ġconjug ates
. R
\ }Ċ
_ lit
q iang
{ ABCD
Ġ\ -
an u
eg g
_d am
Ġpl atinum
sin A
ak ed
_r ise
ĠJ ade
ĠCh eryl
Ġrep ublic
ĠAM D
Ġfill draw
Ġtrac ed
con st
)))) ))
_AC D
Ġchain s
_arc s
ĠFlow chart
ĠThurs days
. H
. width
> y
J ulia
a pply
Ġp uri
ĠM ich
Ġg entle
_c limb
_t oo
ĠG l
Ġfactor ize
-c oplanar
Ġtank ful
)! }{
Mod ule
Ġaccount ed
Ġprac tical
Dist ribute
ĠAnal yze
attice Point
Ġcancell ation
* tan
J on
N a
R E
s u
Ġth ing
Ġm ission
ĠT revor
ri k
Ġl ane
ĠÂ ¥
Ġdi ana
Ġpi er
Ġrec ursion
_h orse
Ġspeak er
_top pings
Ġhost ing
acc urate
Ġunic orn
- u
H A
Ġ( )Ċ
Ġthe oretical
Ġh total
Ġt B
Ġn ina
)) $.Ċ
ver ages
Ġreal ity
_ex clusive
_ch air
hp B
Ġlower ed
_fl ower
ĠAr ticle
Ġsun set
Ġmotor boat
Ġtreas ures
<d etails
_dim ensions
ĠLaur en
Ġenroll ment
) "
C Y
M egan
\ mathcal
] ,$
Ġan gela
ĠT ara
Ġj enna
_b atches
adi o
ĠâŁ ¹
Ġemploy er
-f aced
ĠDist rict
{S aturday
Ġclear ance
Ġ$\_\_\_\_\_ \_\_\_\_
Ġanti freeze
Ġecon omy
Ġsubt ended
_vide o
A á¶ľ
D BC
M att
m ango
Ġs ight
Ġthe ft
Ġc ord
ro kes
re verse
lib rary
_work er
ic i
Ġman d
ĠG reater
Ġ$- $
Ġfl ute
ĠRe venue
_j o
Ġcentim et
Ġ"$ <
Ġexam ine
.r fl
_ten th
Ġhot dog
,+âĪŀ )$
Ġdecor ate
phant om
Ġhandsh ake
$ )$Ċ
- long
_d one
Ġj eff
_f er
atis fied
_g ifts
Th us
Ġreg ulations
Ġfl ask
ĠâĪħ Ċ
Ġspe lling
Ġtu ition
Ġmus ical
Ġcheesec ake
âĪ§ q
Ġtread mill
) m
S q
| .$
Ġb m
Ġ= $Ċ
ĠR abbit
et ri
ĠN icole
Ġse x
Ġ\\( [
ĠIs abel
urr ing
.p red
Ġdepart ed
Ġimplement ed
eli ons
Ed ges
_basket ball
Ġextrac ted
Ġgiraff e
Def inition
G D
X M
Ġm ys
Ġ\( |\
_s ent
_m edians
Ġpl um
_f orty
Ġtra ps
ĠG ary
Ġfe asible
Ġins ect
Ġstart ers
co mple
Ġmod es
ĠMultip lication
Ġsand box
hold er
Ġexerc ised
Ind uction
Ġairport s
Ġliz ards
åħ ĥ
) q
* E
/ AAAA
: [/
M ag
O z
f s
s enior
æ ĺ
Ġb its
Ġ$ âĢ¦
Ġh not
ĠR i
Ġd u
ĠB ela
qu arter
_w al
log spot
Ġli ed
}^{ {
ĠK ath
_con f
}) -\
-a âĤĻ
An y
_P F
mplement ation
Ġoptim ization
,âĪŀ ),Ċ
.b p
.b logspot
Ġpan el
ĠKL M
ĠAb stract
texts c
Ġtiss ue
Ġblond e
Ġfrisb ee
Disc ount
ĠIsComp osite
$ âĢĻ
$ âĢ»
- ay
. ).
L uke
[ m
\ Big
v ated
at an
Ġb áµ¢
Ġs led
Ġt d
Ġis B
ul o
ĠF ood
}$ ).ĊĊ
_c opper
ĠE uros
ĠL ong
_f resh
Ġ(( âĨĳ
_b ones
ĠIn to
ĠG BP
}} .$$
ĠBC P
Ġcount less
Ġpri or
\} .$
ik h
Ġslow ly
ogon ality
Ġcircumcent re
: B
E ND
\ wedge
^ u
b rown
c orner
l ay
| PF
Ġ )^
Ġn an
um bb
rac ked
ĠF rance
Ġ[ âĢ¹
alcul ated
Ġcos h
ollow ing
Ġsub group
Ġfe el
red ient
Ġup right
âģ ¡
_j une
_sh aring
_I oi
{k m
Ġcamp us
-def ective
-kn own
- repeating
R adius
Ġt adpoles
he ven
}$ )Ċ
ĠP aper
Ġ/- \(
Ġz hang
_m achines
Ġti red
Ġapp ropri
âŁ© ,Ċ
Ġup graded
AC E
Ġvalid Seq
{A O
ĠTe mper
gorith ms
Ġmis cellaneous
Ġclar inet
Ġbish op
ĠStraight forward
ĠGerm any
R s
s lices
| }+\
| +(
Ġb oss
Ġp es
Ġg inger
ok ens
ot tery
ĠE DF
eng er
_b rick
Ġcur v
Ġso le
ĠY u
{N o
-p ong
mplement ary
$). -/
ĠAd ult
_determ ines
Ġdesc ends
ĠCauchyS chwarz
~ \
Ġb cd
Ġc ycled
ri ll
ĠI mp
Ġper mitted
_f ine
Ġ" (
Ġsin A
Ġover la
_ex penditure
_ins urance
Ġpo em
_cop ies
_ord ers
-pres ident
Ġjusti fication
$ S
â ĺ
on av
Ġn im
), -
ĠP op
ĠH D
Ġres ources
Ġ_ ĊĊ
ĠO bserve
ĠV itya
ĠIs Unit
_on ions
oss ibility
la f
ĠSh ort
work ers
Ġoct op
ythag oras
Car ol
multip ly
ĠDon na
atisfy ing
umbre lla
D e
F ib
w atch
ĠR oll
Ġfor get
_w ood
_c entral
ag hu
Ġal le
ãĢ Ĳ
ãĢ ĳ
Ġ\(\ |\
Ġeq n
oles ale
Ġtransform ing
Ġsim ulation
ern ardo
Ġfrequ ently
_pattern s
Ġperm issible
ĠEuc lid
ĠInter val
- [
. Y
. frac
. volume
R U
m eters
v oid
| Â·
Ð ¢
Ġh cl
ar ns
Ġt au
ol o
ed ition
ĠL ess
_f ib
ĠCo le
Ġwork out
ĠX B
min ute
$" ;Ċ
ĠAl berto
ĠAr k
Ġrub le
ĠÂł Âł
Pl an
ĠReg ression
ĠAnton io
Ġellip tical
_clos est
Vi ctor
V ar
_ ef
b ach
c ats
Ġ= $ĊĊ
us ts
id ates
ĠE P
âĪ ı
Ġmon etary
ĠV e
rid es
Ġad am
.f ind
/> ĊĊ
ĠNe il
_al one
ĠÂ± (
Ġexch anging
big circ
Ġpo ison
bl ock
Ġapproach ing
( âĪł
- wise
W idth
t ub
| l
Ġh edge
Ġc iv
le mon
ti bles
em ony
ed ar
per mut
end ants
_m k
oc ket
ĠCon nie
sh ine
Ġgrad ually
Ġview ing
ĠSn ow
ĠDeb by
quadr atic
_assign ments
E lective
F GH
O pposite
T riple
{ U
Ñ Į
Ġc n
Ġm ows
re ats
ĠM ir
st atement
sum OfDigits
Ġwork shops
_or ch
Â· aâĤĻ
Ġapplic able
Ġanti derivative
Ġreact ants
=r gb
( Z
) }$.Ċ
J ess
K D
f ord
Ġa ug
Ġs x
Ġp atches
ĠC S
ĠS af
Ġst ole
ff od
_d ishes
ĠD own
ub set
_t ower
ĠFind ing
Ġ(( ((
_b ath
Ġad mitted
_co ordinate
Ġoper ate
Ġinf ection
Ġlo om
ĠSp inner
Mon th
{M F
Ġexper t
_rel ative
_law n
Ġta els
Ġema il
ĠSix th
Ġze bra
Ġattraction s
M ap
_ ha
_ Î¼
Ġ oscill
Ġ+ ...+
ĠN ora
Ġi od
ĠC es
igh tb
ĠP urchase
ex act
ĠU p
Ġbl ast
Ġafter wards
Ġsp un
'' .
ci ous
Ġlike lihood
Ġpri vate
_term inal
fe et
ĠBen jamin
Ġke ith
ĠChrist ine
Ġprote ct
Ġgradu ation
Ġwid get
ĠLaw rence
enne th
Ġeigen values
_supp lies
Ġsed ans
* Ïī
- week
G O
\ prod
e very
s ign
t akes
x equals
y equals
Ġs igma
ĠM anny
Ġst range
Ġcos A
_in circle
ish ing
ru le
Ġhead phones
second s
Ġswe pt
Ġbookshel ves
Ġmarch ing
Ġtric ycle
Ġportra it
$ C
G A
} âĪ¥\
Ã £
Ġ( â
al titude
Ġw orse
Ġin grid
ĠF aye
st retch
Ġst ories
ĠD ylan
_m w
{\ \
Ġsin ks
Ġclass ified
'' ,
Ġ\_\_\_\_\_ \_\_\_\_\_\_\_
ĠTo by
prod uction
ĠDE C
}. \)
Sam antha
Ġcommun ication
nam on
ĠSoph ia
_bow ls
" .-/
$ ï¼Į
B all
_ OB
a vers
m ade
p urple
} }}{\
Ġr aining
Ġe y
ĠA be
he i
_c ongruent
_d ad
row ing
Ġpar a
_t urt
Ġch imes
_r ing
ter ion
ure au
Th at
_A DE
Ġrequ ests
-s chool
Ġkil o
Ġdis likes
urr ency
AA A
Pl acement
Ġdress ing
Ġcri minal
ae hyung
ĠJim in
Ġhun ting
Ġchamele on
_pep per
_tsh irt
+ sin
. ),
j ake
Ġh area
ĠR ita
_c oinc
Ġst ain
im i
_t rade
Ġres cue
Ġsquare free
we ed
Ġinc rements
Ġar un
ĠK h
Ġperson nel
}| -
_ch ip
Ġtest ed
_const raints
_sin B
Ġsched ules
{I V
mark up
Ġinsp ector
Ġphotograph s
Ġome let
Mel anie
Ġzucch ini
& M
F riend
J K
T aking
j ung
Å ¡
Ġ }=
Ġs eal
Ġc offees
Ġe áµ¡
Ġd urations
ĠB all
Ġv it
ra ve
}\ }$ĊĊ
)$ ",(
_t ray
ĠO ak
text tt
red uction
Ġclass ification
Ġcell phone
ĠAll en
_app s
Ġsk irt
Ġgr at
Ġmang os
Ġdisplay ing
Ġliter ary
ĠHu ang
ĠMari o
Ġki wis
Ġsare es
Ġdiscus sing
Ġwholesal er
) <\
* âĪļ(
, {
R oot
_ OA
a q
t v
Ð ¡
Ġc lus
Ġx g
ad en
ag h
ag ney
ant ine
_re action
Ġkn ife
co mpute
Ġorigin ating
_ch em
Ġproj ecting
hm ed
Ġconsist ed
Ġhd isc
Ġlimit ing
ĠComp ound
lor ia
ystem atic
âĮī Ċ
Ġdess erts
-w est
four th
ecti veness
) âĪļ
+ (\
- HM
Q u
S usan
X B
h deriv
l unch
Ġ( _
Ġc ables
is elle
Ġk evin
_s l
(x min
ion e
ĠL emma
). $ĊĊ
Ġel astic
ĠG C
ĠG ra
ĠG irls
uc kets
der ived
/h er
Ġback packs
(y min
Ġph i
_se par
Ġleg os
Ġtransl ations
Ġprote ction
Out come
ĠAust ral
Ġappropri ately
( angle
H CO
N ormal
o h
ol n
}$, $\
Ġdiv s
ĠQ PR
res hm
_to othpicks
Ġdirect or
ĠBD A
Â· )
-t uple
Ex ample
Ġblock ed
_cl othes
=\_\_\_\_\_\_ $.-/
uper t
ĠCube Vertex
---------| Ċ
Ġillumin ated
J ill
Ġb enny
Ġh ob
Ġt eal
ol is
ĠS ud
ur ately
ĠP asses
ĠD ot
Ġsp illed
ren ew
Ġbre ath
-c onsecutive
Â· sin
Ġbi o
_dec af
Ġmet eor
ĠHas Sum
.n onempty
\_\_\_\_\_\_ $.
Ġsuper v
.B lue
_recipro cals
Ġmusic ians
Ġmeat balls
}^{* }$
Ġstri kes
Ġinfer red
Ġinsp ected
Ġcelebr ate
haw n
D K
V otes
h da
h max
y o
} ",(
ĠT er
ĠC andy
ĠS upp
Ġk ab
^{ *}
ĠE lsa
ĠL atin
Ġangle d
ĠV s
ĠAC P
_th e
ĠPro gram
gebra ic
_sp orts
Ġ"$ >
_mid points
_year ly
hP er
Ġexpon entiation
ĠAr ch
Ġgrand daughters
_pack ets
Ġkay ak
_paper s
Ġcriter ion
Ġtodd lers
Ġthorough ly
- unit
. angle
b anana
h ome
Ġp int
re ma
ist ors
ĠD og
_b uilding
Ġtime B
ĠY oung
Ġu v
ĠPro babilities
Ġcook s
_four ths
Ġgr ant
ï¼Į \
ĠRo om
comp ound
Ġstri ke
down s
Ġcer tific
Ġcer emony
Ġaud io
Ġcler ical
Ġobstac le
- circles
R am
\ gamma
a es
| -----|
Ġb ipartite
Ġc ore
Ġo h
ĠH M
Ġsin Î±
Ġsp ins
.s ide
Ġpre gn
Ġdeg enerate
/> $\
ĠZ hu
Ġfocus es
ĠAl ong
ĠSome one
Ġcolour ing
Ġevapor ation
Ġsuc ceeding
)=\_\_\_\_\_\_ $.
ĠFu ji
$ B
. no
. blue
= s
F Q
b or
h perp
at rices
Ġt ernary
ve g
Ġe lected
ĠT ok
em or
os a
un ce
\) ;ĊĊ
BC A
}} )}^
Ġsp oke
Ġdistinct ness
Ġtow el
_P C
qual ified
Ġbeet les
Ġconfir ms
Luc y
ĠCircum center
Ġadvertis ement
Ġfig ur
Ġdand elions
ĠFranc isco
ĠCalc ium
! !
+ px
: DC
Ġf iona
ĠC amp
Ġat mos
ĠP RS
ond e
Ġti pped
we i
Ġconc ur
Ġpay roll
Ġcup board
ĠJan ice
ĠTim othy
ĠDen ver
Ġfire f
Ġassum es
Ġenjoy ed
Ġbond s
onav irus
u let
{ OD
Ġp atio
Ġp AB
Ġp yth
Ġc rayon
Ġt ends
_p ress
ĠF oci
_s diff
Ġ{ (-
ĠH C
_m ist
_m il
Ġal though
Ġgre eting
âĮĭ âĤĬ
Ġda ffod
Ġexpand s
)] ^{
.mk Rect
Ġsubsequent ly
,+âĪŀ )
Ġburn ing
Ġlabor ers
_cand les
bl ocks
Ġtravers ed
backs lash
- increasing
= Q
B p
ĠR Q
ac os
ĠT HE
li ft
Ġint ends
Ġbe ams
ate ver
right pt
over lap
ef ined
_b n
_a bout
ĠJ enn
Ġsp ouse
Ġsp oon
ĠK D
ĠY ao
_v ans
-c ream
-m x
Ġtravel ers
}^* )$
Ġkey board
ĠSh en
_sin A
Ġcas set
Ġspin ach
Mar tha
Ġcommercial s
Ġillust rated
_neckl aces
Ġbrun ettes
supset eq
Ġpaddy field
: $
K aren
l uc
ve ctors
Ġd erek
ĠF ig
st op
ĠD ad
_m usic
ĠO X
ĠO MN
Ġquadr angular
.f inite
Ġcap ture
Ġcop ied
Ġhf x
ĠSte phanie
Ġpromo tions
_measure ment
Sc ore
Rel ative
ĠWin nie
}âĭħ \
Ġamoe bas
|Â· |
' \).
, K
C a
W Y
] {(
^ |
_ \\(
b ils
c ra
r us
y min
ĠF Q
ĠS ong
}$ $)
ff e
ess el
ĠE BC
eld er
ĠJ ing
ĠJ ust
_h ear
(" $-
Ġbi ked
Ch inese
Ġbird seed
rit os
Ġfifteen th
Ġsophom ore
_achie vable
Ġ$Â± \
Ġslee ve
Ġfrisb ees
Ġcock tail
Net work
& $\$
. }\\
t riple
er ican
is ons
ĠM ass
id en
Ġ[ *]Ċ
ch il
ch icken
Ġst air
ph ne
$\ \\
Ġli am
ĠG PA
)$. ĊĊĊ
}} }$ĊĊ
Ġsub mit
ĠCon f
Ġeven ness
-d istance
_st ation
_inc lusion
BD E
}}\ }$
_four teen
con nected
_comb ine
den om
_law ns
Ġmagn ets
_bow l
Ġteen agers
| }{\
Ġa uthor
Ġl ambs
ĠP asha
_c alls
_d t
Ġbl u
_h oney
array stretch
for ce
Ġshort age
ov sky
comm and
ĠSun ny
Ġhon or
Ġworkshe ets
Ġbes ides
Divisible By
renew command
' }$,
- cos
= xy
c alc
d ale
h angle
m eter
s un
{ not
Ġto ad
Ġle d
us ha
ĠC le
ĠC assie
ĠS id
)) âģ»
Ġtime A
par k
Ġrational izing
.in ter
fig uration
Ġra j
ĠMar ty
ĠÐ ¿
_play ed
Ġprogramm ing
ĠTechn ology
Ġalter ed
Ġ(â ¨
H ex
_ air
h bound
Ġc ru
Ġt uples
Ġr gb
Ġd ictionary
li x
ĠS qu
ĠP an
ĠI mplementation
)/ âĪļ
In equality
ĠIn de
ÏĢ x
Ġbook case
_y oung
Ġstand ards
Ġlo ops
{C P
ann on
_den ominator
aul ty
Ġlap tops
ĠPerpendicular s
Ġsour ces
ĠKn ights
rave en
? $ĊĊ
I van
_ ow
j oe
ĠM ex
ĠS enior
ĠS everal
st mt
^{ {
math fra
Ġsal on
_rec urrence
(p ath
{E G
}] \
.of Real
Ġpredic ts
circum ference
Ġkenn el
mathfra k
' ,Ċ
- wide
] âĪª
o val
s imilar
w s
{ or
in oes
Ġh eating
Ġg aming
ĠF ather
Ġ(( âĪĢ
ves ts
Ġprop ose
Ġbu ried
div isor
Ġacc urately
Ġ... +
ĠOr igin
Ġtyp ically
{S unday
_ac ross
ĠGe ography
With out
Ġcare fully
ĠMad ison
I E
T R
ĠP ony
)) )^(
Ġre jected
_b uckets
ĠCh icken
Ġshort ened
_inters ecting
{M C
/p ound
Ġview ed
_collinear ity
ĠOver all
pher ical
Ġbea vers
_bi king
_bur ger
Ġvouch er
$âĭ Ĥ
Ġdiscretion ary
Ġcq cqcq
f in
s arah
Ã º
Ġ Hear
ĠT U
ĠS olutions
Ġk en
Ġst ools
_f lips
Ġcondition er
ĠIn come
ĠQ D
Ġbl o
with in
Ġformal ized
Ġsubst ring
Ġvolley balls
ĠShift ed
Li am
I T
K evin
L N
_ art
in ar
on ents
Ġ$ .-/
Ġh iding
Ġf o
Ġw il
ig raph
ĠT ile
ĠM om
ĠNat alie
ow el
_s pr
Ġwh ites
ĠP ig
ĠP tolemy
ĠD BE
_in cl
Ġax les
pl an
Ġneg atives
-------- |--------|--------
ho v
aur ants
ÂłÂłÂłÂłÂłÂłÂłÂł Âł
ĠPark er
Ġcraw led
Ġeas ily
Ġ(Â¬( âĪĢ
ĠBro ther
Ġcompetit ors
? $-/
O K
h Î³
â ĺħ
ĠĠ ãĢĢ
at ers
Ġb z
le en
is ibility
Ġan thony
ĠS ingle
igh ths
_m otor
_m olar
pi pe
ĠL izz
Ġsa iling
Ġsatis faction
ĠSet s
Ġsin B
ĠV b
Ġkn it
_k ittens
_min or
ĠVer tical
Ġgu ides
}^* )$.
Ġsalt water
Ġdesign er
Ġsure ly
Ġspi rit
Ang les
ĠiPh one
, |
A PQ
W ill
f ruit
Ġp or
Ġn A
Ġr c
Ġe agles
ĠA á¶ľ
_r ings
}, ...,
Ġ" âĪĥ
=$ ____
_cont rib
Ġsk ipped
Ġdrive way
Ġcollect or
_rema inders
ĠisValid Move
Ġking fish
ĠKL MN
Ġacqu aintance
ĠTr isha
ĠGold en
Ġsens ors
ĠSof ia
C R
Y our
_ ix
c Factorial
m i
| <\
Ġi ced
}$ \
_d ots
cos A
Ġadd resses
Ġcomb ines
ĠCh an
Ġteam mates
Ġsymm etries
_i P
ĠAt omic
Ġhp rime
_comp are
}. $Ċ
lo ading
_li ters
ĠDF E
cont radiction
Inter val
_miss ed
Ġbuff al
Ġlongit ude
ynth ia
) C
* /
\ underline
h Z
n ick
n orth
Ð ³
Ġm old
ĠM or
ĠM AN
_p ace
ĠP AC
ĠI C
ĠI MO
_m angoes
ĠO tt
ug o
_is o
ins ide
Ġstream ing
_express ions
_de part
_em ails
Ġvot er
Ġgradu ating
Ġinver ted
bro ther
Ġvacc ine
Ġshut t
Ġbullse ye
( ad
+ sqrt
- player
S asha
] Note
Ġh V
Ġl un
Ġco oper
ĠW ord
_t akes
Ġangle F
_co upon
_ex ceeds
_sp oons
_te eth
con c
-r uble
_cl ock
Ġimply ing
ĠTw ice
_offic ers
Ġphen omen
igraph y
$ =
A lyssa
B R
B bb
C AB
F ree
m ix
o iled
Ġ$ ).Ċ
Ġh rec
Ġm ork
ĠA unt
eg gy
_p ond
Ġwh ales
Ġsu ffer
Ġper fume
_f r
ĠV iew
Ġsp ray
Ġup side
_con nected
Ġrest aurants
{A Q
Ġcould n
lex ivity
con tra
ĠDist ances
Ġtas ked
Ġtransport ing
Ġfarm land
Re write
otonic ally
ĠEvent Type
_ca ught
Ġemer gency
Ġmicro organ
Ġegy en
Ġrap id
Ġtriath lon
A MN
N B
Î ¶
Ð ł
Ġp ilot
Ġh int
ĠR od
ĠN B
Ġl enses
Ġ| $
Ġun iv
_b et
_g raders
ĠEx istence
ĠShe ila
Ġapproxim ates
ail ing
ĠGe off
ĠInd ian
âĢ¢ X
count ing
BP C
-point ers
Ġstatis tic
Ġsignific ance
_bro thers
Ġrobo tics
_jelly beans
(path ticks
$ )$
Q M
g a
n b
n mid
p ump
u ardo
th ese
Ġp ts
Ġf ancy
Ġw illiam
Ġis Winning
as er
_p ile
Ġdist ricts
Ġcos Î±
_b ucket
Ġinter ch
\[ -
Ġhd en
Ex cluding
_ac re
Ġï¼ İ
uli ar
Ġgum ball
Me asure
)d t
Ġpud ding
ĠHill ary
Ġlibr arian
hPer p
) âĢ¢
D H
P L
[ url
or on
Ġis Odd
re ens
ĠC ody
equ ential
Ġreal ize
Ġabs or
Ġ($ $\
Ġrep lied
Ġtop ics
Ġgrad ing
}}\ )Ċ
ĠDC E
ĠRound s
Ġvar B
ĠTrans port
ĠJon athan
Ġki wi
Ob ject
ĠHaw ks
_sib lings
Ġmacar oons
ĠFeli x
ĠTemper ature
Q Q
S imilar
q i
u i
Ġ$ ...
Ġw el
qu antity
tb alls
us ual
Ġ$\ [
ith a
ĠI F
}\ ]ĊĊ
ay la
Ġset t
pos ing
Ġqu otients
ild red
Ġhome less
read ing
((- .
)âĮĭ )
Ġsou thern
_config urations
ĠRep eat
_ra ise
_preser ves
Ġted dy
ĠOrth ocenter
Ġsto ichi
" The
\ textsc
c ongruent
o ven
Ġ )}
Ġc indy
Ġm s
Ġd umbb
Ġw x
ĠA U
Ġg al
_b eds
Ġcons tit
_count erexample
ĠBC M
âģ º
_diff s
Ġrep orts
hy z
Ġphys ic
,m ediumgray
Ch aracter
'''' ''''
,f ontsize
ĠCP D
Ġsam antha
Ġdeliver ing
ĠWeek ly
Ġcantal oupes
$ }
- problem
k ar
Ġâ Ļ
Ġm igration
ĠS D
ĠD x
Ġsa ils
Ġli me
Ġcond ucts
}}{ |
ĠU V
ĠV irginia
_st ay
ĠAn t
ĠZ hao
Ġ? ĊĊĊ
sh aring
Ġread ings
tim ization
Ġimm ediate
bott le
_har monic
Ġmeg abytes
ĠDed uce
ĠVan essa
+ linetype
M ic
_ anti
r p
v A
| -----|-----|-----|-----|
Ġh unt
Ġc ristina
ĠM indy
ĠP H
Ġbe anie
ĠE ph
ĠH ank
Ġun marked
ĠG ol
\] .
ĠAn ge
_un ivers
.un ion
Ġquadrup led
Ġbath tub
Ġfreshm an
_it em
Ġjoint ly
ovan ov
Ġ?_ Ċ
- place
T est
] \)Ċ
} âĬ¥\
Ġ$ =$
Ġ+ ...
Ġf ives
Ġt ar
ĠNat ural
}$ =
_s chwarz
ĠL ara
Ġdiv ing
Ġ(- ((
Ġus d
Ġre wards
ĠIn cluding
sum mer
Ġrect um
Ġno ah
ĠX avier
_ne ed
ĠZ ero
Ġloc ks
Ġconsider ation
Ġca ffe
Ġnormal izing
Ġcharacter ization
simp le
reduc ed
Ġrespon sible
Ġexhib it
_dri ve
Ġsort ing
: EC
= AD
J ose
f g
v anced
Ġc racked
ĠM as
_p ear
_c ities
Ġj ess
tit ches
Ġmon ster
}} ^
Ġpair ings
ĠBC F
Ġbook ing
Ġrepresent able
def ective
Ġnor thern
ĠOr der
anan as
Ġliqu ids
Ġsing er
nam ents
Math ematic
}~ ?$$
âĺ Ĩ
. prop
^ w
l da
Ġm art
Ġt am
Ġw rt
ĠB raz
ĠM ON
ati lda
Ġch ap
Ġch orus
ĠX C
Ġmid term
], [
Ġlat us
Ġhear ing
}^{* }$.
Ġdesign s
Ġpul ley
Ġreser ved
Ġbutterf at
Ġâĭ Ħ
Integ er
F F
\ bar
\ rangle
Ġh oop
Ġt ug
ĠB S
ĠM ed
ff le
ff ice
ĠW ashing
Ġbo iling
ĠU s
ĠQ Y
Ġsp acy
\\ }\\)
_pl ums
ĠCD F
Ġ"$ =$"
).. (-
ĠRec all
_past ries
_tom ato
, gy
< br
= BD
e lion
f an
y x
ĠR ing
ĠT s
em ily
ĠM ort
Ġi i
Ġbe lls
_c ous
am ic
Ġsh ading
_t ail
Ġj acks
In vestigate
Ġred es
Ġrec over
.f irst
Ġconstant ly
Ġbel ts
âĮĭ )Ċ
Ġdis aster
_qu art
âĭ ĥ
Ġfox es
ĠRandom ly
ĠGabri el
$âĢ» $
. ind
M id
Y C
c onsecutive
or age
Ġma ze
ĠP ot
od as
ust on
ack ing
dots c
_v ari
Ġsubs idy
-b indings
ĠAD F
-c a
Ġhouse wife
Ġemploy ment
ĠCar men
dot factor
Ġsupp orted
Ġclean ed
Ġbob by
Ġinstall ments
Ġ________ ______
_rot ations
Ġtur keys
cqcq cq
Ġjug g
Ġappli ances
_brace lets
,_ âŁ©
Ġbage l
âĪ¨ q
, radius
I D
_ ops
m ed
n A
Ġm un
ĠR ich
_p ythag
id as
ĠC Z
}+ âĭ¯
ĠQ F
Ġcertain ty
Ġmar co
Ġqu int
Ġdigit Product
Ġwri ters
-s hape
Ġcomput ations
_me as
Ġtetra hedral
\} .Ċ
hat tan
Ġdifferentiable On
ĠPar is
Mon otone
ĠSimp lification
ĠAF B
Ġbur ritos
ĠCol lege
ĠEric a
Ġresist ors
Ġamoe ba
Ġ"- "
âĪģ _{
Ġvamp ire
Ġgrat uity
$ {
_ ant
c g
c âĤĻ
p encil
s ol
Ġa piece
Ġh sq
ro se
Ġf aulty
Ġm isc
Ġex pects
_n or
ĠF ran
ay as
_c b
ĠD ong
ĠH en
Ġro ut
Ġtra m
ĠJ in
}} ]$ĊĊ
Ġkn icks
_count er
_ex ternal
ĠSt atistics
Ġhn p
Ġhigh ways
Ġreduc ible
Ġeff ects
wri tten
Di rection
Ġjo ann
_u phill
_high way
ĠMel issa
ĠForm ula
Ġshr ink
Ġmilksh akes
Ġlawy ers
,light gray
Ġ$* $
> B
B arb
W alking
b uy
g rand
m ichael
s andwich
| PB
ĠB al
Ġle ts
_s uits
ic he
cos B
_r s
ong ation
sum Digits
âĦ ĥ
Ġmonot onous
ĠPl anes
_form ation
uss ia
_lo ads
_er asers
Ġprin ters
Ġliz ard
Ġenthusi asts
J uan
å Ń
en za
ti ans
Ġf athers
âĤ Į
li um
ĠF uel
Ġv et
Ġk it
Ġtotal ly
Ġz oe
Ġas h
Ġas paragus
ĠL ind
ĠL ana
ĠL una
ust ed
Ġdef eats
}} <
cl aim
.s ize
_e uler
Ġ$[ {\
\\) ;Ċ
Ġhc f
{A N
cup s
Ġann ie
Ġunder lined
MN PQ
)! }
work ing
Ġparametric ally
Ġmet als
Ġconcent rate
ĠPer fect
Ġfra g
ï¼ŀ b
Ġing redient
-le ap
_conn ections
Ġnephew s
" ,Ċ
* \
, ..
\ #
p ounds
al ks
ĠS chwarz
ĠP ay
Ġor naments
_m ary
_h air
-d own
ĠSubs equently
co ords
Ġ\[ |
_we igh
Ġsw allows
Ġshop s
}^* $.ĊĊ
)! Ċ
hs eq
âĭħ b
_pass es
angu age
disc riminant
ĠDe partment
osc hei
ĠBer noulli
}^{+ }$
Ġmechan ic
ĠKel vin
* K
F P
O ABC
S o
S ymmetric
j ose
p entagon
r unning
{ log
Ġs asha
le ad
Ġm it
Ġn inety
us oid
ry stal
st raw
_c ages
el led
ĠE AB
ĠH oseok
Ġinc urs
ĠG reek
ber ly
Ġbre ed
Ġgar lic
_extre mum
.frac t
d avid
h MN
Ġ os
Ġh ive
Ġf elt
Ġe ddy
Ġis olated
ĠT a
Ġk endra
_s chedule
ĠD ata
Ġj umbo
Ġch icks
_pos t
_f ootball
Ġed ition
.f ib
{A H
_inters ects
Ġrad ishes
Ġisland ers
erex amples
_sol id
Ġcame l
_conc urrent
Ver tices
Ġoccup ancy
Ġrack et
Ġjim my
Ġsmooth ies
Ġpanc ake
Ġbol t
Ġbilli ard
$ },
( J
Ġr ick
^{ [
_c rate
ph oon
sin h
eterm in
Ġsc out
Ġrec order
Ġrun g
ĠÂ¬( |
_di fferences
Ġsem inar
(y max
An nie
Ġfifth s
_D A
)! }{(
Ġfre el
Ġfre ddy
Ġestim ation
comm ission
Ġstip ulates
Ġgran ola
ĠProfess or
" );Ċ
( âĪļ(
+ P
> C
C la
| $;
Ġh Y
ro b
Ġf alc
Ġand rew
ĠC EF
Ġ[ '
_s pe
ĠD id
Ġdi ps
Ġas pect
Ġsin usoid
Ġreg istration
Ġdisc over
-b x
Ġhead wind
tig uous
Ġtro uble
ĠDe pends
Ġalloc ate
Ġsmart phones
_orth ogonal
ĠHex agon
' G
- ring
. proper
B inary
E xt
O x
] .-/
g iving
p ri
p aint
v m
Ï Ħ
Ġb ent
en ix
ĠR ain
Ġr d
ĠA OD
ĠT n
Ġg otten
ĠC ec
Ġwh atever
ĠP ass
ĠP ick
{( {\
pi red
Ġ" $(
Ġsin h
Ġfe eds
ril a
For um
_st rips
\\ {
_j oin
Ġdot ted
Ġexam ining
Ġextre ma
-p rice
Pl anes
{s ome
ĠCl ay
Ġrespond ents
ĠBl air
_but tons
ĠLog an
_surv ival
' _{
. L
I r
_ vert
l ated
p eds
Ð Ł
Ġa aron
ol er
ĠT iffany
ĠB uc
_n ear
ĠF old
ess ert
tain able
Ġterm inates
cent roid
Ġcl ues
Ġop port
Ġball point
Ġac ts
form s
_ex cess
_sq r
Ġdes criptions
play ers
Ġcr ust
Ġtechn ological
Ġgl ove
Ġben ches
friend ly
Ġsho vel
Ġgem stones
Ġgad gets
Ġpand as
c our
j u
Ġh root
ro ads
Ġd airy
ĠB uying
ĠM usic
Ġi cing
angle B
Ġco uri
ut ch
ĠD river
_m l
pi te
ust ard
ĠCo efficients
Ġsy llogism
cl osed
ne ighbors
ĠZ oo
Ġnumer als
Ġen chil
az el
Ġbonus es
Di fferentiable
Di agonals
Ġcircums cribing
ĠSport s
. w
/ E
G ame
P H
T r
b io
f b
l b
er ns
Ġb ert
Ġp anda
le ven
ĠT erm
ĠM it
ers enne
}$ <
_w ri
lus h
ag a
Ġhe lic
ĠO Y
ĠG as
âĢĸ Ċ
}| $.ĊĊ
ĠZ e
On Line
Ġregion al
Ġunfold s
-t op
put y
,\,\ ,\,
ĠDC B
Cl ar
_U A
Ġpul ls
Ġmini ature
Â¢ ),
Ġorganiz ers
Rad ical
Ġcorrid or
( OH
- ray
Q N
{ Î±
Ġ+ (
Ġd ang
ĠM ason
Ġsid ing
Ġpart ly
_ro cks
_ge o
Ġ\_\_\_\_\_ .-/
_C F
_out put
ivid ual
.r adius
Ġcr an
Ġtransfer ring
Ġvar A
_cri terion
Ġbuff et
Ġattain able
Ins ert
_bouqu et
Ġsidelength s
D anny
\ tfrac
le tic
Ġn urs
Ġe el
Ġe agle
ĠB ogdan
ers tanding
Ġ$\ _
ĠC ong
ĠW en
_d ance
ex cellent
ĠU tili
if orn
.s ides
Ġtable cloth
Ġemp lo
ultaneous ly
------ |--------
Ġgoal keeper
{s ign
ĠMP H
Ver tical
Ġeduc ational
Ġcardinal s
Ġprom ised
Ġpat rick
ĠDr um
sw im
Ġinflu ence
Work ing
_treas ure
Ġvolt age
+ ...
- H
- ac
R A
T D
] unitsize
_ XZ
f amily
p uppies
s orted
u ti
{ cd
Ġ }{\
Ġt ins
Ġd p
ĠM en
tb ody
Ġma pped
}\ %
Ġdist ant
ag na
Ġmin eral
Ġform ally
_b ank
Ġsecond ary
}- (\
pend ed
ĠĠĠĠĠĠĠĠĠĠĠĠĠĠĠĠ ĠĠĠĠĠĠĠĠĠĠĠĠĠĠĠĠĠĠĠĠĠĠĠĠ
_h it
vers ions
ĠIs Prime
-s olving
Ġhyp oth
}}$ ?
Ġdis appear
ĠBD F
{C M
.c ons
ops ic
Ġeffective ly
_bro ken
_painting s
daugh ter
_sess ion
Ġdinos aur
G rand
_ ray
f illed
Ñ ı
Ġa uction
Ġâ ĩ
Ġm ent
Ġt A
ri tical
Ġk J
ab e
all as
Ġre lease
ug gets
ax y
ĠK P
Ġpre image
ticket s
Ġ(\ (\
-f riend
att les
Ġborrow ing
Ġpq r
Ġdish onest
ĠHel p
Ġcler k
Ġemplo ys
. ch
n one
s occer
Ä ĥ
Ġand y
ain ed
ĠO I
Ġset tle
_b ab
ĠG wen
Ġtrans verse
'' )Ċ
.in jective
inc oln
Prop ortion
Ġer ected
Ġexpl oration
Ġclos ure
Ġconstruction s
}] $.-/
Ġtre ated
Jack son
Ġkern el
ĠRos a
ĠZh enya
Ġaccumul ated
Ġgeck o
D eb
T V
] }{[
w ear
Ð Ĵ
er ful
Ġt uple
_p ill
end ant
Ġex clude
ĠF t
ĠS ha
_s ided
ĠP ack
ĠE mploy
Ġcan cer
ph alt
ĠL ondon
Ġal gorithms
(- âĪļ
}} }Ċ
Ġmid lines
_h yd
lic ates
av an
_pl anks
sh are
-t enth
ĠMN P
Ġparallelepi peds
_lo af
,+âĪŀ )$,
Ġcast ing
ĠGr eta
Ġmechan ical
ĠIntern ally
.continuous On
! }\
A vg
H K
W endy
b re
{ |\
at thew
ĠNat asha
ĠP romotion
rom os
ub ric
Ġdiv ers
Ġmust ard
Ġtra ined
air Color
ĠJ oyce
Ġde v
aâĤĻ aâĤĻ
-in tersection
_for ce
Ġleak s
Ġcr uc
Ad va
Un ique
Ġped al
Ġcaf Ã©
ä¸ ª
ĠBer lov
_match ing
ĠTw enty
Ġcaterpill ars
_attemp ts
& *
- he
. gt
/ $
/ month
M ari
d ri
{ In
} X
Ġf ences
Ġt ess
Ġle vi
ĠS el
Ġwh is
ĠP MN
Ġcan es
_m onic
BC E
Ġj ulie
neg ative
ass ium
_b urn
Ġnon overlapping
reas ts
}} [
Ġcub s
atur ated
ĠY XZ
lic an
Ġde puty
Ġcount able
Ġrest ock
Ġpri m
ĠNo tice
Ġinst ances
ĠFactor ing
top ic
_op timization
ĠEl lie
ĠGeometric Shape
_pot ato
ĠÂłĠÂł ĠÂłĠÂł
ĠGrand ma
yr one
Ġchromos ome
Oli via
ĠAf rica
' an
G u
T ree
] Problem
| /(
er ning
Ġb p
Ġm etric
ĠR amesh
li ament
ĠW inner
ĠH o
ĠTh irty
ĠG en
Ġplay off
Ġrec urring
Ġup grade
ĠK night
Ġpre cious
form ation
CD A
\% \)
ah im
sc rip
Ġelimin ating
_sur j
Ġburn ed
Ġhect are
Ġadvertis ements
_neckl ace
_strip es
ĠItal y
_listen ers
Ġmor nings
_calcul ations
T able
_ rice
y ak
in terior
Ġh ineq
Ġm egan
Ġm indy
ĠT H
ĠB ak
Ġl ath
ĠF ern
ĠC reate
it em
Ġsu dden
ĠD ing
Ġcos B
_f ac
ĠIn center
ĠJ ude
âĦ ļ
_C B
sh oes
Ġmarks man
_assoc i
Ġletter Value
-year ly
Ġpreser ve
otonic s
ĠJay den
-con vex
Am anda
Comb ining
roph otonics
Ġcin namon
-lo oking
_av ailable
.em od
_turt les
& D
( iv
L C
S ource
T A
j uice
m al
th rough
Ġa lyssa
Ġp ups
Ġf âĤĻ
Ġn eq
ĠB ianca
qu es
ĠM BC
ad ows
Ġall oys
ĠÎ ½
_f ermat
Ġre acts
ili an
ĠG E
}} .$
enc ing
ĠK orean
ĠLe ila
Ġvers us
Al bert
ĠPat ty
ĠAN D
eli a
Ġclo uds
Ġbea uty
$ _
% ĊĊ
, &
K A
N ext
T C
f d
j ia
p ted
{ ?
ä »
Ġh ides
ĠB at
te lopes
Ġwh iskers
st ock
ĠP ythagoras
_r ope
$\ {
Ġ$$ |
Two Digits
Ġlo ose
Ġfam iliar
_fl ags
Ġ($\ ,\,$
Ġ__ .
}] $-/
Ġbath ing
_shift ed
Ġ________ _.
_similar ity
_pen alty
Ġ\_\_\_\_\_\_\_\_\_ \_
_pep pers
Ġdump lings
Ġdup licate
Ġ}{- }
ĠGol ovanov
Ġcaffe ine
/ Forum
C ubes
s urface
Â ½
Ġw B
ĠT alia
ear ing
_c oc
Ġj ennifer
Ġapp ended
Ġme iosis
_bound ary
ĠZ ach
Ġhand made
ark er
Ġen ables
Ġvis ibility
$) -/
den ominator
Ġstraw s
ĠMon otonically
Per cent
number ed
ĠGeometric Figure
Ġcot angent
âĢ² =
Ġlay ing
Ġcommun icate
_relationship s
:čĊ č
.F riday
Ġcheap est
Ġsaus ages
ĠItal ian
Ġenclos ures
Rob in
Ġdestroy ed
rema inder
O ct
Z X
f st
Ġ č
Ġb eta
Ġ$ "
Ġh ull
Ġh oses
Ġh Sum
Ġn C
Ġl ending
un o
Ġint erm
Ġst y
_d an
Ġdi als
Ġdi aper
ĠH appy
ag ues
ÃĹ \
Ġside Length
Ġrem ote
_le ap
Ġunder water
lg a
-t ax
_reci pe
Ġdeliver ies
ĠIsL inear
_cour se
Ro bert
Ġorphan age
_prem ium
' âŁ©
- water
r n
in oc
Ġp ythagorean
Ġ$ ",
Ġh eater
is joint
ĠA J
Ġk th
_s ome
Ġas pects
ĠH H
Ġsh ades
Ġli ved
Ġam anda
Ġcons iders
Ġ$- |-
ĠV ari
,$ $Ċ
_A DC
_v ac
Ġlast Digit
ank a
Ġseven s
Ġeight y
ĠCount er
_tw os
Ġveloc ities
duc ts
bott les
_short est
ĠTr ishul
_en ve
_eff ective
ĠMad eline
Ġbon nie
_vehic les
$âĭĤ $
) }$.-/
. id
/ dist
V ector
\ colon
] =-
b alanced
x s
Ð ľ
Ġan ne
Ġis Adjacent
ĠB rianna
em en
_p ool
ine tic
ĠP P
ra ined
ic ans
equ ation
ĠD omino
ĠH ans
pro jection
Ġcor onavirus
Th ird
Â° -
Ġmod ule
Ġtrans versal
_comp any
,d ashed
ĠJo el
ĠCol lect
after noon
With in
_bas ic
Ġmel ts
_circum center
dec imal
Ġhop ping
_cop lanar
Ġcarame ls
Ġrac ers
Multip ly
anth ia
Ġspect ators
Ġpec uliar
{div ides
Ġreveal ed
assem bled
Ġderang ement
! $Ċ
E N
I F
K E
M etric
in er
Ġâ ģ
Ġe mitted
em ann
Ġl ass
ad ults
Ġv c
ĠP V
ĠD BA
Ġpositive ly
ard ment
Ġsh all
ĠL o
ĠJ orge
ĠK os
ĠIs Square
Ġdes igning
-c ap
}$$ +
Ġsepar ates
Ġent r
Ġswim mers
Ġhab its
ĠStrict ly
Ġswitch ing
\_\_\_\_\_\_\_\_ \_\_\_\_
_long est
ĠSw iss
Ġkang aroo
Ġfauc ets
' =\
/ W
/ view
O Z
e za
al y
Ġh ood
Ġd ana
ĠT it
ang ents
ĠC BE
ĠS y
Ġv ip
Ġk icks
Ġ[ -\
ind ing
)^ ^
Ġas phalt
arith m
ven a
by she
Ġdef ault
Ġday light
Ġlog ically
uts ide
-s peed
=- (
Con nected
Ġbr ass
ĠCont Diff
{- }
{d x
tead y
Ġste aks
ĠCor poration
uri ties
Ġpill ars
_mo vie
Ġdemonst rates
Ġpitch ers
jack et
ĠGauss ian
Oli ver
Ġastron a
Ġcompar isons
byshe v
! $?
' -
( sqrt
A round
c y
s ym
er ie
al ways
Ġe ur
ul g
Ġ$\ [-
ĠF ield
)) $.ĊĊ
ay ing
Ġo y
Ġo ats
Ġrec onstruct
ĠK B
alf unction
Ġschool children
_ro utes
br and
Ġcap itals
$" ĊĊ
âĢ¦ +\
Ġaut o
_mo tion
Ġconven ient
Jim my
alindrom es
ĠYann ick
Ġsole ly
agh etti
) âī¤
C indy
E lement
d rops
e a
Ð ¿
Ġc urious
Ġf n
Ġt int
ĠB ee
li fting
Ġg ems
Ġv ases
)) $.-/
ĠD ale
Ġsh aken
Ġch unks
_b ird
}- |
ish al
ĠV el
}) \),
Ġcar a
Ġsal ads
to String
ĠIs Arithmetic
Ġwhite board
Ġkil ow
Ġsw allow
ik hs
ading Coeff
_color ed
Per iod
ĠColor ing
Ġunderstand ing
Ġabsc iss
ira vena
Ġfix ing
Ġforg otten
Ġbra kes
Ġwithdraw al
ĠDN A
Ġfriendship s
Ġrecomm end
Ã£ o
I L
\ choose
s atisfies
ĠB oston
Ġl ind
_n A
_n ineteen
_d ish
ĠO leg
enc er
Ġsp reads
pres ents
ber ta
\% $ĊĊ
Ġbec oming
ĠJan ous
ux e
Ġmail box
Ġ\_ \_\_
ĠTri angular
Ġblan ket
Ġchew ing
Ġdolph ins
ubric ants
< q
= DE
P yramid
] D
_ RS
Ġ ÑĤ
Ġb un
Ġb one
ĠR unning
Ġl end
Ġg rove
ĠThe o
orm s
_t ris
_f it
Ġcor poration
ĠEx ternal
ĠEx perim
ĠX u
Ġkn acks
Ġden se
Â° $,
ĠPro ject
ĠCh ong
Ġmem or
ĠAnd re
Ġsand als
ĠXia oy
Ġenc our
{S T
_ac c
lan tic
Ã¡ s
ĠCoin State
Ġci pher
Ġflor ist
_incl ination
Ġshutt lec
_ hel
b ages
m edium
n t
p oly
r in
Ġth umb
Ġp anes
an king
ig i
ur se
Ġinteg rable
Ġ. \
_in ternal
_sum mer
{x yz
Ġmo ons
Ġsub mitted
Ġbag u
Ġinr adii
+n y
Ġtyp ist
Ġhi kes
(k x
Ġmixt ures
Ġcall ing
ĠPR Q
_draw n
Ġdecor ation
Ġow ed
Ġrail road
Ġtub s
Ġsli ding
Ġeigen vector
che ll
ĠShel by
iforn ia
! \)
E ddy
_ .-/
_ YZ
d ie
å ı
Ġ$ âĬĻ
re ement
re pair
olog ous
frac tion
_n ights
ĠC ollinear
st roke
Ġcon tiguous
ĠP ast
\) :ĊĊ
Ġas cent
ĠH a
Ġj ungkook
Ġro oster
ater n
_r andom
Ġ_ ))
In verse
\), ĊĊ
adi a
Ġcost B
Ġtri mm
_g rocer
ecess ity
wh ose
)} }\
Ġed itors
ou thern
Ġcount erexamples
king ham
Ġsepar ating
Ġ(Â· âīł
ier re
discount ed
nic ians
-st ory
ĠSk ylar
Ġslip pers
_requ ire
Rec all
ĠBeat rice
Ġpant ry
- red
R andy
S ur
S oph
j une
t rip
or ic
Ġ( {(
Ġc sc
Ġd ads
Ġg race
Ġg enders
ĠS hip
_d oor
Ġun d
Ġhe ather
ĠCo ach
_h ot
Ġ$| |
ĠAfter ward
ĠAl lie
mo oth
Ġstack ing
Ġ# {
digit Sum
_conc ave
Ġcow ork
_high est
Ġtrom bone
Ġteac ups
Ġmicroorgan isms
R each
h Îµ
t achary
t iny
{ January
} g
or ary
op hy
Ġf ear
ĠB hat
_p A
ĠC ape
ot ype
_t owels
_l ights
ĠO K
$\ %$
}$. ĊĊĊ
_g bp
ĠV eg
_con verse
}) \).
Ġtrans istors
ĠEnd Arrow
_ch erry
Ġlist ening
Ġsit es
Ġseven teen
_AB E
}\\) ;
_log s
be autiful
hu ah
Ġdest inations
ĠReg arding
ĠTr uck
Ġsetting s
Ġjose ph
ĠLinear Independent
_brown ies
Ġty phoon
lot te
Ġtoothp ick
tachary a
ĠBhat tacharya
) }$$
Z W
m eat
å ®
an j
Ġr ivers
Ġx ia
ĠA k
um es
ĠM ork
Ġl unches
ur b
_c lear
Ġst ability
ĠH ave
Ġline ups
Ġbl ouses
_re vised
Ġunits ize
Ġad vent
(C h
Ġprob B
Ġpig eon
Ġcream s
Ġ\; \;
PQRS T
Ġdough nut
Ġsurv iving
Ġwa ist
Comb ine
Ġsund aes
_brace let
Ġbomb ardment
ĠCes aro
$ )$,
' ĊĊ
- large
/ AC
T T
Ġa w
in is
ĠM iles
ir ate
id a
Ġg lit
Ġk Ã©
ĠI lya
_c oun
el ope
âĪ Ĺ
ĠL iter
ĠO ld
ĠO wen
ĠIn grid
ĠG A
}} )\
Ġwork force
Ġcub ed
ĠV ectors
\}$ ?Ċ
ĠAB Q
_bo unce
Ġorder ings
ou ches
Ġ$[ (
Ġda wn
Ġcap ita
.) ĊĊĊ
_te lesc
Or iginal
Ġcal orie
Ġbusiness men
ĠStrict Anti
Ġcharacter ize
ĠEl ena
âĪ© N
ĠMag ic
Ġphotograph er
ĠÃ ¢
ĠRub y
success ful
Ġ((âĨĳ )
) %
- comp
/ i
: |
T oday
h right
m ile
t ors
u phill
or el
Ġb attle
ĠA ctual
Ġto es
rac tice
Ġex center
ĠE ccent
_t okens
ĠL esha
Ġshe pher
Ġmid way
ha f
wh eat
ob el
ĠLine Relation
Ġproportion ally
Ġsuit cases
ĠSur face
apan ese
Ġinfer ior
Ġinsp ect
Ġfeb ruary
Ġchop ped
.W ednesday
_mw f
$ i
' âĢĸ
+ BC
B ound
J enna
] }Ċ
n subseteq
z na
Ð Ŀ
Ġb right
Ġp Tick
ti er
Ġf oo
Ġr p
ĠM oney
ĠM oon
_p hi
Ġg abri
ĠS ABC
ab rina
Ġpoint ed
Ġwe aker
sin B
Ġti ered
Ġexpress ible
}} ,Ċ
ĠâĪļ (-
)\ ,
ĠK aleb
Ġnext Term
Ġquar tile
Ġcompe ti
ĠComp aring
Ġpet e
ev a
_li ars
au tical
Ġhealth care
Ġcarbon ated
-ax es
ĠJess ie
ĠRest aurant
chem e
Ġble ach
Ġenclos ure
Ġinno vation
Ġcertific ate
) âĪļ(
- end
D ouble
T oss
h de
r ength
s nd
} Î±
Ġm ug
Ġn autical
ĠM ik
}$ :ĊĊ
Ġbe aker
ĠD rew
Ġpar ks
ud rey
Ġun related
Ġmin ivan
pec ify
Ġinter changed
Ġel f
ĠG rowth
form ed
$- $
Ġacc idents
_am t
ĠDi amond
ĠâĪļ( (-
)| =|
ta ils
_int ake
Ġsepar ation
}}+ (
Ġseason al
Four Digit
_he avy
ĠIII I
ĠGr isha
Ġren umber
Ġinflu enza
Ġoh ms
< t
B etty
] $?
h DE
j oys
m ay
w he
ed e
ĠS atisfies
it able
ount ed
Ġro ger
Ġal arm
Ġsp icy
olum ns
Ġrel atives
Ġsw amp
}^* )$.ĊĊ
,E E
ĠPh ilip
bur ger
Ġhall way
Ġpreser vation
Ġaff ects
Ġ$\_\_\_\_\_\_ $
_shop ping
âĤį âĤĻ
Ġdand elion
/view topic
$ ï¼Ľ
' ).
; $
D r
h total
} }^{\
å °
in vest
Ġt ricks
ĠF ruit
ĠC onsecutive
ĠS and
ur ers
_c uc
Ġas leep
ud ia
_g ender
ĠWe i
ĠCon figuration
Ġparallel ism
ril led
to uch
Ġid le
ĠSh er
-----| --------
Ġorgan izes
Ġstor ing
ĠMart a
bas ketball
Ġrating s
Ġbary centric
Ġpregn ant
Ġ(Â·âīł Â·)
* left
- related
. k
C ard
c ode
j oon
n ets
p ast
v estment
} AB
Ġth reat
Ġf ined
ol s
ĠT etrahedron
ĠM T
Ġma d
ĠF I
ab itha
_m ike
ĠTh eresa
Ġinter ns
_k id
rection al
Ġsubs cribes
ĠRe ading
inu ity
{A A
Ġbreak down
con n
}}+ {
-e limination
Ġmy ster
ĠMin istry
week end
Re ading
Ã¡ n
cccc cccc
$ rd
F ollowing
U pper
_ +
c one
j erry
{ It
er ving
er ia
Ġ= =
Ġr igid
ce ived
he jiang
ad as
Ġk inetic
Ġall er
ĠH F
_f at
Ġwas n
ĠCo mplementary
** -/
ĠAC M
_left over
); //
Ġ______ ;<
ĠMar ble
_water mel
Ġinform ed
Ġpers im
rian a
_cl ose
ĠCol lection
Ġsail boat
rest ricted
Ġpup il
ĠJess e
Ġban quet
) r
) }-
= âĪļ
[ center
Ġ }}{
Ġa ugust
le ys
os pital
ent a
ĠF V
ĠS old
Ġst ap
Ġtotal ed
Ġti lt
Ġmin Fac
Ġapp rox
ex circle
sum ed
---- |--------
}} )$.
Ġop posing
exp ansion
Ġpaint able
MN P
St ratified
ĠPB A
Ġgar rison
_CD E
Ġ________ ______.
och ka
ĠIsS ymmetric
_ke pt
Ġhexadec imal
-fl avor
$ ï¼İ
E X
P ipe
Z Mod
k an
Ġh roots
Ġf ract
ĠB art
Ġy f
ĠS ag
_s isters
ĠP olly
ĠD L
ĠE unji
ĠH unter
Ġj azz
est ing
_f arm
Ġterm ite
_b io
ĠG reat
ĠJ udy
rib uted
ke eping
Ġqu oted
âĢ ĥ
_h ambur
ian n
_v owels
_st aff
ĠZ ack
Ġboard ing
{C H
Ġsk ittles
urr ences
_rel ations
Ġste ep
)=( $
Ġbrick layer
Ġseed ling
Ġ+âĪŀ ),
Ġlos ers
Ġspin sters
amer as
Ġdemonst ration
high way
_att ended
Ġroy alties
consider ing
ĠTok yo
( abc
C BD
E L
O pen
] L
_ ia
l ery
t agged
| \),
å ¤
Ġb ud
al ong
Ġl oy
ĠC ubs
_{ +
ic ip
ĠD omain
il der
pr etty
ĠO range
ure a
Ġ} }
ĠJ acqu
Ġsc reens
\}$ ?
add ie
Ġrec overy
Ġout going
draw ing
Ġoff spring
... \
}}\ ]Ċ
-f ocal
ĠCont est
ope z
lo ads
uli flower
Ġlock ed
ĠQuadr ants
ĠOut put
ĠClear ly
ĠMan u
rich let
Ġphr ases
ĠâĹ ĩ
Ġcompart ment
_ow es
L ike
` Ċ
l ateral
m aster
y er
} :\
er tia
Ġm erry
Ġd ops
ĠA Z
}{ |\
st able
ĠP lant
ĠP ho
)) =\
Ġbe verages
im b
ĠW olf
rom inoes
_m ars
_t unnel
Ġro ast
Ġintro duction
ĠO re
alle lepi
Ġbox cars
}) _{
ĠAlex is
ĠLe vel
aper ones
PQRS TU
Ġwest ward
Ġtreas urer
emic ircles
Ġencount ering
_rear ranged
Ġattack ing
Ġmagn ified
Ġwar riors
_note book
ĠGeorg ia
Ġstrateg ies
$ -\
B l
J une
j ason
Ġs ketch
Ġpro bable
ĠB R
em ed
Ġto String
Ġco ast
Ġco co
ĠE N
ric ket
}} (\
ha mp
_h oles
Ġmem orized
-f iction
Ġmanip ulating
AE D
war f
{Q B
ĠCl ar
.M onday
)âĭħ (
Bob by
âĸ ¡
Ġoccasion ally
);// ,
' P
B rian
B uy
n ows
y ang
Ġh ears
id an
Ġcon suming
im ent
ĠE laine
Ġcan al
âĪ ĺ
Ġun colored
_b racket
ĠCo ok
_g l
if i
^( |
)\ %$
ters ects
}\) ?Ċ
-x yz
'' $,
}| +\
-s imilar
_ge ese
An ton
ove ls
ĠSte wart
Ġvi ctor
big ail
Ġmas ha
_ques tion
Ġcontradict ory
]A uthor
Ġpersim mons
' ?
B S
\ }\\)Ċ
_ cell
c line
h J
} âĪĪ
Ġ= -
Ġc el
Ġ\ ,$
ĠA rm
qu ar
Ġl y
_n inety
_c as
_d resses
ĠD ev
Ġhas n
oun gest
ag ement
Ġti ff
Ġpass words
Ġsp okes
ĠY vonne
ific ations
Ġemp i
Ġrep ay
Ġmat inee
Ġcle ver
{al ways
Ġdon ating
.t ail
_tri chotomy
ĠPer iod
Ġcommit ted
onst rate
Di agonal
ĠRec ursive
Ġcarbon ate
ĠBl ake
ÃŃ k
_cart on
ĠVas ily
Ġbenef it
Ġenh ance
Ġiv y
reshm en
elder ly
Ġrout ine
% ?
) tan
- tech
P Z
g ue
n n
{ rem
Ġ }$Ċ
Ġ- >
Ġh U
as urable
ĠF P
ĠF re
ĠC ameron
ĠW anda
ĠH ind
_l abor
_f abric
AB B
Ġcl aire
Ġinv isible
oo jung
_par titions
_sh oe
Ġen joys
ĠPl ay
Ġprob A
Ġgarden ing
ĠXia oli
Ġconcent rations
_pack et
Ġjohn son
Ġtele visions
}^{* })$,
rack er
Al gebraic
Ġmas hed
integ ers
Ġrob ins
]+ [
_rab bit
Xia oming
âĪ« _{
Ġconvey or
Strict Mono
$ (-
> m
? čĊ
R ep
\ }=\
h and
h sin
s eats
Ġb ruce
Ġw ording
ĠM alcolm
Ġy olanda
ul ing
ent ric
Ġv a
), \]
ĠP CD
)) $;Ċ
am ie
Ġti t
fl at
_le mons
{b etween
âĢ ĵ
*d own
Ġfill ings
ĠCar lson
Ġsand ra
_base ball
ĠSimp lified
Ġran cher
-g ame
_reg ression
-color ing
ĠRos y
hyp otenuse
Ġcompris ed
Ġconcaten ating
Ġspect ator
Ġfauc et
ĠHam ilton
( ABC
- G
W ins
X D
} ),Ċ
Ġs teady
Ġm r
ĠB in
ĠB each
Ġl ou
Ġl uke
un yak
_n ond
Ġk rist
)) *((
ass andra
Ġ& \\Ċ
}} |=
Â° ))
{{ {({{
Ġgeneral ized
Ġrepl acements
Ġann ulus
anc he
Ġpresent ation
limin ate
lo an
Ġconver tibles
_sur veys
Ġmer ch
Di rect
Ġmel anie
Ġcoll ap
inf lection
Ġsed an
Ġalternative ly
Ġbage ls
: C
N H
Ġh gcd
Ġe ve
ĠB inary
ĠC PA
Ġk olya
ĠE lect
am ong
_t asks
Ġli d
eld a
ĠY es
tra pezoid
trac e
ĠCD B
mph ib
_point ers
{O F
/c olumn
Ġempty ing
_qu izzes
)! ))
Ġclub suit
ĠAr ts
ait lin
_class rooms
Ġpump ing
Ġillust ration
Ġmonitor ing
_gen uine
direct ed
_fro gs
Ġkab adi
Ġredes igned
Ġhypoth etical
_require ment
ĠEccent ricity
( [
* H
- war
. Prove
D iana
N one
O L
c ubes
o ving
in ches
Ġ- âĪļ(
le ks
ĠR ect
Ġin ward
ot er
ĠP o
ĠP ine
_work ing
ĠW y
ĠD X
ĠD CA
Ġmin er
}} _{
}} }=\
Ġop t
_th row
trac ted
dist ribution
âĪĪ A
_S I
-e ven
Ġoctagon al
Ġ; -
ĠVi olet
_ti e
Reg ions
ĠAg ain
Ġali ve
Char lie
Ġtrous er
Luc as
ĠBrit tany
Ġsinusoid al
allelepi ped
Ġempi rical
) R
* right
= }
D X
F ibonacci
N Q
b orn
x x
Ġb inders
ĠR az
Ġd aps
Ġd ancers
ĠM uslim
us hed
ĠS hy
he ll
Ġ\) **:Ċ
Ġsum Of
over ty
Ġhe aps
ĠV iv
Ġup loaded
{A rea
Ġstop page
.) [/
Ġfair y
{F D
Ġbul lets
Ġ\_\_\_\_\_\_\_\_ .-/
Li ar
Ġsubcom mittee
ĠMort eza
R R
c offee
d p
u cos
z el
è ¿
Ġs il
Ġp om
an ion
Ġw orn
_s lee
}\ }$.-/
_t on
_t reats
ĠL incoln
ace y
Ġgre m
Ġ[âĨĲ (
_B P
Ġrece ption
-y uan
land o
_rec ord
Ġcheck out
{k g
John ny
ĠSe lection
seq A
âĬ ķ
ĠMin or
Ġsnow balls
------| ------|Ċ
^+ $
ĠMarg aret
ucos e
" ?ĊĊ
% .ĊĊ
) }$.ĊĊ
B á¶ľ
M iss
X X
\ multicolumn
d omain
r ush
{ ft
} ),\
ĠF lash
ĠC ory
}$ čĊ
Ġz ones
Ġpar liament
ph ysics
_l hs
tain ing
The y
_b order
Ġcont acts
Ġexp edition
Ġhx z
ĠY ura
_ro ck
Ġab road
ren e
hab ited
Ġsw ing
olor ed
Ġ[- âĪļ
ĠSum mer
hk a
Ġelect rical
})\ \)Ċ
ĠMon otonicity
.S ubset
ĠPat ricia
Ġdeb ts
Ġ_______ .ĊĊ
_cand idates
Ġtris ected
Ġmail boxes
Ġevapor ates
Ġdecl ares
_birth day
ĠDar ren
Ġcontrac ted
_borrow ed
ĠBuc kingham
' R
C orrect
J er
L ower
m f
Ġx B
ig an
eal ing
ĠB aba
Ġma ya
ĠF M
ĠS olid
Ġ> Ċ
)) =$
am ber
Ġti tle
In Plane
)= |\
rect angular
adi e
Ġbl owing
ari ums
ĠK OH
)} .\]
Ġpre f
Ġcircum radii
}| $;
}}$ ;<
Ġatt ach
Ġlat te
Ġrub ies
_coeff s
Ġwra ps
_ph ysics
Dec idableEq
Ġarch ite
ĠMic key
Ġmarking s
Ġmarg inal
gi ene
ĠTam my
Ġlawy er
$ M
. Thursday
; čĊ
< z
H aley
K olya
X Q
d rew
n an
} r
Ġ tic
er en
Ġr ichard
ig or
ĠM S
ath ons
og urt
id eal
_s undays
ic er
Ġst acy
ĠE g
_m vt
ty a
Ġinc omp
Ġcalc ium
}} )=\
Ġcommon ly
_h olds
rang er
_e uros
Ġref uses
_qu ot
Is abella
Ġeff orts
ĠMin nie
Ġegg plants
Ġfr anc
ĠOly a
ĠMag nitude
ĠSim ultaneously
Ġdiss ected
Ġlas agna
Ġspan ning
.differentiable At
Ġviol in
Ġcamps ite
permut ations
-flavor ed
( Î³
\ }\)Ċ
d etermine
e mp
h def
l argest
Ð Ľ
Ġt ension
Ġe lla
ĠA va
Ġv C
ĠP eggy
ĠW Z
ĠW ilson
_t endsto
od ka
ĠL abel
ĠL ila
Ġmin ib
ĠO R
old en
ĠIn vestig
Ġtr uff
ip l
)( âĪļ
Ġcomple ments
Ġ$$ [
arc y
ext ension
ĠâĮĬ ((
ĠAl uminum
BE C
loc al
Ġshoot ers
&\ $
pher ic
Ġprep ares
_short er
Ġhus k
Ġtrailing Zeros
ĠSUV s
Ġfram ed
Ġhdisc r
Ġwil ted
ĠLiter ature
) h
/ SâĤĻ
L ocal
{ }(
Ġh Î´
ĠA ri
Ġpro hib
_work sheets
Ġj et
Ġj uan
Ġdiffer enti
ous el
Ġcol on
Th ese
Ġmon o
^{\ \
.s econd
Ġpre vention
ĠCh andra
Ġconc erning
Ġ\_\_\_\_\_\_ .$
max imum
Ġslant ed
Ġmanufact ured
.M onic
Ġlay over
Ġalloc ates
}=\_\_\_\_\_\_ $.-/
ais ies
bro ider
Ġcompet es
_jack et
More over
ĠAsh ley
Ġ=![![ (
ĠReasoning Type
Ġpap ayas
_contain ers
ĠLizz ie
zna ika
icip al
& X
C ap
H B
Y Y
_ eats
c yclic
l ank
m ake
n m
z ek
le ted
Ġf ermat
ĠR aghu
}{ }\\\
Ġk unks
ĠTh ose
Ġapp end
Ġal bert
Ġinc idence
_g rass
Ġve l
_B A
}| $ĊĊ
})$ $Ċ
_C l
Ġlo ading
Con n
Of Two
Ġwalk er
oph antine
Least One
ubo id
Ġtail or
col ors
.strong Induction
Ġcompress ed
Ġexha us
_fra me
ĠSag haf
! ^
( unitcircle
S ample
\ overset
c ustom
n B
w ill
y ield
} Î¸
Ð ·
Ġb old
Ġm alfunction
Ġn ectar
Ġan tip
ĠB anana
li ct
ath alie
ĠF ried
ch air
ĠD il
Ġor n
_eq s
ha an
ys sa
Ġrec ipes
ne ous
Ġde licious
Ġvari ed
hc oprime
_me ans
-h ours
ĠCar ly
Is abel
Ġeff ectiveness
---------------- --------
path s
_ser vice
Al ong
Ġjan itor
Ġprec ip
_return ed
_board ers
_enc los
Ġinn ermost
_inst all
Ġfigur ines
]âĪª [
_spr inters
Ġabsciss as
unyak ovsky
+ ),
S ection
^ T
n f
Ġh seq
Ġn il
Ġr ugs
ĠA cc
Ġl unks
olog ists
_w ings
ĠP y
ĠI gor
ĠW X
_m owing
pi zz
rove ment
_f ox
ĠO T
)= \\)
ĠJ K
Ġcent res
Ġgra bb
ĠV ova
Ġpre fers
)* -/
cal ories
}}$ ;Ċ
_sc ar
\} .
work er
^(- (
mar ried
Ġflower ing
_ti re
ĠEl mer
_mp m
Ġol iver
Sub set
=$______ ;
_gu ess
Mo ves
_daugh ter
Ġintellig ence
) Q
* pt
C OD
M isha
S olid
\ land
_ ram
h urt
s implify
Ġf ur
Ġw ard
ĠB ret
ear nings
_n one
Ġg erald
ch ips
ok i
_w ickets
Ġ| -(
_d x
_d etermine
ĠD etailed
BC DE
and ler
ag en
Ġlin etype
_f requency
ĠQ N
ĠV ik
_e uro
ĠAn imal
Ġass igning
ĠâĬ ĩ
PQ S
Ġhyp oten
ĠDi richlet
_odd s
áµ Ĳ
_de ath
_end point
.T uesday
_rep eat
Ġ(âĮĬ (
-length s
Ġclo ud
Ġfluctu ating
Integ ers
anth u
ĠNum erical
Trip les
ĠSaghaf ian
- edge
. imp
. base
> )
E uler
G reen
X W
_ GH
i per
m ales
| .\]
} bc
Ġs age
Ġis ThreeDigit
ĠT olya
ot ers
_s m
ĠI gn
ud ies
Ġsm ith
Ġcost A
Ġins titute
Ġax iom
}) }$
par allelogram
âĢĸ /
Ġsymm edian
ĠIs Parallel
ave l
{B O
Ġra ffle
Ġsand cast
Ġstrong est
ĠIr reducible
ĠCal ifornia
}ï¼Į \
Ġcelebr ated
Ġsus pended
haw ks
ĠFl oor
Poly hedron
_pol itics
[...]
