{"<|endoftext|>":0,"<|im_start|>":1,"<|im_end|>":2,"<|object_ref_start|>":3,"<|object_ref_end|>":4,"<|box_start|>":5,"<|box_end|>":6,"<|quad_start|>":7,"<|quad_end|>":8,"<|vision_start|>":9,"<|vision_end|>":10,"<|vision_pad|>":11,"<|image_pad|>":12,"<|video_pad|>":13,"!":14,"\"":15,"#":16,"$":17,"%":18,"&":19,"'":20,"(":21,")":22,"*":23,"+":24,",":25,"-":26,".":27,"/":28,"0":29,"1":30,"2":31,"3":32,"4":33,"5":34,"6":35,"7":36,"8":37,"9":38,":":39,";":40,"<":41,"=":42,">":43,"?":44,"@":45,"A":46,"B":47,"C":48,"D":49,"E":50,"F":51,"G":52,"H":53,"I":54,"J":55,"K":56,"L":57,"M":58,"N":59,"O":60,"P":61,"Q":62,"R":63,"S":64,"T":65,"U":66,"V":67,"W":68,"X":69,"Y":70,"Z":71,"[":72,"\\":73,"]":74,"^":75,"_":76,"`":77,"a":78,"b":79,"c":80,"d":81,"e":82,"f":83,"g":84,"h":85,"i":86,"j":87,"k":88,"l":89,"m":90,"n":91,"o":92,"p":93,"q":94,"r":95,"s":96,"t":97,"u":98,"v":99,"w":100,"x":101,"y":102,"z":103,"{":104,"|":105,"}":106,"~":107,"¡":108,"¢":109,"£":110,"¤":111,"¥":112,"¦":113,"§":114,"¨":115,"©":116,"ª":117,"«":118,"¬":119,"®":120,"¯":121,"°":122,"±":123,"²":124,"³":125,"´":126,"µ":127,"¶":128,"·":129,"¸":130,"¹":131,"º":132,"»":133,"¼":134,"½":135,"¾":136,"¿":137,"À":138,"Á":139,"Â":140,"Ã":141,"Ä":142,"Å":143,"Æ":144,"Ç":145,"È":146,"É":147,"Ê":148,"Ë":149,"Ì":150,"Í":151,"Î":152,"Ï":153,"Ð":154,"Ñ":155,"Ò":156,"Ó":157,"Ô":158,"Õ":159,"Ö":160,"×":161,"Ø":162,"Ù":163,"Ú":164,"Û":165,"Ü":166,"Ý":167,"Þ":168,"ß":169,"à":170,"á":171,"â":172,"ã":173,"ä":174,"å":175,"æ":176,"ç":177,"è":178,"é":179,"ê":180,"ë":181,"ì":182,"í":183,"î":184,"ï":185,"ð":186,"ñ":187,"ò":188,"ó":189,"ô":190,"õ":191,"ö":192,"÷":193,"ø":194,"ù":195,"ú":196,"û":197,"ü":198,"ý":199,"þ":200,"ÿ":201,"Ā":202,"ā":203,"Ă":204,"ă":205,"Ą":206,"ą":207,"Ć":208,"ć":209,"Ĉ":210,"ĉ":211,"Ċ":212,"ċ":213,"Č":214,"č":215,"Ď":216,"ď":217,"Đ":218,"đ":219,"Ē":220,"ē":221,"Ĕ":222,"ĕ":223,"Ė":224,"ė":225,"Ę":226,"ę":227,"Ě":228,"ě":229,"Ĝ":230,"ĝ":231,"Ğ":232,"ğ":233,"Ġ":234,"ġ":235,"Ģ":236,"ģ":237,"Ĥ":238,"ĥ":239,"Ħ":240,"ħ":241,"Ĩ":242,"ĩ":243,"Ī":244,"ī":245,"Ĭ":246,"ĭ":247,"Į":248,"į":249,"İ":250,"ı":251,"Ĳ":252,"ĳ":253,"Ĵ":254,"ĵ":255,"Ķ":256,"ķ":257,"ĸ":258,"Ĺ":259,"ĺ":260,"Ļ":261,"ļ":262,"Ľ":263,"ľ":264,"Ŀ":265,"ŀ":266,"Ł":267,"ł":268,"Ń":269,"ĠĠ":270,"th":271,"Ġ:":272,"Ġa":273,"in":274,"or":275,"at":276,"Ġ(":277,"Ġth":278,"er":279,"Ġâ":280,"Ġb":281,"Ġ-":282,"on":283,"en":284,"al":285,"Ġs":286,"ĠĠĠ":287,"Ġthe":288,"Ġ=":289,"Ġp":290,"Ġ$":291,"of":292,"ĊĊ":293,"es":294,"op":295,"Ġh":296,"Ġc":297,"Ġ+":298,"Ġ\\":299,"le":300,"is":301,"ti":302,"ar":303,"an":304,"ro":305,"Ġf":306,"Ġ--":307,"Ġm":308,"Ġof":309,"Ġt":310,"Ġn":311,"mp":312,"Ġ:=":313,"ĠR":314,"Ġ*":315,"Ġr":316,"Ġan":317,"âĤ":318,"et":319,"Ġby":320,"Ġx":321,"ve":322,"imp":323,"ac":324,"Ġe":325,"ĠâĪ":326,"Ġd":327,"ĠâĦ":328,"Ġw":329,")Ċ":330,"Ġin":331,"ig":332,"ort":333,"Ġis":334,"Ġand":335,"tion":336,"import":337,"ĠA":338,"ol":339,"um":340,"eal":341,"ĠT":342,"re":343,"Ġpro":344,"ĠB":345,"qu":346,"li":347,"ing":348,"ĠReal":349,"Ġha":350,"em":351,"ed":352,"ts":353,"os":354,"eg":355,"Ġto":356,"Ġ/":357,"Ġle":358,"ĠN":359,"ĠM":360,"ri":361,"per":362,"ath":363,"tb":364,"ĠâĦĿ":365,"ĠĠĠĠ":366,"set":367,"Ġproof":368,"og":369,"Ġma":370,"ear":371,"Ġhave":372,"Ġ<":373,"ĠâĪ§":374,"ors":375,"orem":376,"Ġy":377,"Ġl":378,"ĠNat":379,"us":380,"Ġmax":381,"Ġthat":382,"ĠĊ":383,"un":384,"eorem":385,"eat":386,"ir":387,"theorem":388,"option":389,"eats":390,"ators":391,"open":392,"ĠMath":393,"olog":394,"lib":395,"ology":396,"ĠRat":397,"esop":398,"Oper":399,"ĠTop":400,"_option":401,"Hear":402,"ĠBig":403,"ĠMathlib":404,"ĠAesop":405,"tbeats":406,"ĠmaxHear":407,"ĠmaxHeartbeats":408,"ĠTopology":409,"Operators":410,"ĠBigOperators":411,"Ġâī":412,"iv":413,"te":414,"as":415,"ec":416,"Ġ\\(":417,"rac":418,"_p":419,"Ġi":420,"end":421,"ang":422,"$,":423,"ry":424,"Ġex":425,"ers":426,"ow":427,"id":428,"ati":429,"ul":430,"}{":431,"âĤģ":432,"frac":433,"ce":434,"_n":435,"orry":436,"Ġsorry":437,"Ġg":438,"Ġnum":439,"ent":440,"Ġ$\\":441,"ith":442,"ĠF":443,"ĠC":444,"Ġare":445,"ĠS":446,"Ġnumb":447,"--":448,"he":449,"Ġon":450,"ad":451,"Ġend":452,"}$":453,"Ġv":454,"ly":455,"om":456,"Ġk":457,"Ġint":458,"Ġ[":459,"igh":460,"ch":461,"bo":462,"ĠĠĠĠĠ":463,"Ġfor":464,"sq":465,"ur":466,"oin":467,"act":468,"egin":469,"rt":470,"âĤĤ":471,"ĠâĨ":472,"ok":473,"sqrt":474,"_w":475,"ot":476,"ĠâĦķ":477,"ight":478,"_s":479,"ork":480,"ation":481,"Ġat":482,"Ġwh":483,"ll":484,"),":485,"Ġ>":486,"Ġwith":487,"ine":488,"Ġbegin":489,"st":490,"Ġcon":491,"Ġlet":492,"ĠP":493,"iven":494,"_{":495,"]Ċ":496,"it":497,"ere":498,"book":499,"Ġexact":500,"/Ċ":501,"Ġ:Ċ":502,"_work":503,"ĠâĨĴ":504,"_workbook":505,"Ġlean":506,"me":507,"^{":508,"Ġnumber":509,"Ġequ":510,"))":511,"ra":512,"ĠI":513,"ct":514,"/--":515,"}\\":516,"Ġbe":517,"$.":518,"Ġrw":519,"ind":520,"Ġpoin":521,"ft":522,"lus":523,"Given":524,"Ġ-/Ċ":525,"ay":526,"ĠThe":527,"angle":528,"Ġ\\)":529,"âĤĢ":530,"Ġâī¤":531,"ver":532,"ic":533,"ge":534,"ate":535,"(x":536,"ab":537,"tex":538,"ue":539,"ist":540,"_c":541,"orm":542,"iti":543,"_plus":544,"equ":545,"les":546,"ĠâĪĢ":547,"Ġst":548,"ach":549,"Ġ/-":550,"Ġval":551,"Ġco":552,"ĊĊĊ":553,"Ġpos":554,")^":555,"irc":556,"ain":557,"ction":558,"-/":559,")$":560,"right":561,"Ġthen":562,"quad":563,"Ġ{":564,"_num":565,"Ġnorm":566,"Ġsu":567,"Ġo":568,"wo":569,".sqrt":570,"im":571,"ff":572,"tal":573,"Ġ|":574,"ut":575,"ĠW":576,"Ġtotal":577,"ĠĠĠĠĠĠĠĠ":578,"alc":579,"{(":580,"_d":581,"Ġz":582,"ĠĠĊ":583,"ĠÂ":584,"ess":585,"ĠD":586,"el":587,"rom":588,"irst":589,"riangle":590,"Ġper":591,"Ġbo":592,"ence":593,"\\)":594,"erm":595,"Ġfun":596,"Ġâīł":597,"Ġdi":598,"Ġring":599,"ĠIf":600,"Ġsum":601,"ĠE":602,"Ġall":603,"Ġas":604,"Ġpoint":605,"our":606,"are":607,"Ġeach":608,"__":609,"Ġfrom":610,"Ġtwo":611,"eq":612,"ĠFin":613,"Ġor":614,"ents":615,"âĤĥ":616,"Ġhas":617,"Ġsid":618,"Ġnumbers":619,"eng":620,"se":621,"ĠH":622,"Ġvalue":623,"Ġfunction":624,".Ċ":625,"oun":626,"am":627,"Ġequation":628,"itive":629,"Ġcan":630,"ĠÂ·":631,"ength":632,"ĠÎ":633,"Ġinteg":634,"tic":635,"textb":636,"textbf":637,"ition":638,"ect":639,"ub":640,"_m":641,"pe":642,"ity":643,"âĪ":644,"il":645,"ĠGiven":646,"Ġcirc":647,"Ġpositive":648,"ard":649,"Ġequal":650,"Ġwe":651,"Ġif":652,"pp":653,"row":654,"Ġpar":655,"Ġdist":656,"pi":657,"Ġpl":658,"Ġsh":659,"Ġman":660,"left":661,"Ġone":662,"ange":663,"Ġâī¥":664,"ion":665,"Ġtriangle":666,"Ġline":667,"ble":668,"ĠWh":669,"BC":670,"'s":671,"_t":672,"Ġres":673,"od":674,"\\_":675,"and":676,"ĠTh":677,"alcul":678,"Ġj":679,"all":680,"ud":681,"ph":682,"ree":683,")}\\":684,"ĠL":685,"Ġsqu":686,"qquad":687,"Ġthis":688,"pr":689,"Ġch":690,"over":691,"Ġsuch":692,"Ġwhere":693,"Ġpoints":694,"ĠâĪĥ":695,"ag":696,",Ċ":697,"mple":698,"Â²":699,"sin":700,"ond":701,"Ġ$(":702,"Ġsequ":703,"ty":704,"Ġq":705,"Ġmany":706,"est":707,"_l":708,"val":709,"Ġlin":710,"ore":711,"uct":712,"ĠâĪĪ":713,"Ġfirst":714,"ots":715,"Ġsimp":716,"}$,":717,"Ġdiv":718,"ase":719,"Ġreal":720,"math":721,"_eq":722,"Ġang":723,"Ġit":724,"Ġsequence":725,"ount":726,"ef":727,"Ġro":728,"Ġprove":729,"Ġun":730,"Ġcos":731,"cos":732,"Ġti":733,"inal":734,"_pos":735,"fy":736,"##":737,"ant":738,"age":739,"Ġ(-":740,"oll":741,"Ġmin":742,"Ġlength":743,"rove":744,"tain":745,"ance":746,"up":747,"Ġhe":748,"Ġus":749,"ĠWhat":750,"ĠĠĠĠĠĠĠ":751,"$Ċ":752,"}+":753,"ĠFind":754,"_f":755,"Ġfind":756,"Ġarea":757,"Ġterm":758,"ther":759,"cd":760,"neg":761,"Ġwhi":762,"oc":763,"Ġthan":764,"alculate":765,"Ġpr":766,"Ġcircle":767,"*x":768,"Ġfi":769,"ĠâĦļ":770,"arith":771,"ak":772,"its":773,")/":774,"Ġthere":775,"Ġne":776,"tep":777,"Ġre":778,"ater":779,"ass":780,"_r":781,"ays":782,"Ġform":783,"dd":784,"ose":785,"rice":786,"Ġintro":787,"ffer":788,"Ġ_":789,"Ġ(âĪ":790,"ĠO":791,"text":792,"ute":793,"arrow":794,"peed":795,"ular":796,"ast":797,"one":798,"ug":799,"cc":800,"Ġsa":801,"ĠFinset":802,"Ġsquare":803,"ÃĹ":804,"Ġapp":805,"econd":806,"old":807,"ible":808,";Ċ":809,"rightarrow":810,"Ġthree":811,").":812,"Ġal":813,"ust":814,"_of":815,"imum":816,":Ċ":817,"Ġ\\\\":818,"ord":819,"log":820,"âĤĦ":821,"Ġside":822,"Ġnot":823,"ĠProve":824,"ome":825,"_per":826,"equal":827,"Ġset":828,"tive":829,"ĠHow":830,"ases":831,"Ġdiffer":832,"ax":833,"press":834,"ric":835,"Ġits":836,"overrightarrow":837,"ies":838,"Ġconst":839,"ong":840,"\\_\\_":841,"Ġangle":842,"The":843,"Ġany":844,"ĠâĪ¨":845,"}=":846,"mes":847,"Real":848,"mathb":849,"ill":850,"ution":851,"und":852,"ugh":853,"Ġinters":854,"ter":855,"Ġ^":856,"ĠÃĹ":857,"pec":858,"_non":859,"we":860,"otal":861,"{\\":862,"ues":863,"Ġsides":864,"Ġ.":865,"fl":866,"ary":867,"Ġ((":868,"ial":869,"Ġ%":870,"_b":871,"ollow":872,"atis":873,"In":874,"Ġinc":875,"atio":876,"Ġinteger":877,"Ġfollow":878,"ero":879,"Ġintegers":880,"pro":881,"Ġ=>":882,"},":883,"Ġsecond":884,"Ġwhich":885,"Ġse":886,"$\\":887,"Ġsatis":888,"ili":889,"alle":890,"*(":891,"ĠCalculate":892,"Ġli":893,"range":894,"Ġmust":895,"Ġlinarith":896,"ween":897,"etween":898,"itial":899,"art":900,"ĊĠĠĊ":901,"ven":902,"Ġboth":903,"_nonneg":904,"how":905,"Ġcond":906,"Ġdo":907,"eterm":908,"iz":909,"_in":910,"$ĊĊ":911,"cent":912,"ment":913,"olution":914,"Ġbetween":915,"Ġtra":916,".I":917,"Ġcondition":918,"ans":919,"Ġstud":920,")=":921,"Let":922,"Ġrem":923,"ĠFirst":924,"ex":925,".pi":926,"ide":927,"Ġterms":928,"ure":929,"ane":930,"bs":931,"raw":932,"____":933,"ruct":934,"Ġ\\),":935,"Ġquad":936,"Ġcom":937,"Ġver":938,"}}{":939,"ĠÎ±":940,"ĠĠĠĠĊ":941,"ves":942,"}$.":943,"ility":944,"leq":945,"ĠFor":946,"rime":947,"Ġinequal":948,"mplex":949,"ack":950,"}$Ċ":951,"circ":952,"bab":953,"ĠSet":954,"Ġme":955,"ĠShow":956,"Ġdig":957,"Ġ}":958,"ĠIn":959,"fter":960,"Ġmul":961,"Ġtr":962,"Ġvalues":963,".range":964,"air":965,"etermine":966,"Ġhour":967,"Ġ\\).":968,"rect":969,"Ġresul":970,"\\),":971,"Ġequals":972,"ĊĠĠĠĠĊ":973,"_sum":974,"Ġright":975,"Ġnon":976,"adi":977,"bability":978,"Ġprop":979,"Ġsame":980,"own":981,"))Ċ":982,"AB":983,"Ġinter":984,")$,":985,"Ġwhen":986,"ists":987,"eld":988,"ĠLet":989,"Ġprod":990,"Ġsome":991,"Âł":992,"Ġpol":993,"Ġcalc":994,"oint":995,"Ġfollowing":996,"?-/":997,"Ġ\"":998,"Ġ,":999,"pha":1000,"Ġexpress":1001,"sible":1002,"}-":1003,"rough":1004,"(-":1005,"Ġdistance":1006,"\\textbf":1007,"Ġgiven":1008,"alpha":1009,"pend":1010,"eter":1011,"(\\":1012,"ks":1013,"Ġstep":1014,"ost":1015,"Ġsm":1016,"_nf":1017,"ection":1018,"_a":1019,"eta":1020,"Ġtime":1021,"Ġcomp":1022,"cho":1023,"ĠâĪ§Ċ":1024,"proof":1025,"Ġ##":1026,"ffic":1027,"Ġspeed":1028,"Ġconstruct":1029,"lify":1030,"_pro":1031,"Ġdivis":1032,"Ġwas":1033,"Ġam":1034,"ace":1035,"by":1036,"{a":1037,"ĠCo":1038,"ĠâĪĳ":1039,"sum":1040,"_simp":1041,"ally":1042,"âĤħ":1043,"ous":1044,"ĠABC":1045,"ative":1046,"cdot":1047,"Ġinto":1048,"Ġsin":1049,"Ġfinal":1050,"ĠU":1051,"ĠQ":1052,"zero":1053,"Ġinequality":1054,"mathbb":1055,"Ġthrough":1056,"Ġfour":1057,"Ġfield":1058,"ite":1059,"Ġcol":1060,"geq":1061,"allel":1062,"Ġpossible":1063,"/(":1064,"Ġprobability":1065,"Ġwill":1066,"ffici":1067,"metic":1068,"ip":1069,"ap":1070,"Ġ$\\{":1071,"Ġsolution":1072,"Ġel":1073,"ons":1074,"Ġstudents":1075,"Ġcost":1076,"Ġother":1077,"able":1078,"Ġtheir":1079,"Ġapply":1080,"etric":1081,"Ġ&":1082,"Ġcor":1083,"ĠâĦ¤":1084,"Ġmore":1085,"Ġar":1086,"line":1087,"Ġtak":1088,"ertain":1089,"rith":1090,"Ġthese":1091,"ĠG":1092,"Ġwhat":1093,"Ġratio":1094,"rithmetic":1095,"pective":1096,"If":1097,"Ġtri":1098,"Ġorig":1099,"Ġrfl":1100,"ordin":1101,"adius":1102,".-/":1103,"_g":1104,"Ġcl":1105,"-/Ċ":1106,"Ġcertain":1107,"Ġrespective":1108,"Ġinitial":1109,"if":1110,"Ġyear":1111,"tit":1112,"Ġbl":1113,"ABC":1114,"mm":1115,"Ġrect":1116,"**":1117,"âŁ":1118,"Ġpass":1119,"Ġshow":1120,"Ġleft":1121,"Ġarithmetic":1122,"Ġshe":1123,"tip":1124,"ĠJ":1125,"ates":1126,"Ġsq":1127,"_val":1128,"ãĢ":1129,"ola":1130,"Ġcent":1131,"Ġdec":1132,"Ġprice":1133,"arg":1134,"Ġrespectively":1135,"ĠĠĠĠĠĠĠĠĠĠĠĠĠĠĠĠ":1136,"agon":1137,"Ġsc":1138,"Ġonly":1139,"dots":1140,"âŁ©":1141,"verage":1142,"=\\":1143,"ãĢĢ":1144,"Ġgre":1145,"ving":1146,"Ġhy":1147,"Ġconstructor":1148,"Ġexactly":1149,"Ġhis":1150,"ĠâŁ":1151,"Ġ\\(\\":1152,"ares":1153,"ĠâŁ¨":1154,"Ġhow":1155,"time":1156,"_le":1157,"Ġleast":1158,"uc":1159,"Ġdivid":1160,")$.":1161,"dfrac":1162,"Ġcons":1163,"Ġquadr":1164,"Ġexpression":1165,"Ġcont":1166,"omial":1167,"Ġdifferent":1168,"Ġpoly":1169,"?Ċ":1170,"Fin":1171,"atic":1172,"lip":1173,"ÏĢ":1174,"ations":1175,"}^{":1176,"card":1177,"\\right":1178,"Ġ(âĪĢ":1179,"\\[":1180,"area":1181,"$(":1182,"Ġsy":1183,"Ġ$-":1184,"Ġusing":1185,"Ġadd":1186,");Ċ":1187,"Th":1188,"Ġmaximum":1189,"ive":1190,"Ġdef":1191,"Ġplane":1192,"_price":1193,")--":1194,"rib":1195,"Ġmon":1196,")(":1197,"ĠâĢ":1198,"actor":1199,"Ġexp":1200,"reas":1201,"Ġresult":1202,"iff":1203,"mon":1204,"ĠâĨĶ":1205,"eters":1206,"ens":1207,"blem":1208,"Ġaverage":1209,"----":1210,"ish":1211,"}}":1212,"Ġbase":1213,"Ġrange":1214,"^(":1215,"Ġminimum":1216,"Ġuse":1217,"Ġno":1218,"_re":1219,"ke":1220,"ird":1221,"Ġneed":1222,"Ġabs":1223,"enc":1224,"\\qquad":1225,"Ġdoes":1226,"Ġwork":1227,"{x":1228,"aining":1229,"ĠEx":1230,"Ġexists":1231,"ĠX":1232,"_mul":1233,"_lt":1234,"der":1235,"ateral":1236,"triangle":1237,"Ġsatisfy":1238,"Ġgra":1239,"Ġtang":1240,"Ġafter":1241,"_area":1242,"isc":1243,"Find":1244,"Ġve":1245,"pos":1246,"Ġcub":1247,"ĠThen":1248,"Ġmo":1249,"rop":1250,"Ġmar":1251,"Ġcoordin":1252,"{b":1253,"ĠWe":1254,"Ġproduct":1255,")/(":1256,"ice":1257,"+\\":1258,"times":1259,"Ġday":1260,"rix":1261,"ĠV":1262,"Ġget":1263,"Ġpi":1264,"Ġmid":1265,"ĠThere":1266,"omb":1267,"Ġseg":1268,"Ġdigits":1269,"Ġradius":1270,"ĠâĪļ":1271,"lant":1272,"ĠÂ¬":1273,"_time":1274,"Ġmi":1275,"rad":1276,"Ġsp":1277,"ÂłÂł":1278,"Ġtheorem":1279,"implify":1280,"Ġred":1281,"Ġthey":1282,"Ġte":1283,"_div":1284,"}Ċ":1285,"ined":1286,"Ġlines":1287,"Ġtimes":1288,"ments":1289,"Ġpercent":1290,"\\}$":1291,".log":1292,".ĊĊ":1293,"Ġ\\\\(":1294,"Ġpe":1295,"Ġhours":1296,"cases":1297,"utes":1298,"very":1299,"ha":1300,"ys":1301,"Ġpair":1302,"Ġop":1303,"+b":1304,"ket":1305,"add":1306,"ĠAB":1307,"Ġcontain":1308,"âĤĨ":1309,"Ġplay":1310,"ize":1311,"fficient":1312,"ldots":1313,"idth":1314,"{R":1315,"Ġkn":1316,"Ġbut":1317,"Ġher":1318,"lipse":1319,"Wh":1320,"_dist":1321,"slant":1322,"atrix":1323,"enti":1324,"ches":1325,"Ġmultip":1326,"urn":1327,"Ġsub":1328,"Ġdraw":1329,"âĨ":1330,".Icc":1331,"icular":1332,"pendicular":1333,"\",":1334,"ari":1335,"..":1336,"Ġdays":1337,"Ġreg":1338,"Ġsquares":1339,"uld":1340,"Ġvertic":1341,"Ġball":1342,")\\":1343,"oints":1344,"nomial":1345,"inct":1346,"ĠĠĠĠĠĠĠĠĠ":1347,"Ġden":1348,"Ġhx":1349,"*a":1350,"*y":1351,"_zero":1352,"_length":1353,"Ġcur":1354,"Ġqu":1355,"ĠCon":1356,"total":1357,"ects":1358,"olum":1359,"_bo":1360,"âĢ":1361,"Ġcenter":1362,"raction":1363,")^{":1364,"Ġremaining":1365,"fies":1366,"Ġcommon":1367,"Ġfe":1368,"_rate":1369,"âĳ":1370,"_count":1371,"ĠSimplify":1372,"angles":1373,"Ġrate":1374,")--(":1375,"titute":1376,"pres":1377,"##Ċ":1378,"ople":1379,"Ġthem":1380,"(a":1381,"atur":1382,"Ġtangent":1383,"day":1384,"begin":1385,"ĠÎ¸":1386,"abel":1387,"ĠComplex":1388,"Ġrec":1389,".sin":1390,"Ġvect":1391,"Ġless":1392,"ars":1393,"_total":1394,"lect":1395,"ram":1396,"ĠStep":1397,"Ġoriginal":1398,"Ġamount":1399,"âĨĲ":1400,"Ġproper":1401,"Ġparallel":1402,"ometric":1403,"wer":1404,"Ġellipse":1405,"ell":1406,"Ġ[âĨĲ":1407,"ound":1408,"Ġunits":1409,"lest":1410,"Ġabo":1411,"ning":1412,"Î±":1413,"Ġangles":1414,"point":1415,"}+\\":1416,"Ġtrain":1417,"^n":1418,"overline":1419,"\\sqrt":1420,"Finset":1421,"Ġins":1422,"igit":1423,"olve":1424,"_one":1425,"red":1426,"Ġup":1427,"ĠK":1428,"olume":1429,"\\left":1430,"Ġdid":1431,"AC":1432,"-\\":1433,"_neg":1434,"Ġodd":1435,"Ġsatisfies":1436,"\\).":1437,"_con":1438,"Ġevery":1439,"}$ĊĊ":1440,"sub":1441,"cl":1442,"ower":1443,"Ġminutes":1444,"Ġperpendicular":1445,"^\\":1446,"_cost":1447,"ĠUse":1448,"Ġfraction":1449,"reasing":1450,"Ġwere":1451,"Ġeven":1452,"Ġdistinct":1453,"ĠSub":1454,"Ġrel":1455,"),Ċ":1456,"uch":1457,"Ġge":1458,"fty":1459,"Ġinterval":1460,"Ġeq":1461,"choose":1462,"_h":1463,"Ġax":1464,"ĠâĪ£":1465,"_speed":1466,"Ġnew":1467,"Ġdifference":1468,"Ġhold":1469,"Ġcorrect":1470,"Ġbox":1471,"Ġrepres":1472,"ated":1473,"âĤĻ":1474,"Nat":1475,"alf":1476,"((":1477,"ĠÎ²":1478,"roup":1479,"ards":1480,"Ġpeople":1481,"(\"":1482,"Ġprime":1483,"Ġgraph":1484,"ek":1485,"ude":1486,"Ġ____":1487,"ters":1488,"infty":1489,"Ġstat":1490,"Ġroots":1491,"allest":1492,"Ġpolynomial":1493,"Ġquadratic":1494,"ss":1495,"ider":1496,"ame":1497,"ĠBC":1498,"ĠDetermine":1499,"^{\\":1500,"pm":1501,"nd":1502,".card":1503,"Ġtrue":1504,"Ġintersection":1505,"ĠâĨĴĊ":1506,"Ġso":1507,"Ġheight":1508,"-d":1509,",-":1510,"eriv":1511,"oor":1512,"osition":1513,"Ġvertices":1514,"Ġlarg":1515,"ale":1516,"Ġsmallest":1517,"als":1518,"ne":1519,"mathbf":1520,"ecess":1521,"Ġans":1522,"ĠComb":1523,"Ġout":1524,"Ġdisc":1525,"rm":1526,"Ġind":1527,".$":1528,"axis":1529,"Ġnatur":1530,"ĠY":1531,"Ġ$|":1532,"Ġnatural":1533,"Ġyears":1534,"ties":1535,"Ġcoun":1536,"Ġfl":1537,"ofit":1538,"ĠCombine":1539,"lin":1540,"ula":1541,"âĪļ":1542,"Ġcho":1543,"Ġbook":1544,"Ġgeometric":1545,"Ġdivisible":1546,"ither":1547,"mathrm":1548,"Ġintersects":1549,"exp":1550,"ement":1551,"Ġlog":1552,"lic":1553,"*b":1554,"led":1555,"âĤĩ":1556,",\\":1557,"ber":1558,"fore":1559,"Ġthird":1560,"rid":1561,"tan":1562,"ls":1563,"ould":1564,"ĠThis":1565,".cos":1566,"label":1567,"cdots":1568,"Ġdivided":1569,"Ġbu":1570,"})":1571,"min":1572,"ĠHe":1573,"Ġcoe":1574,"vi":1575,"Ġsmall":1576,"?ĊĊ":1577,"Ġrectangle":1578,"(n":1579,"Ġrow":1580,"hn":1581,"inder":1582,"\\_\\_\\_\\_":1583,"ator":1584,"Ġcomplex":1585,"stem":1586,"ian":1587,")ĊĊ":1588,"ĠEach":1589,"[/":1590,"$.-/":1591,"Ġintersect":1592,"abola":1593,"Ġlong":1594,"andom":1595,"ix":1596,"Ġorder":1597,"wh":1598,"_add":1599,"ĠSubs":1600,"_ratio":1601,"draw":1602,"Ġmeters":1603,"Ġstart":1604,"lop":1605,"Â°":1606,"Ġsegment":1607,"Ġac":1608,")}":1609,"Ġanswer":1610,".mp":1611,"vers":1612,"Ġed":1613,"+y":1614,"$.Ċ":1615,"Ġad":1616,"ants":1617,"Ġdigit":1618,"_iff":1619,"Ġtw":1620,"theta":1621,"Ġu":1622,"imeter":1623,"Ġmiles":1624,"yc":1625,"Ġ(âĪĳ":1626,"Ġpiec":1627,"Ġcomple":1628,"Ġgroup":1629,"mul":1630,"radic":1631,"Ġhalf":1632,"ĠWhen":1633,".f":1634,"ecessary":1635,"Ġrandom":1636,"Ġcar":1637,"-neg":1638,"Ġlies":1639,"Ġkm":1640,"Ġholds":1641,"ĠSubstitute":1642,"âŁ©Ċ":1643,"_two":1644,"ting":1645,"Ġparabola":1646,"Ġcm":1647,"Ġele":1648,"Ġmonth":1649,"par":1650,"ĠAC":1651,"_k":1652,"\\in":1653,"Ġmuch":1654,"Ġmidpoint":1655,"rang":1656,"Ġcases":1657,"Ġfoc":1658,"ign":1659,")*(":1660,"ray":1661,"chool":1662,"Ġwater":1663,"Ġtan":1664,"alculation":1665,"Ġexist":1666,"not":1667,"Ġconditions":1668,"+c":1669,"tra":1670,"crib":1671,"Ġsystem":1672,"ril":1673,".s":1674,"Ġclass":1675,"Ġsell":1676,"Ġwho":1677,"For":1678,"_left":1679,"tt":1680,"_value":1681,"ump":1682,"iqu":1683,"rection":1684,"Ġdiagon":1685,"}(":1686,"erson":1687,"Ġgo":1688,"ild":1689,"}\\)":1690,"Ġpre":1691,"Ġvertex":1692,"beta":1693,"Ġknown":1694,",$":1695,"Ġtriangles":1696,"Ġcoin":1697,"\\]":1698,"Ġpart":1699,"ements":1700,"$-/":1701,"Ġabout":1702,"ich":1703,"perb":1704,"ĠExpress":1705,"oney":1706,"form":1707,"Ġhad":1708,"ype":1709,"Ġformula":1710,"ou":1711,"Ġfeet":1712,"Ġcube":1713,"radiction":1714,"Ġde":1715,"Ġfactor":1716,"ities":1717,"ĠBegin":1718,"$-":1719,"ie":1720,"Ġpercentage":1721,"Ġunit":1722,"Ġvolume":1723,"-digit":1724,"fun":1725,"Ġweek":1726,"rees":1727,"Ġblue":1728,"Ġob":1729,":ĊĊ":1730,"ameter":1731,"ru":1732,"Ġcircum":1733,"ick":1734,"Ġequations":1735,"Ġover":1736,"What":1737,"Ġcolor":1738,"perbola":1739,"Ġcurve":1740,"Ġsal":1741,"leqslant":1742,"cribed":1743,"Ġrepresent":1744,"âĤĪ":1745,"hx":1746,"##ĊĊ":1747,"Ġcomb":1748,"co":1749,"_bound":1750,"Ġdirection":1751,"rilateral":1752,"so":1753,"Ġvari":1754,"âĦ":1755,"Ġcoordinates":1756,"angular":1757,"cm":1758,"ĠIt":1759,"ross":1760,"Ġzero":1761,".choose":1762,"_e":1763,"Ġdeg":1764,"Ġwri":1765,"Ġwin":1766,"res":1767,"$;":1768,"pl":1769,"Ġspec":1770,"_right":1771,"Ġ\\[":1772,"));Ċ":1773,"Ġdefined":1774,"posite":1775,"ges":1776,"inite":1777,"Ġproposition":1778,"ma":1779,"def":1780,"Ġballs":1781,"{cases":1782,"ages":1783,"Ġ$[":1784,"ĠâĢ¢":1785,"ific":1786,"_A":1787,"\\}$,":1788,"Ġprofit":1789,"_th":1790,"čĊ":1791,"(A":1792,"Ġour":1793,"to":1794,"rease":1795,"ymm":1796,"_y":1797,"Ġtwice":1798,"ise":1799,"Ġhyperbola":1800,"Ġpasses":1801,"hb":1802,"Ġalso":1803,"uan":1804,"ner":1805,"oth":1806,"_problem":1807,"Ġgreater":1808,"Ġcircles":1809,"out":1810,"Ġmain":1811,"Ġcount":1812,"ĠPro":1813,"Ġopposite":1814,"Ġpa":1815,"Ġweight":1816,"Ġ(âĪĥ":1817,"_x":1818,"utive":1819,"ABCD":1820,"_v":1821,"_st":1822,"Ġfact":1823,"Ġquadrilateral":1824,"lope":1825,"âĢĸ":1826,"Ġperson":1827,"Ġschool":1828,"{pm":1829,")))":1830,"Ġresults":1831,"Ġtakes":1832,"Ġcontradiction":1833,"Ġselect":1834,"ock":1835,"{pmatrix":1836,"{}":1837,"Ġneg":1838,"lt":1839,"aces":1840,"floor":1841,"/x":1842,"Ġinches":1843,"other":1844,"alse":1845,"Ġmod":1846,"Ġroot":1847,"^x":1848,"riend":1849,"-x":1850,"Ġsufficient":1851,"trac":1852,"Ġperimeter":1853,"Ġtrave":1854,"ique":1855,"_we":1856,"Ġvectors":1857,"iod":1858,"_squ":1859,"Ġlargest":1860,"Ġtake":1861,"abs":1862,"imal":1863,"Ġtrans":1864,"\\\\":1865,"Ġrun":1866,"ĠNow":1867,"+a":1868,"ecutive":1869,"Ġcoordinate":1870,")$Ċ":1871,"Ġregular":1872,"ector":1873,"div":1874,"Ġrema":1875,"_ro":1876,")**":1877,"Ġlast":1878,"ual":1879,"ames":1880,"ĠMain":1881,"Ġchoose":1882,"ational":1883,"Ġsatisfying":1884,"Ġconstant":1885,"Ġderiv":1886,"atch":1887,");":1888,"ĠCh":1889,"Ġteam":1890,"Ġâī¡":1891,"$.ĊĊ":1892,"Ġlengths":1893,"ways":1894,"ĠFinal":1895,"Ġfive":1896,"Ġsymm":1897,"ĠProp":1898,"Ġdiscount":1899,"ily":1900,"_percent":1901,"ĠShe":1902,"ĠIs":1903,"ĠAn":1904,"Ġcalculate":1905,"neq":1906,"omin":1907,"/-":1908,"Ġdetermine":1909,"Ġpairs":1910,"_sub":1911,"arge":1912,"Prove":1913,"_distance":1914,"_B":1915,"_min":1916,"Ġage":1917,"ions":1918,"tern":1919,",b":1920,"Ġbooks":1921,"\\\\)":1922,"where":1923,"$\",":1924,"\\pi":1925,"ron":1926,"ĠâĢĸ":1927,"Ġmean":1928,"Ġhb":1929,"âĤī":1930,"/a":1931,"Â³":1932,"ircle":1933,"Ġdrawn":1934,"ces":1935,"upp":1936,"Ġmeas":1937,"Ġcand":1938,"uction":1939,"Ġnecessary":1940,"ega":1941,",y":1942,"linarith":1943,"Ġproves":1944,"Ġ______":1945,"clude":1946,"Ġvalid":1947,"Ġyuan":1948,"Ġincreasing":1949,"Ġyour":1950,"ted":1951,"Ġconsecutive":1952,"hip":1953,"-negative":1954,"Ġproblem":1955,"Ġways":1956,"Ġremainder":1957,"Ġcards":1958,"{{":1959,"ĠĠĠĠĠĠĠĠĠĠĠ":1960,"ia":1961,"asy":1962,".m":1963,"Ġmoney":1964,"$?":1965,"(\"$":1966,"ĠRs":1967,"ied":1968,"Ġproperty":1969,"ln":1970,"ĠâĨ¦":1971,"eturn":1972,")*":1973,"xed":1974,"_i":1975,"CD":1976,"Ġbas":1977,"Ġsur":1978,"ener":1979,"ling":1980,"$$Ċ":1981,"Ġwhose":1982,"Ġalways":1983,"Ġrcases":1984,"xt":1985,"{N":1986,"Ġdoll":1987,"br":1988,"Ġconc":1989,"Ġeither":1990,"ught":1991,"Ġsets":1992,"Ġstand":1993,"_co":1994,"hed":1995,"Ġposition":1996,"ake":1997,"Ġinv":1998,"de":1999,"ĠĠĠĠĠĠ":2000,"Ġtrip":2001,"Ġsubs":2002,"''":2003,"_ex":2004,"elf":2005,"Ġwhite":2006,"Ġcontains":2007,"_prod":2008,"valu":2009,"uce":2010,"_ne":2011,"Ġwidth":2012,"uring":2013,"Ġscor":2014,"}{\\":2015,"ĠâĦĤ":2016,"Ġsimplify":2017,"Ġsteps":2018,"celes":2019,"_sq":2020,"Ġamong":2021,"osceles":2022,"âģ":2023,"ob":2024,"Ġbound":2025,"{y":2026,"Ġorigin":2027,"ĠEnd":2028,"Ġrequ":2029,"Ġfriend":2030,"Ġpur":2031,"king":2032,"Ġelse":2033,"Ġsold":2034,"pow":2035,"ives":2036,"AD":2037,"Ġblack":2038,"array":2039,"Ġgame":2040,"onsider":2041,"Ġrece":2042,"Ġarrang":2043,"vity":2044,"Ġ\\]Ċ":2045,"ĠSt":2046,"ĠInt":2047,"pt":2048,"Ġpassing":2049,").ĊĊ":2050,"Ġformed":2051,"ood":2052,"tions":2053,"}x":2054,"/h":2055,"=\\{":2056,"lish":2057,")$ĊĊ":2058,"_mod":2059,"Ġsolutions":2060,"rent":2061,"ads":2062,")^(":2063,"ĠÏ":2064,"ticket":2065,"omega":2066,"Ġbis":2067,"ote":2068,"{array":2069,"}|":2070,"Ġass":2071,".exp":2072,"uts":2073,"Ġobtain":2074,"use":2075,"gon":2076,"xy":2077,")=\\":2078,"ĠAfter":2079,"*c":2080,"Ġoff":2081,"/>":2082,"ĠZ":2083,"Ġnlinarith":2084,"Ġear":2085,"Ġmake":2086,"Ġmed":2087,"Ġsix":2088,"Determine":2089,"ample":2090,"ilter":2091,".P":2092,"(B":2093,"ical":2094,"Ġwal":2095,"Ġloc":2096,"av":2097,"ott":2098,"ved":2099,"_diff":2100,"_solution":2101,"efine":2102,"Ġ$$":2103,"ines":2104,"Ġhn":2105,"{n":2106,"ycle":2107,"Ġext":2108,"Ġtoge":2109,"Ġtogether":2110,"int":2111,"ĠTheorem":2112,"Ġanother":2113,"Ġperiod":2114,"Ġsph":2115,"Ġcase":2116,"ĠTherefore":2117,"Ġid":2118,"Ġmeet":2119,"ĠFinally":2120,"com":2121,"Ġcomplete":2122,"Ġold":2123,"Ġseconds":2124,"Ġdown":2125,"ilateral":2126,"EF":2127,"rans":2128,"geqslant":2129,"Ġrectangular":2130,"Ġdenomin":2131,"Ġhk":2132,"-s":2133,"onic":2134,"Ġgrid":2135,"Ġpow":2136,"Ġvector":2137,"Ġstudent":2138,"the":2139,"tten":2140,")).":2141,"vd":2142,"fect":2143,"Ġmonot":2144,"âĦĿ":2145,"ences":2146,"inary":2147,"Ġhc":2148,"ĠÂ¬(":2149,"Ġbeing":2150,")+":2151,"bers":2152,"Ġslope":2153,"_\\_\\_\\_\\_":2154,"osed":2155,"(C":2156,"There":2157,"Ġwould":2158,"ked":2159,"gs":2160,"ucc":2161,"Ġ\\\\Ċ":2162,"ats":2163,"ired":2164,"Ġpieces":2165,"âĮ":2166,"Ġtable":2167,"Ġbuy":2168,"Ġab":2169,"vious":2170,"Ġproperties":2171,"otes":2172,"lection":2173,"gcd":2174,"irls":2175,"verse":2176,"bles":2177,"ren":2178,"-a":2179,"round":2180,"Ġ$$\\":2181,"}^":2182,"Ġmultiple":2183,"Ġinscribed":2184,"Ġdollars":2185,"Ġbag":2186,"Ġsegments":2187,"Ġplan":2188,"Ġfollows":2189,"Ġgreen":2190,"Ġcosts":2191,"oes":2192,"ĠConclude":2193,"parallel":2194,"ult":2195,"ils":2196,"mpute":2197,"ĠOn":2198,"aced":2199,"+x":2200,"ĠâĪ©":2201,"Ġpound":2202,"ward":2203,".mpr":2204,"ately":2205,"\\%":2206,"-b":2207,"oo":2208,"ĠâĬ":2209,"OD":2210,"perp":2211,"ï¼":2212,"Ġfocus":2213,"}_{":2214,"Ġelements":2215,"fficients":2216,"Ġprevious":2217,"ĠÏĢ":2218,"bra":2219,"Ġemp":2220,"_ge":2221,"_contra":2222,"ating":2223,"_pl":2224,"*n":2225,"points":2226,"PQ":2227,"Ġcell":2228,".Prime":2229,"Ġag":2230,"rox":2231,")]Ċ":2232,"Ġrelations":2233,"_to":2234,"ĠCD":2235,"-axis":2236,"Ġisosceles":2237,"jac":2238,"ulation":2239,"ior":2240,"tract":2241,"Ġchild":2242,"^k":2243,"uppose":2244,"Ġdirect":2245,"Ġweigh":2246,"}=\\":2247,"Ġ($":2248,"Ġgener":2249,"Ġfunctions":2250,"Ġcoefficients":2251,"_on":2252,"Ġbott":2253,"ify":2254,"Ġpain":2255,"Co":2256,"Ġaxis":2257,"gebra":2258,"Ġequilateral":2259,"-y":2260,"unction":2261,"Ġ\\{":2262,"height":2263,"Ġ(\\":2264,"ream":2265,"igure":2266,"Ġaddition":2267,"Ġquadrant":2268,"valuate":2269,"Ġmonotonic":2270,"Ġconsider":2271,"jacent":2272,"Ġ?":2273,"vert":2274,"Ġ/-Ċ":2275,"_equ":2276,"Ġwritten":2277,"ĠSolve":2278,"Ġcross":2279,"\\end":2280,"for":2281,"Ġtax":2282,"Ġinterest":2283,"Ġyou":2284,"Ġdivides":2285,"Ġpurch":2286,"way":2287,"Ġsubset":2288,"Ġsmaller":2289,"atest":2290,"Ġ\\_\\_\\_\\_\\_":2291,"Ġbought":2292,"{c":2293,"oy":2294,"ĠPoints":2295,"Ġser":2296,"ib":2297,"ince":2298,"vg":2299,"Ġcannot":2300,"Ġscore":2301,"--------":2302,"ĠRe":2303,"itivity":2304,"Ġwhile":2305,"ouse":2306,"Ġdiameter":2307,"_line":2308,"Ġstatements":2309,"How":2310,"face":2311,"Ġdes":2312,"Ġround":2313,"_sqrt":2314,"Ġ\\((":2315,"ected":2316,"_calc":2317,"Ġhigh":2318,"amp":2319,"ps":2320,"II":2321,"Ġtype":2322,"_angle":2323,"Ġdecimal":2324,"Ġrelationship":2325,".filter":2326,"Ġneeds":2327,"On":2328,"tical":2329,"ingle":2330,"Ġreach":2331,"Then":2332,"Ġperfect":2333,"Ġpartic":2334,"Ġcalculation":2335,"^{-":2336,"ared":2337,"Ġticket":2338,"Ġdegrees":2339,"Ġboys":2340,"_di":2341,"Ġproduc":2342,"lif":2343,"\\{":2344,"_gt":2345,"Ġused":2346,"Ġoper":2347,"ĠAD":2348,"num":2349,"ee":2350,"Ġmost":2351,"Ġdistrib":2352,"cal":2353,"oid":2354,"Ġcoins":2355,"ress":2356,"_ch":2357,"inition":2358,"MOD":2359,"Ġhyp":2360,"_weight":2361,"Ġ$(\\":2362,"rict":2363,"ĠFrom":2364,"enter":2365,"Ġnext":2366,"pply":2367,"Ġunique":2368,"gt":2369,"\\sin":2370,"Ġim":2371,"_un":2372,"Ġrandomly":2373,"ides":2374,"Ġhand":2375,"Ġlie":2376,"Ġinside":2377,"\\[Ċ":2378,"lies":2379,"wise":2380,"Ġlarge":2381,"Ġspecific":2382,"lusion":2383,"Ġparts":2384,"ables":2385,"ift":2386,"_is":2387,"omain":2388,"hedron":2389,"ĠSince":2390,"Ġmarbles":2391,"ĠTotal":2392,"Ġexce":2393,"Ġmem":2394,"$$":2395,"Ġpower":2396,"Ġback":2397,"oss":2398,"hc":2399,"Ġapples":2400,"Ġmeasure":2401,"Ġinequalities":2402,"_range":2403,"Ġbel":2404,"_or":2405,"Ġselling":2406,"Ġbus":2407,"Ġcong":2408,"ave":2409,"_three":2410,"Ġref":2411,"Ġrep":2412,"Ġedge":2413,"igits":2414,"Ġsolve":2415,"ral":2416,"Ġsphere":2417,"_hour":2418,"(D":2419,"Ġ$(-":2420,"Ġfourth":2421,"ablish":2422,"Ġfalse":2423,"this":2424,"Ġkil":2425,"pez":2426,"Ġdiagonal":2427,"Ġbre":2428,"Ġadjacent":2429,"Ġedges":2430,"arc":2431,"Ġboxes":2432,"urs":2433,"Ġrational":2434,"Ġstandard":2435,"Ġselected":2436,"\\cos":2437,"/b":2438,"Ġmath":2439,"}-\\":2440,"Ġturn":2441,"(b":2442,"Ġ)":2443,"\\]Ċ":2444,"inu":2445,"Ġalgebra":2446,"})$":2447,"_equal":2448,";>":2449,"Ġ<;>":2450,"ĠPoint":2451,"}}$":2452,"Î¸":2453,"Ġrest":2454,"Ġplayer":2455,"ole":2456,"Ġcoefficient":2457,"Ġsem":2458,"rite":2459,"![":2460,"_side":2461,"Ġimp":2462,"Ġpay":2463,"da":2464,"$:":2465,"ĠDefine":2466,"ĠâĮ":2467,"Ġshould":2468,"Ġtop":2469,"osen":2470,".symm":2471,"Ġsymmetric":2472,"ext":2473,"ellow":2474,"any":2475,"Ġstore":2476,")x":2477,"=-":2478,"]$":2479,"Ġchord":2480,"Ġques":2481,"Ġgirls":2482,"_final":2483,"ĠAs":2484,"_calculation":2485,"Ġkg":2486,"Ġpolar":2487,"roxim":2488,"_par":2489,"Ġnumer":2490,"Ġgreatest":2491,".gcd":2492,"ÂłÂłÂłÂł":2493,"Ġproj":2494,"Ġacc":2495,"_def":2496,"mod":2497,"Ġpounds":2498,"ances":2499,"_inc":2500,"_not":2501,"\\frac":2502,"Ġreceive":2503,"iss":2504,"ohn":2505,"Ġ).ĊĊ":2506,"Ġgeneral":2507,"Ġfigure":2508,"Ġshown":2509,"mong":2510,"pezoid":2511,"Ġmade":2512,"imil":2513,"vex":2514,"Ġboard":2515,"Ġinf":2516,"imilar":2517,"-c":2518,"Calculate":2519,"Ġabove":2520,"Ġchosen":2521,"Ġfaces":2522,"Ġcomput":2523,"initial":2524,"pond":2525,"Ġsales":2526,"ĠLine":2527,"Ġcook":2528,"Ġstatement":2529,"anges":2530,"\\text":2531,"Ġdiagonals":2532,"Ġ:=Ċ":2533,"Ġbefore":2534,"_height":2535,"ool":2536,"ĠâĪª":2537,"Ġmil":2538,"odd":2539,"oted":2540,"Ġsize":2541,"_ine":2542,"Ġparalle":2543,"âĮĭ":2544,"_self":2545,"ĠCase":2546,"...":2547,"ures":2548,"Ġequality":2549,"_pow":2550,"Ġ\\_\\_\\_\\_\\_\\_":2551,"kes":2552,"ets":2553,"_me":2554,"hA":2555,"Ġalong":2556,"Ġ-(":2557,"Ġpath":2558,"oot":2559,"{A":2560,"Ġev":2561,"ĠAt":2562,"Ġapproxim":2563,"circle":2564,"}$-/":2565,"|\\":2566,"Ġgames":2567,"Ġstar":2568,".d":2569,"Ġspend":2570,"aginary":2571,"amma":2572,"_triangle":2573,"ank":2574,"cap":2575,"Ġdomain":2576,"Ġ)Ċ":2577,"ĠApply":2578,"Ġarc":2579,"Ġ\\).Ċ":2580,"ĠTo":2581,"Ġstr":2582,".logb":2583,")\\)":2584,"_width":2585,"_C":2586,"Ġsurface":2587,"airs":2588,"'ll":2589,"Ġcompute":2590,"enn":2591,"ĠThey":2592,"oly":2593,"_j":2594,"Ġincrease":2595,"Ġ$-\\":2596,"Ġfixed":2597,"ricity":2598,"Ġlarger":2599,"Ġda":2600,"Ġconn":2601,"Ġstarting":2602,"inear":2603,"respond":2604,"Ġcurrent":2605,"fer":2606,"Ġpolygon":2607,"*m":2608,"Ġpiece":2609,"alls":2610,"Ġdenominator":2611,"ings":2612,"ĠTwo":2613,"Ġpack":2614,"ided":2615,"logram":2616,"etry":2617,"_square":2618,"Ġhex":2619,"Ġitem":2620,"(y":2621,":âĦĿ":2622,"_max":2623,"eck":2624,"Ġest":2625,"Ġtrapezoid":2626,"ansion":2627,"ush":2628,"Ġcut":2629,"ns":2630,"thod":2631,"duce":2632,"At":2633,"Ġcubic":2634,";ĊĊ":2635,"ata":2636,"lim":2637,"lls":2638,"sh":2639,"Ġacute":2640,"Consider":2641,"Ġgives":2642,"yl":2643,"reases":2644,"Ġ...":2645,"Ġimaginary":2646,"_am":2647,"reased":2648,"Ġalgebraic":2649,"Ġcorrespond":2650,"Ġplayers":2651,"_size":2652,"orrect":2653,"akes":2654,"inuous":2655,"cup":2656,"Ġnegative":2657,"ĠAdd":2658,"length":2659,"Ġpositivity":2660,"/>$(":2661,"Ġ+\\":2662,"Ġdenoted":2663,"Ġplaced":2664,"Ġcap":2665,"Ġroom":2666,"Ġsubstitute":2667,"Ġph":2668,"Ġlinear":2669,"_equation":2670,"ival":2671,"yram":2672,"yramid":2673,"Ġcard":2674,"Ġestablish":2675,"width":2676,"Ġnow":2677,"actorial":2678,"umption":2679,"Ġface":2680,"Ġshort":2681,"Ġscores":2682,"âħ":2683,"ows":2684,"Ġbec":2685,"ency":2686,"Ġdis":2687,"Ġcup":2688,"]{":2689,"Ġneeded":2690,"sume":2691,"Two":2692,"Ġdecreasing":2693,"_sh":2694,"Ġmoving":2695,"âĳ¡":2696,"ĠVer":2697,"Ġadditional":2698,"ĠDi":2699,"Ġfriends":2700,"âĳł":2701,"aw":2702,"amb":2703,"*z":2704,"ocks":2705,"=(":2706,"Ġpop":2707,"</":2708,"Ġincl":2709,"els":2710,"],":2711,"Ġnor":2712,"hab":2713,"Ġsingle":2714,"Ġrepresents":2715,"hf":2716,"etra":2717,"Ġexpressions":2718,"Ġinvest":2719,"ĠâĪļ(":2720,"dist":2721,"ĠâĮĬ":2722,"ĠSecond":2723,"Ġconvex":2724,"Ġcolum":2725,"{m":2726,"Ġsw":2727,"plus":2728,"_at":2729,"Ġcover":2730,"Ġcalcul":2731,"Ġcombined":2732,"ective":2733,"Ġdefinition":2734,"hy":2735,"Set":2736,"Ġdivision":2737,"Ġmoves":2738,"Ġspent":2739,"Ġ______.":2740,"Ġaround":2741,"_exp":2742,"Ġdog":2743,"Ġyellow":2744,"lass":2745,"=x":2746,"_avg":2747,"Ġchildren":2748,"Ġwithout":2749,"ĠExp":2750,"fold":2751,"'(":2752,"Ġmove":2753,"Ġparticip":2754,"Ġparallelogram":2755,"_inters":2756,"ortion":2757,"Ġpyramid":2758,"then":2759,"let":2760,"ries":2761,"*k":2762,"_volume":2763,"))^":2764,"coordin":2765,"Ġmedian":2766,"Ġtank":2767,"Ġremo":2768,"\\times":2769,"ambda":2770,"ĠĠĠĠĠĠĠĠĠĠ":2771,"Ġbin":2772,"acity":2773,"Ġinr":2774,"_trans":2775,"Ġ\\]":2776,"Ġconclusion":2777,"Ġregion":2778,"ĠÎ³":2779,"Ġhouse":2780,")|":2781,"ĠBy":2782,"Ġdim":2783,"Ġ${":2784,"mph":2785,"_days":2786,"sing":2787,"Ġsample":2788,"lambda":2789,"uding":2790,"aâĤĻ":2791,"Ġexpansion":2792,"Ġinfinite":2793,"ason":2794,".sum":2795,"Ġgrad":2796,"ĠAll":2797,"BD":2798,"_cases":2799,"Ġ({":2800,"\\leqslant":2801,"-|":2802,"Ġgall":2803,"Ġadded":2804,".e":2805,"ales":2806,"Ġmembers":2807,"lit":2808,"Ġocc":2809,"Ġfin":2810,"Ġagain":2811,"arget":2812,"ull":2813,"Ġdivisors":2814,"Ġareas":2815,"Ġsimplif":2816,"_age":2817,"Ġwhe":2818,"ights":2819,"phi":2820,"Ġrot":2821,"$\"":2822,"Ġinde":2823,"mplete":2824,"olving":2825,"Ġtetra":2826,"alled":2827,"rain":2828,"ccent":2829,"Ġonce":2830,"Ġradi":2831,"Ġ{\\":2832,"cycle":2833,"Ġresulting":2834,"ears":2835,"Ġderivative":2836,"Ġbisector":2837,"Ġcould":2838,"Ġmat":2839,"tition":2840,"nings":2841,"_hours":2842,"ĠProves":2843,"ased":2844,"ark":2845,"-h":2846,"_point":2847,"Ġeccent":2848,"mid":2849,"Ġmethod":2850,"Ġwithin":2851,"Ġsqrt":2852,"ci":2853,"Ġdata":2854,"ail":2855,"Ġgets":2856,"]$,":2857,"Ġapproximately":2858,"Ġen":2859,".in":2860,"Ġpenc":2861,"=f":2862,"Ġ\\)Ċ":2863,"oles":2864,"Ġdivisor":2865,"Ġ**":2866,"Ġxy":2867,"Ġ$(-\\":2868,"yp":2869,"oprime":2870,"Ġshare":2871,"Ġlist":2872,"Â¹":2873,"comes":2874,"\\mathbb":2875,"mit":2876,"inc":2877,"ĠExpand":2878,"(m":2879,"Ġhexagon":2880,"ĠCompute":2881,".\\]":2882,"vec":2883,"Ġpaper":2884,"Ġtickets":2885,"olor":2886,"ĠaâĤĻ":2887,"Ġdri":2888,"Ġlo":2889,"Ġbelow":2890,"ĠAM":2891,"Ġvis":2892,"Which":2893,"Ġread":2894,"Ġaltit":2895,"ematic":2896,"\\[\\":2897,"Ġway":2898,"An":2899,"Ġshowing":2900,"ructure":2901,"vings":2902,")}{":2903,"_amount":2904,"Ġexceed":2905,"quare":2906,"Ġeccentricity":2907,"Ġmatch":2908,"*d":2909,"Ġcolors":2910,"Ġreturn":2911,"Ġcalled":2912,"loy":2913,"Ġdistances":2914,"dle":2915,"_with":2916,"Ġcubes":2917,"ivity":2918,"ality":2919,"bit":2920,"ĠPl":2921,"Ġpropositions":2922,"Ġcone":2923,"ollinear":2924,"Ġlike":2925,"fig":2926,",c":2927,"Ġduring":2928,"$)":2929,"Ġvariables":2930,"Ġunfold":2931,"Ġminute":2932,"Ġfoci":2933,"Ġcells":2934,"\\begin":2935,".le":2936,"_odd":2937,"Ġcity":2938,"(f":2939,"=$":2940,"_product":2941,"hp":2942,"ah":2943,"Ġexample":2944,"Ġdegree":2945,"_mon":2946,"Ġfactors":2947,")-":2948,"âĳ¢":2949,"Ġstarts":2950,"ĠBD":2951,"_succ":2952,"max":2953,"Ġdoub":2954,"ĠABCD":2955,"ĠĠĠĠĠĠĠĠĠĠĠĠĠ":2956,"_disc":2957,"ression":2958,"Ġexpressed":2959,"lfloor":2960,"{C":2961,"rfloor":2962,"Ġcookies":2963,"ĠConvert":2964,"$?Ċ":2965,"Theorem":2966,"Ġmakes":2967,"_prop":2968,"Ġhim":2969,"Ġplace":2970,"_mean":2971,"ins":2972,"rary":2973,"othes":2974,"write":2975,"(E":2976,"Ġsequences":2977,"}}\\":2978,"ball":2979,"aded":2980,"Ġmultiply":2981,"Ġmen":2982,"Ġca":2983,"\\}$.":2984,"Ġequival":2985,"ĠPart":2986,"Ġ=>Ċ":2987,"venue":2988,"Ġcombin":2989,"ather":2990,"Ġpages":2991,"Ġoption":2992,"Ġbro":2993,"Ġrepl":2994,"ativity":2995,"Ġwants":2996,"lice":2997,"artes":2998,"Ġtest":2999,"Ġresp":3000,"equence":3001,"Ġtaken":3002,"Ġtetrahedron":3003,"âģ»":3004,"artesian":3005,"Ġinitially":3006,"Ġdirectly":3007,"ire":3008,"Ġcongru":3009,"Ġhp":3010,"Ġsums":3011,"omm":3012,"Ġann":3013,"'t":3014,".Ioo":3015,"Ġfar":3016,"onday":3017,"ĠOne":3018,"Ġrelative":3019,"ĠReturn":3020,"Ġspace":3021,"Ġcompany":3022,"Ġ-\\":3023,"_four":3024,"Â·":3025,"Ġcontaining":3026,"|x":3027,"',":3028,"emale":3029,"Ġobtained":3030,"udents":3031,"Ġfloor":3032,"})$,":3033,"till":3034,"_form":3035,"Ġ\\[Ċ":3036,"cess":3037,"part":3038,".mem":3039,"Ġhome":3040,"ĠComplete":3041,"Ġdivide":3042,"Ġinl":3043,"Ġten":3044,"ĠPQ":3045,"Ġprog":3046,"\\%$":3047,"*Real":3048,"'Ċ":3049,"Ġrequired":3050,"Ġ}\\":3051,"anti":3052,"Ġstrict":3053,"ĠList":3054,"_inter":3055,"\\)Ċ":3056,"Ġpaid":3057,"mpty":3058,"ĠÏī":3059,"_even":3060,"+i":3061,"Ġfinish":3062,"ually":3063,"Ġreceived":3064,"_points":3065,"ĠOr":3066,"ultip":3067,"get":3068,"oriz":3069,"Ġfill":3070,"Ġbi":3071,"}=(":3072,"Ġinterior":3073,"Ġincreased":3074,"Ġ**(":3075,"entim":3076,"ism":3077,"Ġcorresponding":3078,"Ġact":3079,"[b":3080,"Ġexpand":3081,"umber":3082,"attern":3083,"Ġbasket":3084,"board":3085,"avor":3086,"Ġfish":3087,"-coordin":3088,"Î»":3089,"Î²":3090,"Ġcentim":3091,",+\\":3092,"Ġteach":3093,"subset":3094,"ĠNe":3095,"ĠâĪĥ!":3096,"Ġordered":3097,"Ġpick":3098,"Ġstop":3099,"ĠCartesian":3100,"Ġsign":3101,"_intersection":3102,"Ġdaily":3103,"Ġinduction":3104,"{B":3105,"{AB":3106,"Ġ'":3107,"ZMOD":3108,"Ġcyl":3109,"Ġincreases":3110,"Ġmidpoints":3111,"\\leq":3112,"ĠSuppose":3113,"sp":3114,"Ġmag":3115,"+z":3116,"rand":3117,"Ġproducts":3118,"ey":3119,"ustom":3120,"Ġincome":3121,"_quad":3122,"raight":3123,"{O":3124,"\",(":3125,"Ġsucc":3126,"Ġshop":3127,"Ġplanes":3128,"_function":3129,"[i":3130,"âĪŀ":3131,"Ġpush":3132,"Ġmarked":3133,".val":3134,"Ġbc":3135,".c":3136,"Ġ\\\\(\\":3137,"eros":3138,"Ġbx":3139,"+n":3140,"Ġcars":3141,"Ġ\\).-/":3142,"lication":3143,"Ġstraight":3144,"equiv":3145,"Ġseq":3146,"\\\\),":3147,"$;Ċ":3148,"_pr":3149,".tan":3150,"Ġiden":3151,"Ġemploy":3152,"_roots":3153,"ĠMultip":3154,"Ġparameter":3155,"la":3156,"ĠUsing":3157,"Ġletters":3158,"olate":3159,"Ġfound":3160,"Ġdefine":3161,"Ġ$|\\":3162,"ĠCar":3163,"orizon":3164,"_sc":3165,"abc":3166,"Ġsalary":3167,"Ġpri":3168,"-negativity":3169,"ization":3170,"ĠNext":3171,"}\\).":3172,"\\alpha":3173,"Ġseries":3174,"Ġeg":3175,"Ġkmph":3176,"_dvd":3177,"Ġdeterm":3178,"orizontal":3179,"ta":3180,"Prop":3181,"Ġknow":3182,"Ġbinomial":3183,"ep":3184,"Ġfull":3185,"Ġlt":3186,"Ġitems":3187,"Ġcircumcircle":3188,").Ċ":3189,"books":3190,"}\\),":3191,"ized":3192,"ory":3193,"ĠĊĊ":3194,"Ġbeen":3195,"_first":3196,"Ġcentimeters":3197,"ms":3198,"Ġtow":3199,"Ġstill":3200,"stream":3201,"Ġtarget":3202,"ĠMultiply":3203,"ĠâĬĨ":3204,"Ġmatrix":3205,"Ġdot":3206,"Ġcolumn":3207,"Ġkilom":3208,"Ġunder":3209,"mer":3210,"_circle":3211,"})Ċ":3212,".[/":3213,"Ġcandy":3214,"rows":3215,"/hr":3216,"_percentage":3217,"entagon":3218,"Ġrelation":3219,"Ġpopulation":3220,"Ġmarks":3221,"Ġidentical":3222,"{P":3223,"_day":3224,"_probability":3225,"_initial":3226,"ĠBool":3227,"ees":3228,"Ġmonthly":3229,"rue":3230,"}$.-/":3231,"Ġrepeat":3232,"Ġremain":3233,"Ġtyp":3234,"hB":3235,"_divis":3236,"-m":3237,"_digit":3238,"Ġaway":3239,"entiable":3240,"_exists":3241,"Ġrespect":3242,"irts":3243,"ho":3244,"_cub":3245,"Ġmonths":3246,"ĠType":3247,"olute":3248,"eks":3249,"Ġhm":3250,"Ġ[-":3251,"Ġfam":3252,"%.":3253,"Ġfinite":3254,"Ġ)ĊĊ":3255,"Ġsit":3256,"ĠAl":3257,"rip":3258,"Ġsymmetry":3259,"Ġenti":3260,"erive":3261,"ĠEven":3262,"ĠOdd":3263,"ile":3264,"Ġintersecting":3265,"Ġatt":3266,"_cos":3267,"(II":3268,"dot":3269,"ĠWhich":3270,"ape":3271,"Ġseven":3272,"_deriv":3273,"_se":3274,"Suppose":3275,"igned":3276,"Ġrows":3277,"\\cdot":3278,"Ġentire":3279,"Ġoperation":3280,"Ġquestions":3281,"Among":3282,"_unique":3283,"ference":3284,"atform":3285,"uesday":3286,"ese":3287,".arc":3288,"Ġsells":3289,"uration":3290,"Â°Ċ":3291,"Ġsimilar":3292,"-zero":3293,"Ġanal":3294,"Ġevent":3295,"ridge":3296,"ĠÎµ":3297,"Ġwins":3298,"hm":3299,"}$.ĊĊ":3300,"Ġgroups":3301,"/y":3302,"var":3303,"cer":3304,"Ġmonotonically":3305,"/c":3306,"_out":3307,"Ġnear":3308,"ĠIntro":3309,"ĠVerify":3310,"_const":3311,"ium":3312,"Ġtrees":3313,"Ġruns":3314,"DE":3315,"Ġdenote":3316,"_q":3317,"Ġabsolute":3318,"Ġgu":3319,"mut":3320,"tim":3321,"Ġsale":3322,"%Ċ":3323,"Ġgood":3324,"âĳ£":3325,"fference":3326,"ensions":3327,"ords":3328,"{ÏĢ":3329,"ĠIntroduce":3330,"Ġgot":3331,"ann":3332,"Ġhaving":3333,"\\}":3334,"Ġinverse":3335,"Ġmiddle":3336,"Ġtravel":3337,"Ġer":3338,"_squares":3339,".mul":3340,"ymp":3341,"Ġprov":3342,"ister":3343,"âĪĥ":3344,"Ġrunning":3345,"Ġcents":3346,"Ġreci":3347,"_sp":3348,"Ġsection":3349,"_{\\":3350,"Ġstrictly":3351,"_students":3352,"omen":3353,"Ġhorizontal":3354,"We":3355,"_abs":3356,"Ġcollinear":3357,"(I":3358,"Ġpurchase":3359,"Ġ![":3360,"quality":3361,"oe":3362,"oses":3363,"linewidth":3364,"Ġnumerator":3365,"ecting":3366,"Ġasymp":3367,"izz":3368,"vel":3369,"Ġconsists":3370,"Ġdistribution":3371,"pendent":3372,"ĠSum":3373,"ĠAnd":3374,"_dec":3375,"-f":3376,"Ġpencils":3377,"Ġspecial":3378,"Ġempty":3379,"Ġprojection":3380,"Ġdiag":3381,"_comm":3382,"Ġtook":3383,"chie":3384,"Ġeat":3385,")$.ĊĊ":3386,"Ġhypothes":3387,"}$$":3388,"\\overrightarrow":3389,"Ġpattern":3390,"tick":3391,"{Z":3392,"Ġcomputation":3393,"Ġfif":3394,"oten":3395,"lation":3396,"];":3397,"_arith":3398,"_inv":3399,"ule":3400,"lected":3401,"ateg":3402,"Ġincorrect":3403,"bin":3404,"maining":3405,"_discount":3406,"Ġpentagon":3407,"Ġcle":3408,"lg":3409,"Ġmanip":3410,"anc":3411,"Ġchoc":3412,"Ġstating":3413,"čĊčĊ":3414,"prime":3415,",n":3416,"_plane":3417,".**":3418,"ighb":3419,"lue":3420,"Ġsimplified":3421,"Ġarranged":3422,")$.Ċ":3423,"Ġpolynomials":3424,"ires":3425,"Ġcongruent":3426,"Ġvariable":3427,"pping":3428,"otenuse":3429,"XY":3430,"Ġfemale":3431,"_comp":3432,"Ġparam":3433,"Ġwhole":3434,"Ġachie":3435,"Ġearn":3436,"Ġgallons":3437,"ĠAssume":3438,"}\\}$":3439,"-i":3440,"Ġarbit":3441,"Ġbill":3442,"Ġassumption":3443,"ĠAddition":3444,"Ġfood":3445,".\"":3446,"_frac":3447,"linear":3448,"ĠDiv":3449,"ĠJohn":3450,"Ġpole":3451,"\\).Ċ":3452,"_P":3453,"ger":3454,"Ġpres":3455,"-hand":3456,"ina":3457,"center":3458,"Ġcircular":3459,"ĠBob":3460,"Ġidenti":3461,"Ġ\"$":3462,"Ġbottom":3463,"-in":3464,"ancel":3465,"Ġprocess":3466,"Ġcustom":3467,"ĠInitial":3468,"Ġdice":3469,"_proof":3470,"ĠConsider":3471,"ever":3472,"Ġtransform":3473,"Ġfractions":3474,"read":3475,"Ġdr":3476,"Ġpaint":3477,"|=":3478,"_red":3479,"nes":3480,"cept":3481,"Ġmodul":3482,"Ġhi":3483,"ĠFalse":3484,"*I":3485,"Ġlabel":3486,"Ġloss":3487,".succ":3488,"Ġgave":3489,"Ġbreak":3490,"ney":3491,".abs":3492,".div":3493,"Ġsubsets":3494,"Ġscored":3495,"+d":3496,"Ġnormal":3497,"(g":3498,"orth":3499,"{al":3500,"lied":3501,"Ġderive":3502,"Ġvotes":3503,"Ġverify":3504,"}$.Ċ":3505,"Ġthose":3506,"ink":3507,"Ġouts":3508,"Ġput":3509,"MN":3510,"prod":3511,"Ġaltitude":3512,"Ġrh":3513,"Ġ+Ċ":3514,"_ar":3515,"Ġoranges":3516,"Ġbuys":3517,"/n":3518,"Ġlea":3519,"Compute":3520,"rea":3521,"Ġzeros":3522,"Ġactual":3523,"Ġchange":3524,"lack":3525,"Ġlocated":3526,"_inequality":3527,"Ġones":3528,"Ġchess":3529,"Ġwinning":3530,"Ġelement":3531,"ones":3532,"<sub":3533,"ĠSubtract":3534,"nit":3535,"*t":3536,"^m":3537,"]p":3538,"ĠNumber":3539,"Ġplus":3540,"Ġcolored":3541,"olynomial":3542,"eds":3543,"Ġquanti":3544,"Ġkilometers":3545,",a":3546,"\\{\\":3547,"Ġsemi":3548,"Ġconsist":3549,"hk":3550,"Ġmilk":3551,"Ġconfig":3552,"_difference":3553,"Ġpositions":3554,"Ġhypothesis":3555,"Ġcontinuous":3556,"ya":3557,"ton":3558,"_prime":3559,"______":3560,"Solve":3561,"ament":3562,"uck":3563,"_profit":3564,"Ġhypotenuse":3565,"ices":3566,"illed":3567,"ĠNecessary":3568,"Ġhr":3569,"Complex":3570,"Ġheq":3571,"Ġnumbered":3572,"_outcomes":3573,"omes":3574,"+(":3575,"Ġplant":3576,"Ġtree":3577,"Ġoun":3578,"_radius":3579,"ombus":3580,"})^{":3581,"ĠĠĠĠĠĠĠĠĠĠĠĠ":3582,"Ġshaded":3583,"[asy":3584,"room":3585,"ednes":3586,"Ġdiagram":3587,"$\",(":3588,"Ġrepresented":3589,"Ġmathematic":3590,"/s":3591,"Ġreduc":3592,"Ġnearest":3593,"tient":3594,"lusive":3595,"Ġcenters":3596,"Ġdirections":3597,"Ġnonzero":3598,"Ġpric":3599,".)":3600,"(i":3601,"Ġmark":3602,"Ġprob":3603,"Eq":3604,"-linear":3605,"anan":3606,"ips":3607,"land":3608,"Ġoutside":3609,"ped":3610,"Ġown":3611,"Ġfactorial":3612,"_te":3613,"Ġdon":3614,"yclic":3615,"incip":3616,"rown":3617,"St":3618,"_root":3619,"lcm":3620,"Ġteams":3621,"Ġfru":3622,"Ġsamp":3623,"Proposed":3624,"Ġliters":3625,"Ġprism":3626,"Ġindependent":3627,"ature":3628,"Ġtypes":3629,"_cancel":3630,"Ġannual":3631,"ners":3632,"));":3633,"Con":3634,"Ġtemp":3635,"ording":3636,"Ġclock":3637,"Ġintern":3638,"$$ĊĊ":3639,"Ġgard":3640,"Ġequivalent":3641,"Ġexistence":3642,"Ġmultiplication":3643,"{v":3644,"sc":3645,"_term":3646,"Ġtriangular":3647,"ounts":3648,"Ġfoot":3649,");ĊĊ":3650,"_proper":3651,"_positive":3652,"minus":3653,"_factor":3654,"Ġ_{":3655,"lex":3656,"Ġhd":3657,"_all":3658,"ĠEvaluate":3659,"binom":3660,"Ġvisit":3661,"pmod":3662,"_sequence":3663,"ĠâĨĲ":3664,"ash":3665,"ednesday":3666,"{z":3667,"gamma":3668,"xi":3669,"\\geq":3670,"eff":3671,"-coordinate":3672,"}^*":3673,"Ġproportion":3674,"}}=":3675,"ove":3676,"Ġjump":3677,"Ġneighb":3678,"_imp":3679,"Ġshape":3680,"_after":3681,"Ġlaw":3682,"âĢĻ":3683,"Ġsci":3684,"%,":3685,"_int":3686,"erry":3687,"uctive":3688,"oons":3689,"Ġlegs":3690,"elta":3691,"Ġra":3692,"Ġworks":3693,"Ġcandies":3694,"|$":3695,"til":3696,"ĠPlane":3697,"ield":3698,"Ġcylinder":3699,"ension":3700,"When":3701,"Ġarbitrary":3702,"Ġeggs":3703,"ivers":3704,"jor":3705,"off":3706,"Ġfifth":3707,"=a":3708,"Ġtrac":3709,"Ġarrangements":3710,"Ġwhether":3711,".re":3712,"Ġ\\_\\_\\_\\_\\_\\_.":3713,"ĠĠĠĠĠĠĠĠĠĠĠĠĠĠĠ":3714,"Ġcre":3715,"ĠCan":3716,"Ġcups":3717,"arily":3718,"Ġquar":3719,"ĠDivide":3720,"pair":3721,"_seq":3722,"avorable":3723,"*p":3724,"ĠĠĠĠĠĠĠĠĠĠĠĠĠĠ":3725,"iginal":3726,"con":3727,"Ġdimensions":3728,"lices":3729,"ert":3730,"Ġmph":3731,"son":3732,"Ġmach":3733,"Ġconj":3734,"mma":3735,"Ġcapacity":3736,"{p":3737,"}a":3738,",...":3739,"udes":3740,"oper":3741,"_ass":3742,"Ġmass":3743,"ĠExtract":3744,"Ġgive":3745,"Ġvertical":3746,"//":3747,"Ġ}{":3748,")}$":3749,"Ġplatform":3750,"irt":3751,"GH":3752,"ication":3753,"Ġdie":3754,"ÂłÂłÂł":3755,"rimin":3756,"Ġallow":3757,"Ïī":3758,"_qu":3759,"_prob":3760,"Ġexam":3761,"earrange":3762,"Ġneither":3763,"Ġsn":3764,"scribed":3765,"Ġens":3766,"Ġtaking":3767,"Ġcorner":3768,"Ġmay":3769,"lion":3770,"âī":3771,"order":3772,"}.$":3773,"'$":3774,"ĠAdditionally":3775,"Ġsemic":3776,"-th":3777,"riday":3778,"Ġexpected":3779,"Ġextern":3780,"Ġends":3781,"Ġequally":3782,"_equals":3783,"Ġopen":3784,"_box":3785,"Of":3786,"\\theta":3787,"Ġbread":3788,"Ġroll":3789,"Ġcompound":3790,"unch":3791,"Ġlonger":3792,"Ġmatches":3793,"_D":3794,"Ġpermut":3795,"Ġdividing":3796,"Ġprogression":3797,"Ġrent":3798,"urrent":3799,"Ġhz":3800,"lec":3801,"ics":3802,"riminant":3803,"_power":3804,"Gamma":3805,",x":3806,"Ġsol":3807,"Ġmale":3808,"ĠMatrix":3809,"raph":3810,"Ġland":3811,"Ġrectangles":3812,"Ġsand":3813,"Ġmodulo":3814,"_five":3815,"irds":3816,"Ġrequires":3817,"Ġrepresenting":3818,".im":3819,"CA":3820,"\\neq":3821,"Ġgarden":3822,"_pairs":3823,")!":3824,"ufficient":3825,"Ġ\\,":3826,"Ġrecipro":3827,"_score":3828,"ination":3829,"_week":3830,"Ġwomen":3831,"(t":3832,"veral":3833,"_ineq":3834,"Ġquestion":3835,"hr":3836,"icks":3837,"_mid":3838,"rho":3839,"]ĊĊ":3840,"ness":3841,"Ġsupp":3842,"with":3843,"Ġconsidering":3844,"Ġbags":3845,"Ġseveral":3846,"Ġdouble":3847,"ĠMonday":3848,"suming":3849,"Ġalone":3850,"Ġounces":3851,"speed":3852,"teen":3853,"aneous":3854,"Ġcandid":3855,"Ġlower":3856,"Ġeight":3857,"(k":3858,"Ġforms":3859,"{t":3860,"Ġrhombus":3861,"Ġsampling":3862,"Ġoptions":3863,"ĠâĪħ":3864,"Ġwall":3865,"ogram":3866,".arccos":3867,"Ġtravels":3868,"_pi":3869,"Ġbuild":3870,"Ġ$[-":3871,"Ġwent":3872,"jective":3873,"Ġbridge":3874,"_second":3875,"boxed":3876,"Ġlab":3877,"Ġwrite":3878,"Ġjoin":3879,"angent":3880,"_arrang":3881,"deriv":3882,"Ġfamily":3883,".t":3884,"Ġages":3885,"ĠDist":3886,"RS":3887,")),":3888,"no":3889,"Ġemployees":3890,"fied":3891,"Ġonto":3892,"hline":3893,"Ġgas":3894,"wers":3895,"Ġpizz":3896,"Ġkey":3897,"(c":3898,"ayer":3899,"$?-/":3900,"fill":3901,"*r":3902,"_cont":3903,"_cap":3904,"Ġir":3905,"ths":3906,"ĠRewrite":3907,"áµ":3908,"_and":3909,"Ġleg":3910,"}}+\\":3911,"Ġtac":3912,"less":3913,"_app":3914,"ĠSh":3915,"Ġfast":3916,"Ġnegation":3917,"-angle":3918,"Ġweeks":3919,"_ear":3920,"mathcal":3921,"_increase":3922,"Ġincluding":3923,"Ġradii":3924,"Ġrelatively":3925,"Ġwant":3926,"Ġlateral":3927,"^a":3928,"_formula":3929,"ĠEF":3930,"eval":3931,"Ġorth":3932,"\\geqslant":3933,"Ġworkers":3934,"Ġ|Ċ":3935,"Ġfilled":3936,"ade":3937,"Ġweights":3938,".un":3939,"Ġoperations":3940,"_rec":3941,"ym":3942,"ĠXia":3943,"Ġintegral":3944,"Ġgain":3945,"Ġcomm":3946,"mall":3947,"ping":3948,"orning":3949,"ids":3950,"_base":3951,"varphi":3952,"ĠAmong":3953,"alid":3954,"work":3955,"_bounds":3956,"Ġnonneg":3957,"Ġoct":3958,"vey":3959,"ended":3960,"Ġsimple":3961,"Ġchocolate":3962,"Ġwalking":3963,"ĠDirect":3964,"thers":3965,"Ġworking":3966,"Pro":3967,"Ġuntil":3968,"Ġshift":3969,"Ġexpl":3970,"ourney":3971,"Ġbr":3972,"pecific":3973,",...,":3974,"Ġmixt":3975,".factorial":3976,"Ġturns":3977,"reen":3978,"Is":3979,"Ġsepar":3980,"Ġreflection":3981,"Ġapart":3982,"_year":3983,"Ġih":3984,"Ġcheck":3985,"Ġorange":3986,"Ġgrade":3987,"+m":3988,"Ġche":3989,"Ġmeans":3990,"Ġjob":3991,"_perp":3992,"Ġdue":3993,"port":3994,"ĠNo":3995,"Ġflow":3996,"otient":3997,"-t":3998,"Ġuses":3999,"ops":4000,"real":4001,"ĠCont":4002,"âħł":4003,"Ġdogs":4004,"ause":4005,"uth":4006,"di":4007,"Ġroad":4008,"Ġremoved":4009,"Ġimplies":4010,"_from":4011,"_six":4012,"$),":4013,"ified":4014,"âħ¡":4015,"Ġdesired":4016,"_up":4017,"lie":4018,"Ġproblems":4019,"Ġnecess":4020,"Ġlight":4021,"))/":4022,"Ġdrawing":4023,"Ġmixture":4024,"_assoc":4025,"_AB":4026,"'.":4027,"Ġintervals":4028,"#eval":4029,"Ar":4030,"Ġcentered":4031,"Evaluate":4032,"Ġgold":4033,"ses":4034,"Ġ^{":4035,"ĠAlice":4036,"ĠDE":4037,"Ġheads":4038,"hel":4039,"Ġconnected":4040,"Deriv":4041,"ectors":4042,"Ġparametric":4043,"Ġcircumference":4044,"Ġrepresentation":4045,"uice":4046,"Ġsubtrac":4047,"tice":4048,"Ġletter":4049,"Ġbasic":4050,"Ġsim":4051,"Ġarri":4052,"|+":4053,"vie":4054,"Ġent":4055,"ategy":4056,"Ġbounded":4057,"Ġlocal":4058,"tes":4059,"bser":4060,"ores":4061,"Simplify":4062,"Ġworth":4063,"Ġbanan":4064,"amps":4065,"^b":4066,"Ġclos":4067,"elper":4068,"}\\\\)":4069,"Ġadding":4070,"ful":4071,"Ġfair":4072,"])":4073,"ik":4074,"Ġnone":4075,"-angled":4076,"_set":4077,"ĠMr":4078,"Ġtactic":4079,"Ex":4080,"},\\":4081,"inner":4082,"Ġbased":4083,"_minus":4084,"Ġcollection":4085,"DerivAt":4086,"structure":4087,":âĦ":4088,"aps":4089,"Ġ\\).ĊĊ":4090,"Ġreason":4091,"Ġrevenue":4092,"}{(":4093,"_fl":4094,"Ġsug":4095,"ara":4096,"Ġcat":4097,")\\\\)":4098,"Ġenc":4099,"Ġseat":4100,"Ġshows":4101,"rowth":4102,"Ġextre":4103,"Ġtiles":4104,"Ġsplit":4105,"ilities":4106,"aches":4107,"Ġseats":4108,"Ġtemper":4109,"Ġpens":4110,"}|=":4111,"Ġsavings":4112,"Ġbottles":4113,"alind":4114,"_sin":4115,"ze":4116,"Ġupper":4117,")$.-/":4118,"Ġkilogram":4119,"{BC":4120,"ential":4121,"_books":4122,"Ġsuccess":4123,"_valid":4124,"_case":4125,"cluding":4126,"Ġ`":4127,"Ġcircumscribed":4128,"arters":4129,"_tri":4130,"_I":4131,"$;ĊĊ":4132,"aturday":4133,"âĪĪ":4134,"ivid":4135,"Ġcontra":4136,"Ġcompe":4137,"roid":4138,"Ġplayed":4139,".univ":4140,"Ġnonnegative":4141,"Ġboat":4142,"Ġcombine":4143,"\\\\(":4144,"atement":4145,"Ġinvestment":4146,"Ġ...,":4147,"edge":4148,"ĠâĬ¥":4149,"app":4150,"ossible":4151,"_fraction":4152,"_parallel":4153,"ĠPolynomial":4154,"Ġchar":4155,"ending":4156,"://":4157,"Ġnecessarily":4158,"Ġreduced":4159,".,":4160,"Ġmeeting":4161,"ultaneous":4162,"Ġnote":4163,".r":4164,"}.Ċ":4165,"yth":4166,"AE":4167,"ean":4168,"}}$,":4169,"Ġperform":4170,"Ġjourney":4171,"Ġlimit":4172,"{S":4173,"Ġfewer":4174,"Ġdiscriminant":4175,"_km":4176,"htt":4177,"Ġcop":4178,"Ġblocks":4179,"Ġ_Ċ":4180,"Ġcongr":4181,"ading":4182,"Ġsoc":4183,"Ġtourn":4184,"Cost":4185,"Ġwalk":4186,"âĢĻs":4187,"Ġcovered":4188,"}}+":4189,"_nonzero":4190,"_lines":4191,"put":4192,"Ġsk":4193,"Ġcans":4194,"Ġmoles":4195,"_S":4196,"final":4197,"))/(":4198,"(s":4199,"Ġpowers":4200,"Ġair":4201,"ails":4202,"Ġdetermined":4203,"Ġtournament":4204,"ursday":4205,"Ġapple":4206,"Ġdiff":4207,".length":4208,"ng":4209,"urr":4210,")))Ċ":4211,"Ġaxes":4212,"rong":4213,"ribution":4214,"ĠâĪı":4215,"lips":4216,"Ġconsisting":4217,"-p":4218,"edi":4219,".inr":4220,"hz":4221,"Ġdenominators":4222,"âĤĬ":4223,"{AC":4224,"Show":4225,"ĠMar":4226,"}{{":4227,"As":4228,"(Î±":4229,"Ġsimultaneous":4230,"Ġspends":4231,"PB":4232,"âŁ©ĊĊ":4233,"Ġmaking":4234,"OB":4235,"},$":4236,"Ġindivid":4237,"Ġpurchased":4238,"-e":4239,".com":4240,"under":4241,".fst":4242,"Ġclub":4243,"\\le":4244,"Ġleaves":4245,"Digits":4246,"Ġtraveling":4247,"âĭ":4248,"Ġbar":4249,"hd":4250,"Ġreals":4251,"Ġarrangement":4252,"Ġsince":4253,"Ġstick":4254,"Ġrace":4255,"unday":4256,"Ġprincip":4257,"PF":4258,"undred":4259,"Int":4260,"Ġcoinc":4261,"Ġsaid":4262,".lcm":4263,"acement":4264,"Ġmanipulation":4265,"aring":4266,"-k":4267,"irth":4268,"Ġanswers":4269,"lement":4270,"nitude":4271,"PA":4272,"Ġinfinitely":4273,"uit":4274,"Ġtraveled":4275,"_id":4276,".snd":4277,"lopes":4278,"ĠFunction":4279,"Ġquarter":4280,"Ġsector":4281,"Ġunivers":4282,"Ġbecause":4283,"^(-":4284,"Ġrul":4285,"Ġcharg":4286,"ris":4287,"------":4288,"Ġmile":4289,"Ġpainted":4290,"ĠHis":4291,"Ġpark":4292,"Ġlow":4293,"acks":4294,"ĠTe":4295,"acter":4296,"_half":4297,"\\\\)Ċ":4298,"ĠNeither":4299,"Ġproving":4300,"(p":4301,"uff":4302,"Ġrain":4303,"Ġ{Ċ":4304,"ĠUn":4305,"Ġmet":4306,"Ġtom":4307,"Ġhf":4308,"Ġbecomes":4309,"forall":4310,"Ġfold":4311,"]$Ċ":4312,"Ġtriple":4313,"Ġshirts":4314,"ĠĠĠĠĠĠĠĠĠĠĠĠĠĠĠĠĠĠ":4315,"Ġdecided":4316,"_log":4317,".add":4318,"ike":4319,"hP":4320,"ĠâĪ¨Ċ":4321,"}.":4322,"Ġcities":4323,"_init":4324,".p":4325,"ollar":4326,"Ġexpon":4327,")]":4328,"ondition":4329,"}\\)Ċ":4330,"https":4331,"uel":4332,"Ġln":4333,"Ġquotient":4334,"uted":4335,"Ġav":4336,"ĠĠĠĠĠĠĠĠĠĠĠĠĠĠĠĠĠ":4337,"_cube":4338,"first":4339,"Ġproduction":4340,"_refl":4341,"struct":4342,"bc":4343,"Ġate":4344,",B":4345,"Three":4346,"isors":4347,"ories":4348,"eness":4349,"Ġwon":4350,"Ġbrother":4351,"Ġextra":4352,"ĠÂ¬âĪĥ":4353,"âģ´":4354,"ibility":4355,"acing":4356,"Ġconstructed":4357,"-sided":4358,"ough":4359,"Ġbasketball":4360,"ime":4361,"Ġ{(":4362,"Ġsimultaneously":4363,"offee":4364,"Ġes":4365,"aur":4366,"uches":4367,"_pay":4368,"Ġprices":4369,"Ġmeasures":4370,"Ġaltern":4371,"Ġcorrectly":4372,"ov":4373,"Ġlost":4374,"Ġwind":4375,"ceil":4376,"ĠHas":4377,"operator":4378,"Ġtouches":4379,"step":4380,"Ġ__________":4381,"')":4382,"_M":4383,"ĠAE":4384,"):":4385,"Ġmorning":4386,"izes":4387,"Ġyoun":4388,"Ġpicked":4389,"_z":4390,"ĠDay":4391,"ĠĠĠĠĠĠĠĠĠĠĠĠĠĠĠĠĠĠĠ":4392,"name":4393,"Ġtangents":4394,"Ġ(âĪļ":4395,"_balls":4396,"_perimeter":4397,"_remaining":4398,"ront":4399,"Ġwalks":4400,"_al":4401,"Ġtouch":4402,"Ġexplain":4403,"_earnings":4404,"hat":4405,"\\}$ĊĊ":4406,"ucks":4407,"play":4408,"(-\\":4409,"rational":4410,"Ġstarted":4411,"_comb":4412,"Ġtall":4413,"*(-":4414,"my":4415,"igma":4416,"Ġmultiples":4417,"To":4418,"Ġacross":4419,"sup":4420,"ĠTuesday":4421,"Ġstate":4422,",z":4423,"Ġevaluate":4424,"Ġdifferentiable":4425,"/Real":4426,"ĠProof":4427,"Ġ\\)?":4428,"ĠSâĤĻ":4429,"operatorname":4430,"na":4431,"Ġtemperature":4432,"Ġcomplement":4433,"Ġswim":4434,"ĠSp":4435,"fe":4436,"_capacity":4437,"_money":4438,"Â°,":4439,"Ġteacher":4440,"amond":4441,"pecial":4442,"Ġshoes":4443,"Ġinner":4444,"Ġintroduce":4445,"hC":4446,"ison":4447,"\\quad":4448,"anged":4449,"ĠTrue":4450,"Ġsugar":4451,"ĠBoth":4452,".digits":4453,"Ġconnecting":4454,"ĠArea":4455,"rate":4456,"mplement":4457,"Ġmonotonicity":4458,"|--------":4459,"Ġsec":4460,"/m":4461,"Ġbounds":4462,"\\).-/":4463,"kets":4464,"{e":4465,"ĠCA":4466,"Ġinvolving":4467,"ousand":4468,"_tax":4469,"Ġgoes":4470,"}}{{":4471,")..":4472,"Ġdrop":4473,"ctan":4474,"Ġsemicircle":4475,".mod":4476,"-sh":4477,"ĠSpecific":4478,".rpow":4479,"Ġhq":4480,"ĠSam":4481,"_ac":4482,"ple":4483,"ongs":4484,";<":4485,"_digits":4486,"uting":4487,"_mar":4488,"Ġvariance":4489,"ĠSimilar":4490,"_inj":4491,"\\}$Ċ":4492,"egree":4493,"mo":4494,"Ġsch":4495,"ming":4496,"Ġded":4497,"Ġfruit":4498,"Define":4499,"Ġsl":4500,"ĠRearrange":4501,"_kmh":4502,"Ġbal":4503,"(z":4504,"Mod":4505,"Ġslices":4506,"_sales":4507,"iqueness":4508,"Ġgrams":4509,"eled":4510,"\\cap":4511,"Ġcoprime":4512,"Ġchick":4513,"Ġinst":4514,"ĠHowever":4515,"|Ċ":4516,"Ġaccount":4517,"Ġcats":4518,"atoes":4519,"ĠâĪī":4520,"Ġwell":4521,"Ġidentity":4522,"ready":4523,"\\ge":4524,"ĠGe":4525,"elly":4526,"Ġfavorable":4527,"Ġ&=":4528,"ĠÏģ":4529,"Ġconsidered":4530,"ults":4531,"andy":4532,"Ġmeter":4533,"ĠÂ±":4534,"]$.":4535,"Ġhandle":4536,"Ġjuice":4537,"ĠBE":4538,"Ġmultiplied":4539,"Â¬":4540,"Ġsod":4541,"_water":4542,"Ġfro":4543,"Delta":4544,"ĠTriangle":4545,"has":4546,"Ġdecrease":4547,"ĠThree":4548,"ĠSufficient":4549,"Ġ.-/":4550,"ÂłÂłÂłÂłÂłÂłÂłÂł":4551,"hold":4552,"ĠTom":4553,"Ġsquared":4554,"exists":4555,"Ġavg":4556,"Ġinclusive":4557,"Ġensure":4558,"_tangent":4559,"ĠSpecifically":4560,"Ġrates":4561,"_go":4562,"Ġvol":4563,"Ġagainst":4564,"Valid":4565,"\\mathrm":4566,"rick":4567,"ĠXiao":4568,"ĠPar":4569,"Ġbor":4570,"Ġstructure":4571,"train":4572,"Ġnumerical":4573,"AM":4574,"Ġpresent":4575,"ror":4576,"osing":4577,"Ġmom":4578,"ticks":4579,"_slope":4580,"ians":4581,"Ġarrange":4582,"Ġcall":4583,"Ġprimes":4584,"Ġtas":4585,"{F":4586,"Ġreaches":4587,"hs":4588,"GM":4589,"_BC":4590,"Ġmachine":4591,"Ġcyclic":4592,"Ġobser":4593,"gy":4594,"}^{\\":4595,"Ġcompetition":4596,"totes":4597,"](":4598,"Ġblock":4599,"Ġwide":4600,"Ġbottle":4601,"ĠHelper":4602,"_pe":4603,"Ġchips":4604,"]$ĊĊ":4605,"bx":4606,".eval":4607,"ythag":4608,"Ġgoal":4609,"enses":4610,"Ġalready":4611,"Ġ____.":4612,"tuse":4613,"pen":4614,"Ġsurvey":4615,"Ġappear":4616,"problem":4617,".n":4618,"|)":4619,"Ġreceives":4620,"Ġolder":4621,"]-/":4622,"ĠXY":4623,"Ġnet":4624,"Ġson":4625,"_for":4626,".inl":4627,"ject":4628,"Ġpizza":4629,"_period":4630,"Ġgcd":4631,"Ġplaying":4632,"ĠÎ»":4633,"Ġdvd":4634,"Ġlevel":4635,"Ġ((-":4636,"urther":4637,"Ġdifferences":4638,",S":4639,"ission":4640,"ysis":4641,"Ġhundred":4642,"ruction":4643,"Ġhab":4644,"}.\\]":4645,"Ġ~":4646,"days":4647,"ĠGet":4648,"istant":4649,"Ġfather":4650,"Ġnick":4651,"âĭħ":4652,"ĠFactor":4653,"umptions":4654,"Ġwords":4655,"Ġsister":4656,"Ġstation":4657,"Ġtrack":4658,"Ġconfiguration":4659,"Ġpict":4660,"Ġpot":4661,"Ġlogarith":4662,"Ġweighs":4663,"ĠDef":4664,"lled":4665,"odot":4666,"race":4667,"BE":4668,"Ġmillion":4669,"Ġconclude":4670,"imals":4671,"Ġcompared":4672,"Ġminus":4673,"Ġlabeled":4674,"Ġnine":4675,"Ġcentroid":4676,"ĠJan":4677,"-n":4678,"Mon":4679,"Ġhors":4680,"Ġevents":4681,"_distinct":4682,"Ġneighbor":4683,"|-":4684,"Ġgetting":4685,"gan":4686,"Ġbirth":4687,"Ġspeeds":4688,"tote":4689,"lusions":4690,"ĠCount":4691,"_multip":4692,",\\,\\":4693,"space":4694,"Oy":4695,"**:":4696,"enny":4697,"Ġspher":4698,"\\_\\_\\_\\_\\_\\_":4699,"ope":4700,"{-":4701,"_number":4702,"Ġpure":4703,"sigma":4704,"_nonpos":4705,"ycl":4706,"ircles":4707,"_arrangements":4708,"Ġsubstit":4709,"Ġothers":4710,"Or":4711,"_sa":4712,"lap":4713,"Ġhar":4714,"tices":4715,"Ġearned":4716,"uss":4717,"Ġstock":4718,"ormal":4719,"_geom":4720,"Ġyield":4721,"_implies":4722,"Ġboy":4723,"Ġpaths":4724,"{if":4725,"Ġrolls":4726,"_ver":4727,"Ġforming":4728,"ĠAr":4729,"Ġ?-/":4730,"ĠAss":4731,"ĠFour":4732,"ĠEvery":4733,"Ġendpoints":4734,"This":4735,"Ġ}Ċ":4736,"Ġrequire":4737,"Ġpairwise":4738,"ured":4739,"ĠAlex":4740,"orean":4741,"ĠWednesday":4742,"Ġelect":4743,"Ġfre":4744,"Ġcoloring":4745,"Ġbank":4746,"{d":4747,"Ġ______.-/":4748,"Ġearnings":4749,"Ġplans":4750,"((-":4751,"_seven":4752,"eded":4753,"Ġdx":4754,"Ġcontainer":4755,",\"":4756,"Ġcoffee":4757,"-GM":4758,"{M":4759,"Ġrule":4760,"Ġartic":4761,"Ġasymptotes":4762,"Ġcontin":4763,"\\plus":4764,"osite":4765,"_sides":4766,"eb":4767,"}$$Ċ":4768,"problems":4769,"}_":4770,"Ġ{-":4771,"jector":4772,"(X":4773,"tercept":4774,"_fact":4775,"|+|":4776,"Ġlowest":4777,"Ġlocus":4778,"Ġmy":4779,"Ġbinary":4780,"ĠBAC":4781,"!)":4782,".trans":4783,"*q":4784,"_mem":4785,"tball":4786,"subseteq":4787,"lier":4788,"top":4789,"ĠYou":4790,"ying":4791,"side":4792,"Ġcrosses":4793,"Ġ$\\$":4794,"ait":4795,"Ġ.Ċ":4796,"Ġconstants":4797,"Ġshorter":4798,"mx":4799,"Ġcalculated":4800,"Ġuniqueness":4801,"Le":4802,"orts":4803,"Ġcombinations":4804,"Ġbananas":4805,"show":4806,"\\_{":4807,"hspace":4808,"jectory":4809,"ĠĠĠĠĠĠĠĠĠĠĠĠĠĠĠĠĠĠĠĠ":4810,"Ġ=Ċ":4811,"Ġplot":4812,"Ġflowers":4813,"ery":4814,"Ġrs":4815,"war":4816,"ĠStatement":4817,"Point":4818,"itch":4819,"licit":4820,"Ġclasses":4821,"Ġtrig":4822,"))))":4823,"iform":4824,"_step":4825,"ĠâĪ«":4826,"Ġsocks":4827,"rew":4828,"ofproblems":4829,"ofproblemsolving":4830,".ne":4831,"Ġnotation":4832,"limin":4833,"anes":4834,"{k":4835,"ĠDistance":4836,"iding":4837,"ĠSquare":4838,"Ġremains":4839,"Ġlat":4840,"Ġshortest":4841,"base":4842,"Ġpartition":4843,"Ġice":4844,"ĠCircle":4845,"Ġorthoc":4846,"irl":4847,"version":4848,"{~":4849,"Ġgoing":4850,"Ġstrategy":4851,"Ġregions":4852,"Ġmeets":4853,"_sal":4854,"Ġmut":4855,"artofproblemsolving":4856,"zen":4857,"_revenue":4858,"Ġpast":4859,"Ġgr":4860,"Ġquantity":4861,"ĠPet":4862,"ĠFriday":4863,"ĠSimp":4864,"Ġthousand":4865,"_interval":4866,"ĠContinuous":4867,"Ġquarters":4868,"inese":4869,".lt":4870,"Ġmaxim":4871,"Ġdecides":4872,"{align":4873,"Ġrub":4874,"ï¼Į":4875,"ythagorean":4876,"DC":4877,"Ġbuying":4878,"Ġplays":4879,"Sum":4880,"Ġdownstream":4881,"Ġmother":4882,"Ġbases":4883,"Ġray":4884,"Ġballoons":4885,"mar":4886,"Ġlunch":4887,"ĠForward":4888,"=b":4889,"Ġrules":4890,"})=":4891,"Ġclosed":4892,"Ġabc":4893,"ailable":4894,"Ġglass":4895,"Ġsolid":4896,"man":4897,"+q":4898,"ration":4899,"_res":4900,"cep":4901,"udget":4902,"Ġoccurs":4903,"ĠTake":4904,"ĠThird":4905,"ĠPosition":4906,".mk":4907,"Ġplaces":4908,"Ġallowed":4909,"lo":4910,"Ġfee":4911,"\".":4912,"Ġperiodic":4913,",C":4914,"AP":4915,"Ġpig":4916,"Ġcomputer":4917,"Ġpalind":4918,"_properties":4919,"ii":4920,"fferentiable":4921,".sub":4922,"Ġfree":4923,"ĠLe":4924,"Ġcentral":4925,"Ġhead":4926,"Ġtens":4927,"Ġshel":4928,")\\),":4929,"Ġfront":4930,"Ġindeed":4931,"Ġcal":4932,"Ġmajor":4933,")$-/":4934,"Ġpool":4935,"Ġcycle":4936,"Ġpen":4937,"Ġeats":4938,"othing":4939,"_new":4940,"Ġmiss":4941,"iles":4942,"Ġcosine":4943,"Ġcustomers":4944,"rayons":4945,"_group":4946,"shift":4947,"It":4948,"Ġcounter":4949,",d":4950,"$).":4951,"ident":4952,"Ġ\\]ĊĊ":4953,"Ġrepeated":4954,"avid":4955,"Ġitself":4956,"Ġsen":4957,"ags":4958,"Ġbic":4959,"}b":4960,"Ġht":4961,"intro":4962,"Ġbirds":4963,"Ġscale":4964,"ĠDefinition":4965,"hol":4966,"vice":4967,"-third":4968,"\\rfloor":4969,"Ġworked":4970,"[\\":4971,"âĪļ(":4972,"rel":4973,"AF":4974,"Ġchessboard":4975,"ycles":4976,"fic":4977,"Ġmx":4978,"lease":4979,"ĠÎ´":4980,":<":4981,"{E":4982,"$?ĊĊ":4983,"\\ln":4984,"iving":4985,"jects":4986,"plane":4987,"Ġjar":4988,"Ġuniform":4989,"ĠPM":4990,"omp":4991,"Ġcompletely":4992,"{f":4993,"uad":4994,"Ġsoccer":4995,"ĠSchool":4996,"}y":4997,"}+(":4998,"iness":4999,"tee":5000,"Ġexper":5001,"ĠTeam":5002,"Ġlib":5003,"Ġtrajectory":5004,"ĠComp":5005,"rade":5006,"âĪĢ":5007,"Ġ($\\":5008,"ends":5009,"ugate":5010,"ders":5011,"Ġsimplest":5012,"ĠDuring":5013,"}}$.":5014,"Ġinform":5015,"Ġflour":5016,"ony":5017,"})\\":5018,"efore":5019,"att":5020,"Ġcircumcenter":5021,"Ġbisectors":5022,"Ġinternal":5023,"arah":5024,"_quadr":5025,"Ġencl":5026,"ĠâĪł":5027,"Ġexcept":5028,"Ġkilograms":5029,"Ġwrong":5030,"Ġcountry":5031,"_no":5032,"Ġpile":5033,"Ġselecting":5034,"ene":5035,"bol":5036,"_wh":5037,"ĠMN":5038,"babilities":5039,"_by":5040,"wards":5041,"Each":5042,"Ġ=$":5043,"Ġjust":5044,"}}{\\":5045,"ern":5046,"ken":5047,"|$.":5048,"Ġconclusions":5049,"Ġpayment":5050,"_qty":5051,"{Q":5052,"Ġï¼":5053,"Ġdirectrix":5054,"ĠStart":5055,"Ġmarket":5056,"Ġyards":5057,"Ġdistributed":5058,"Ġaccording":5059,".dvd":5060,"be":5061,"Ġ\\[\\":5062,"Ġanalysis":5063,"aries":5064,"iled":5065,"Ġrotation":5066,"|,":5067,"Ġfactory":5068,"Ġhel":5069,"Ġcandidate":5070,"Ġimpossible":5071,"From":5072,"size":5073,"ĠAP":5074,"Ġequalities":5075,"Ġrad":5076,"_squared":5077,"Ġmagnitude":5078,"_values":5079,"_ticket":5080,"_rel":5081,"ootball":5082,"Note":5083,"mu":5084,"_cards":5085,"ĠÂł":5086,"_o":5087,"Ġoctagon":5088,"Ġstones":5089,"Ġparti":5090,"tead":5091,"Ġmodel":5092,"_goals":5093,"radius":5094,"Ġsine":5095,"ht":5096,"Ġpet":5097,"ĠhB":5098,"matrix":5099,"Ġtriples":5100,"Ġparticipants":5101,"Ġran":5102,"Ġ-/":5103,"Ġroses":5104,"Ġchairs":5105,"Ġpipe":5106,"Ġtrains":5107,"-----|":5108,"ĠAng":5109,"Ġconver":5110,"rome":5111,"positive":5112,"Ġextreme":5113,"-/ĊĊ":5114,"kx":5115,"elve":5116,"Ġhighest":5117,"asya":5118,"Ġhands":5119,"})$.":5120,"ret":5121,"Ġmultiplying":5122,"_ms":5123,"_N":5124,"Ġreading":5125,"Ġadult":5126,"_angles":5127,"hM":5128,"Ġexternally":5129,"]Proposed":5130,"box":5131,"Ġconcent":5132,"ook":5133,"Ġtangency":5134,"aterial":5135,"_den":5136,"_diagon":5137,"}$?":5138,"dollar":5139,"Ġcompleted":5140,"_blue":5141,"Ġgrowth":5142,"Ġ.ĊĊ":5143,"Ġteachers":5144,"Ġ(Â¬":5145,"Ġobtuse":5146,"Ġdenotes":5147,",N":5148,"Ġpacks":5149,"Ġdimes":5150,"ley":5151,"oci":5152,"ĠDan":5153,"Ġpays":5154,"*s":5155,"_center":5156,"^y":5157,"Ġcour":5158,".floor":5159,"Ġtry":5160,"Ġbeginning":5161,"iver":5162,"Ġgallon":5163,"_temp":5164,"List":5165,"ouses":5166,"ĠSome":5167,"Ġpasseng":5168,"Ġseeds":5169,"ĠPythagorean":5170,"Ġasymptote":5171,"Mono":5172,"AA":5173,"_simplif":5174,"rots":5175,"_games":5176,"Ġrecord":5177,"Ġrais":5178,"oub":5179,"ification":5180,"),$":5181,"vis":5182,"Ġappears":5183,"Ġscal":5184,"Ġlater":5185,"Ġsoda":5186,"John":5187,"xOy":5188,"hic":5189,"{D":5190,"Ġstates":5191,"Digit":5192,"Ġbars":5193,".x":5194,"Ġanaly":5195,"joint":5196,"noon":5197,"Ġpermutation":5198,"Ġdir":5199,"clusion":5200,"Ġkx":5201,"Ġreduction":5202,"Ġresid":5203,"udent":5204,"Ġbak":5205,"rist":5206,"idistant":5207,"}}}{":5208,"Ġhigher":5209,"_people":5210,"Triangle":5211,"Ġoutcomes":5212,"Ġsandw":5213,"Ġorthocenter":5214,"dy":5215,"Ġminim":5216,"ĠMary":5217,"Ġexplicit":5218,"_seg":5219,"OA":5220,"_savings":5221,"Ġavailable":5222,"_.":5223,"_cons":5224,"den":5225,"Ġradians":5226,"Ġtruck":5227,"berries":5228,"_needed":5229,"aper":5230,"Ġstream":5231,"Ġbisects":5232,"Ġgrand":5233,"ĠPerson":5234,"_color":5235,"_E":5236,"Ġkee":5237,"áµ¢":5238,"itt":5239,"head":5240,".eq":5241,"Ġcompon":5242,"Ġsimplifying":5243,"Ġ(âĪı":5244,"Ġhit":5245,"Ġroute":5246,"Ġclosest":5247,"Ġearns":5248,"Ġcolumns":5249,"Ġaltitudes":5250,"kg":5251,"Ġyz":5252,"Ġtransport":5253,"Ġuniversal":5254,"Ġdecide":5255,"Ġphys":5256,"symm":5257,"key":5258,"Ġbul":5259,"_numbers":5260,"Ġtoday":5261,"Ġreciprocal":5262,".C":5263,".prod":5264,"])Ċ":5265,"dx":5266,"{aligned":5267,"Ġpainting":5268,"Ġloses":5269,"Ġscience":5270,"textdollar":5271,"})^":5272,"Ġbrown":5273,".intro":5274,"Ġprobabilities":5275,"Ġweekly":5276,"Ġfaster":5277,"_pages":5278,"ups":5279,"ĠSe":5280,"Ġinvested":5281,"zz":5282,"_expand":5283,"Ġconjugate":5284,"Ġfarm":5285,"io":5286,"Ġproject":5287,"ĠJack":5288,"ĠâĨĳ":5289,"raint":5290,"_division":5291,"Ġbreadth":5292,"arctan":5293,"Ġbusiness":5294,"Ġchooses":5295,"_salary":5296,"xyz":5297,"ilver":5298,"ube":5299,"Ġphot":5300,"kn":5301,"Ġdeck":5302,"lling":5303,"Ġreplaced":5304,"ox":5305,"Ġslopes":5306,"Ġbow":5307,"ĠSaturday":5308,"Ġstickers":5309,"Ġprincipal":5310,"Ġplants":5311,"Ġelimin":5312,"ĠMathematic":5313,"_special":5314,"_upper":5315,"_single":5316,"ĠĠĠĠĠĠĊ":5317,".$-/":5318,"_subset":5319,"phere":5320,".\\":5321,"Ġproportional":5322,")$;Ċ":5323,"_factorial":5324,"Ġterminal":5325,"[-":5326,"Ġtransitivity":5327,"Ġword":5328,"Ġ(|":5329,"Ġincircle":5330,"XYZ":5331,"kew":5332,"_lower":5333,"<\\":5334,"Ġlattice":5335,"une":5336,"ĠHer":5337,"equent":5338,"âĢ¦":5339,").$":5340,"ennis":5341,"iors":5342,"Ġchanges":5343,"Ġconstruction":5344,"Ġexch":5345,"hq":5346,"raints":5347,"Ġrooms":5348,"Ġmanag":5349,"Ġforward":5350,"ael":5351,"oge":5352,"Ġturned":5353,"Ã·":5354,"ember":5355,"_sur":5356,"ĠPer":5357,"Ġ*Ċ":5358,"ĠChain":5359,"\\]ĊĊ":5360,":\\":5361,"ayers":5362,"Ġcuts":5363,"ler":5364,"Ġcows":5365,"terior":5366,"Ġtown":5367,".y":5368,"Ġproduce":5369,"-g":5370,"Ġenough":5371,"Ġcrayons":5372,"ĠLi":5373,"_small":5374,"Ġchords":5375,"atified":5376,"ĠEng":5377,"Ġupstream":5378,"Ġcake":5379,"ĠTime":5380,"ds":5381,"Ġirrational":5382,"Ġwatch":5383,"Ġlogarithm":5384,"_ad":5385,"Ġrab":5386,"Ġspe":5387,"ï¼ľ":5388,"Ġdep":5389,"Ġfootball":5390,"Ġstamps":5391,"_average":5392,"Ġcharges":5393,"Ġminimal":5394,"thing":5395,"Ġoverlap":5396,"Ġlibrary":5397,"ĠLength":5398,"Ġcombining":5399,"Ġprovide":5400,"Ġshirt":5401,"Ġsun":5402,".zero":5403,"atios":5404,"Ġenter":5405,"_symm":5406,"Ġchem":5407,"ctor":5408,"Ġphone":5409,"ĠNone":5410,"ĠChinese":5411,"Ġbuc":5412,"Ġwait":5413,"urrence":5414,"_F":5415,"Ġwood":5416,"enty":5417,"cost":5418,"Ġstops":5419,"ĠPB":5420,"star":5421,"Ġgirl":5422,"ĠHasDerivAt":5423,"raf":5424,"ĠEqu":5425,"complement":5426,"Ġmember":5427,"Ġsheet":5428,"Ġ;":5429,")\\).":5430,"rocer":5431,"Ġomega":5432,"lor":5433,"px":5434,"uary":5435,"_minutes":5436,"Ġclockwise":5437,"arry":5438,"lects":5439,"valid":5440,"\\lfloor":5441,"isymm":5442,"Ġbrand":5443,"Ġoil":5444,"ours":5445,"Ġcollected":5446,"Ġdecreased":5447,",m":5448,"$;<":5449,"uded":5450,"Ġmarble":5451,"overset":5452,"CM":5453,"arison":5454,"Ġnight":5455,"Ġcontest":5456,"_part":5457,"Ġpurple":5458,"Ġvarious":5459,"+k":5460,"_share":5461,"Ġbike":5462,"Ġlemma":5463,"square":5464,"Ġfuel":5465,"Ġsay":5466,"Ġworker":5467,"_condition":5468,"Ġpie":5469,"_midpoint":5470,"inks":5471,"}{|":5472,"fficiency":5473,"yle":5474,"ystem":5475,"Ġequidistant":5476,"}\\\\),":5477,"Ġformul":5478,"Ġclear":5479,"_integ":5480,"inations":5481,"_month":5482,"ogether":5483,"factorial":5484,"ĠĠĠĠĠĠĠĠĠĠĠĠĠĠĠĠĠĠĠĠĠĠĠ":5485,"_boys":5486,"Ġreturns":5487,"_ab":5488,"which":5489,"gons":5490,"ĠSunday":5491,"Ġparticipate":5492,"|$,":5493,"_girls":5494,"eth":5495,"mily":5496,"clock":5497,"Ġmutually":5498,"ense":5499,"Ġtile":5500,"Ġvehic":5501,"ĠAssuming":5502,"Ġpencil":5503,"Ġvers":5504,"));ĊĊ":5505,"âī¤":5506,"abular":5507,"uli":5508,"Ġdone":5509,"Ġexpenses":5510,"Ġcharge":5511,"-intercept":5512,"ĠChar":5513,"Ġanimals":5514,"Ġrewrite":5515,"Ġable":5516,"Ġtransl":5517,"isa":5518,"Ġbuilding":5519,"PQR":5520,"Ġbatch":5521,"estment":5522,"Ġ(Â·":5523,"Ġmeal":5524,"Ġassume":5525,"ulations":5526,"_tw":5527,"inders":5528,"ĠEnglish":5529,"_neq":5530,"Ġwinner":5531,"underline":5532,"Ġdecreases":5533,"Ġindic":5534,"_triangles":5535,"Ġbalance":5536,"Ġcoup":5537,"Ġtowards":5538,"Ġtoys":5539,"Ġconstraints":5540,"Ġsimplification":5541,"igures":5542,"_payment":5543,"sib":5544,"Ġpage":5545,"Ġride":5546,"cohol":5547,"ĠPA":5548,"cot":5549,"atches":5550,"ensity":5551,"Ġcustomer":5552,"ester":5553,"seq":5554,"ĠThursday":5555,"Ġselection":5556,"enari":5557,"Ġwalked":5558,"Ġadults":5559,"Ġjack":5560,"Ġjelly":5561,"hS":5562,"Ġestim":5563,"cals":5564,"original":5565,"Ġgraphs":5566,"Ġalcohol":5567,"}ĊĊ":5568,")$;":5569,"_boxes":5570,"Ġtoss":5571,"ĠSimple":5572,"lso":5573,"{tabular":5574,"Ġisland":5575,"EFGH":5576,"Ġrounds":5577,"Ġsubtracting":5578,"_rect":5579,"ĠâĪĳ'":5580,"Ġreplacement":5581,"ĠDC":5582,"ĠCa":5583,"Ġ/--":5584,"OC":5585,"ĠDec":5586,"ĠTheir":5587,"_ve":5588,"Ġindividual":5589,"heq":5590,"Ġeff":5591,"_apples":5592,"remaining":5593,"Ġgoods":5594,"Ġperp":5595,"{u":5596,"Ġorgan":5597,"_mass":5598,"antisymm":5599,"Ġreasoning":5600,"ogs":5601,"}$;":5602,"ĠbâĤĻ":5603,"$$\\":5604,"Ġrotated":5605,"Ġdefective":5606,"ĠConstruct":5607,"ned":5608,"}i":5609,"Ġincenter":5610,"Ġattend":5611,"Ġsomeone":5612,"_result":5613,"_class":5614,"radicts":5615,"={":5616,"asha":5617,"Ġsuit":5618,"_AC":5619,"Ġstraw":5620,"|c":5621,"distance":5622,"*}":5623,"Ġcontained":5624,"Ġmaterial":5625,")=-":5626,"ĠAny":5627,"km":5628,"-min":5629,"ring":5630,"ongr":5631,"ountain":5632,"_order":5633,"_vol":5634,"Ġtruth":5635,"Ġintersections":5636,"nlinarith":5637,"Ġoutput":5638,"Ġsuper":5639,"Ġarticle":5640,"pped":5641,"Ġequivalence":5642,"Ġshares":5643,"ĠThus":5644,"BA":5645,"Ġsixth":5646,"Ġouter":5647,"Ġunion":5648,"Ġformulas":5649,"Pl":5650,"posit":5651,"Ġdeli":5652,"ĠĠĠĠĠĠĠĠĠĠĠĠĠĠĠĠĠĠĠĠĠ":5653,"Ġheights":5654,"QR":5655,"_solutions":5656,"ĠStrict":5657,"ĠCE":5658,"Ġcycl":5659,"Ġmovie":5660,"Ġnickels":5661,"Ġpants":5662,"ĠClass":5663,"Ġquantities":5664,"reg":5665,"Ġkids":5666,"ĠVi":5667,"hw":5668,"ĠThese":5669,"ums":5670,"Ġground":5671,"Ġstack":5672,"ellipse":5673,"_row":5674,"edian":5675,"oms":5676,"Ġregression":5677,"_eight":5678,"tains":5679,"Ġste":5680,"Ġdoesn":5681,"Ġcontradicts":5682,"Ġfollowed":5683,"Ġfactorization":5684,"Ġachieve":5685,"_income":5686,"Ġmang":5687,"Ġla":5688,"Ġdiscounts":5689,":âĦļ":5690,"aped":5691,"Ġ__________.":5692,"cending":5693,"Ġcamp":5694,"ev":5695,"Ġmixed":5696,"Ġextended":5697,"gray":5698,"ĠConclusion":5699,"aim":5700,"Ġeast":5701,"Ġfunctional":5702,"ouble":5703,"One":5704,"Ġtask":5705,"Ġrubles":5706,".pow":5707,"Ġgrocer":5708,"_relation":5709,"Ġ\\)-":5710,"_car":5711,"Ġdepart":5712,"_ins":5713,"Ġago":5714,"Ġassign":5715,"ildren":5716,"Ġcurrently":5717,"(shift":5718,"unity":5719,"Ġoffer":5720,"Ġpond":5721,"Ġproduced":5722,"ĠMax":5723,"Ġbig":5724,"inter":5725,"ĠSte":5726,"_pop":5727,"ung":5728,"ĠInd":5729,"Ġafternoon":5730,"Ġmathematics":5731,"_train":5732,"âĮī":5733,"oph":5734,"ĠhA":5735,"Ġextension":5736,"*}Ċ":5737,"}(\\":5738,"Ġminor":5739,")-/":5740,"Ġdomin":5741,"prove":5742,"}=$":5743,"Ġexternal":5744,"ĠVasya":5745,"_col":5746,".cast":5747,"Ġce":5748,"type":5749,"Ġsitting":5750,"Ġmeasuring":5751,"(d":5752,"Ġstanding":5753,"Ġpump":5754,"ĠWrite":5755,"aurant":5756,"Ġriver":5757,"Ġeng":5758,"Ġrelationships":5759,"_geometric":5760,")+\\":5761,"Ġsports":5762,"Ġdescribed":5763,"ĠQR":5764,"_R":5765,"_card":5766,"_tickets":5767,"Ġsections":5768,"iture":5769,"Ġreciprocals":5770,"Ġcomposite":5771,"Ġcontinues":5772,"Ġsubsequent":5773,"traction":5774,"gen":5775,"Ġfrequ":5776,"ĠSplit":5777,"_property":5778,"Ġleak":5779,"Ġinstead":5780,"Ġcovers":5781,"img":5782,"Ġpost":5783,".B":5784,"Ġcream":5785,"initely":5786,"Ġrepeating":5787,"Ġ<;>Ċ":5788,"_loss":5789,"Ġparticular":5790,"Ġtoy":5791,"Ġcorners":5792,"Ġmedium":5793,"Ġwheel":5794,"Ġtons":5795,"Ġship":5796,"Ġ|\\":5797,"Ġreverse":5798,"Ġassigned":5799,"Ġarcs":5800,"$$-/":5801,"ĠSimilarly":5802,"Ġ\\;":5803,"_mono":5804,"Ġcommit":5805,"Ġplanted":5806,"hD":5807,"_third":5808,"hedral":5809,"_bis":5810,"_coeff":5811,"_both":5812,"Ġratios":5813,"edges":5814,"Ġdraws":5815,"_antisymm":5816,"Ġdrive":5817,"ĠAF":5818,"_correct":5819,".pos":5820,"list":5821,")f":5822,"Ġtour":5823,"Ġtransformation":5824,"af":5825,"')Ċ":5826,"Ġmathematical":5827,"Ġfence":5828,"Ïģ":5829,"Ġexpr":5830,"anced":5831,"ĠAlso":5832,"temp":5833,"Ġtip":5834,"lan":5835,"Ġ\\(\\{":5836,"ĠMon":5837,"PR":5838,"Ġkind":5839,"Ġpermutations":5840,"vial":5841,"ĠĠĠĠĠĠĠĠĠĠĠĠĠĠĠĠĠĠĠĠĠĠ":5842,"uppies":5843,"Ġenclosed":5844,"ca":5845,"Ġrolled":5846,"_trip":5847,"}=-":5848,"Ġerror":5849,"Ġcalories":5850,"Type":5851,"ests":5852,"Ġvide":5853,"ĊĠĠĠĠĠĠĊ":5854,"_real":5855,"ennies":5856,"ĠReverse":5857,"orn":5858,"ccording":5859,"Ġexceeding":5860,"Ġdet":5861,"iling":5862,"Ġacti":5863,"Ġexceeds":5864,"ricks":5865,"Ġpeaches":5866,"Ġcurves":5867,"oi":5868,"Ġsee":5869,"Ġ<=":5870,"van":5871,"Ġconf":5872,"Ġ\\$":5873,"_combinations":5874,")..(":5875,"ĠBP":5876,"Ġ>=":5877,"Ġ(((":5878,"Ġimm":5879,"Ġcatch":5880,"mega":5881,"Ġ++":5882,"Ġcounts":5883,"gor":5884,"Ġvill":5885,"usic":5886,"Ġflower":5887,"_votes":5888,"\\]-/":5889,"Ġbaseball":5890,"Ġrear":5891,"ĠBut":5892,"Ġlot":5893,"vation":5894,"_equality":5895,"Ġsigns":5896,"_path":5897,"lings":5898,"Ġbudget":5899,")--(-":5900,"ocus":5901,"Ġcheese":5902,"uchy":5903,"tfrac":5904,"ĠDEF":5905,"Ġâĸ":5906,"PS":5907,"Ġoptim":5908,"})(":5909,"}\\}$,":5910,"ital":5911,"Ġroads":5912,"berry":5913,"hbc":5914,".divisors":5915,"bon":5916,"ced":5917,"loc":5918,"Ġdepth":5919,"otone":5920,"entific":5921,"fact":5922,"âĤĸ":5923,"-coordinates":5924,"/z":5925,"_interest":5926,"Ġdropped":5927,"ny":5928,"uish":5929,"/((":5930,"Ġrope":5931,"Ġspheres":5932,"Line":5933,"Ġdem":5934,"ĠAssumptions":5935,"rank":5936,"}B":5937,"lets":5938,"Ġradical":5939,"Ġstudy":5940,"gers":5941,"_planes":5942,"Ġtec":5943,"ModEq":5944,"}$$,":5945,"Ġbirthday":5946,"_denom":5947,"new":5948,"az":5949,"Ġfit":5950,"ĠDifferentiable":5951,"-(":5952,"Ġfurther":5953,"Ġoriginally":5954,"Ġeaten":5955,"})$Ċ":5956,"ining":5957,"ĠRo":5958,"_investment":5959,"Ġ\"$\\":5960,"_reg":5961,"^i":5962,"inguish":5963,"Ġgum":5964,"Ġfigures":5965,"*Proposed":5966,"Ġamounts":5967,"Ġchoices":5968,"-z":5969,"ĠNew":5970,".sq":5971,"urt":5972,"Omega":5973,"Per":5974,"Ġpiles":5975,"ption":5976,"ĠBen":5977,"Ġportion":5978,"âĪ£":5979,"ier":5980,"Ġaut":5981,"Ġhs":5982,"Ġoccur":5983,"Ġknows":5984,"Ġmix":5985,"Ġsubtract":5986,"Ġhapp":5987,"hells":5988,"Ġrestaurant":5989,"onst":5990,"orted":5991,"erex":5992,"<x":5993,"_nine":5994,"aff":5995,"_ten":5996,"yz":5997,"Ġhouses":5998,".Ioc":5999,"Ġbeads":6000,"_ellipse":6001,",\\)":6002,"Ġproduces":6003,"ĠBase":6004,"ichael":6005,"Ġspecialize":6006,"Ġanswered":6007,"Ġnorth":6008,"{CD":6009,"Ġshoot":6010,"ĠJames":6011,"_Q":6012,"Ġclaim":6013,"ĠâĮĪ":6014,"Ġtennis":6015,"Ġlying":6016,"urd":6017,"wide":6018,"proves":6019,"Ġstratified":6020,"^p":6021,"=t":6022,"Ġï¼Ī":6023,"Ġdiscounted":6024,"Ġdrink":6025,"ĠPR":6026,"_pack":6027,"Ġlook":6028,"Ġgeom":6029,"ĠJanuary":6030,"enario":6031,"Ġwhy":6032,"{w":6033,"Ġcalculations":6034,"Ġconsumption":6035,"Ġart":6036,"Ġcombination":6037,"stablish":6038,".to":6039,"Ġassuming":6040,"Ġcandidates":6041,"Ġadds":6042,"Ġhist":6043,"Ġchec":6044,"Ġsilver":6045,"action":6046,"Ġseason":6047,"ĠâĨĶĊ":6048,"changed":6049,"ety":6050,"Ġft":6051,"Ġclean":6052,"Ġleads":6053,"ĠMark":6054,"ĠPF":6055,"_white":6056,"*cos":6057,"bar":6058,"/âĪļ":6059,"istry":6060,"Ġstre":6061,"Ġstrip":6062,"Four":6063,"aul":6064,"ĠPetya":6065,"Ġcx":6066,"))$":6067,"Ġmedians":6068,"Ġrice":6069,"ï¼ī":6070,"ĠAngle":6071,"Ġguess":6072,"ĠOnly":6073,"unc":6074,"Ġbicycle":6075,"Ġbet":6076,"Ġleave":6077,"ĠâĮĬ(":6078,"ĠProbability":6079,"Ġrelated":6080,"ilt":6081,"(ÏĢ":6082,"etail":6083,"cakes":6084,"Ġrounded":6085,"Ġyounger":6086,"Ġtables":6087,"Ġshopping":6088,"aily":6089,"tics":6090,"url":6091,"Ġprof":6092,"tsize":6093,"eces":6094,"Ġneighbors":6095,"Ġpolygons":6096,"\\}\\)":6097,"Ġ__":6098,"Ġconstraint":6099,"_sample":6100,"Ġfocal":6101,"black":6102,"ĠMike":6103,"Ġpassengers":6104,"_edge":6105,"ĠAd":6106,"Ġlit":6107,"}}$Ċ":6108,"Ġcp":6109,"Ġexterior":6110,"los":6111,"CB":6112,"Ġwash":6113,"onus":6114,"ato":6115,"Ġ|ĊĊ":6116,"Ġhomework":6117,"Ġvac":6118,"_li":6119,"{{\\":6120,"Ġoffers":6121,"Ġpolyhedron":6122,"Ġservice":6123,"}}-":6124,")?":6125,"Ġoverall":6126,"+bc":6127,"units":6128,"Ġfolded":6129,"Ġshots":6130,"Ġannum":6131,"Ġskew":6132,"\\n":6133,"*]":6134,"_current":6135,"Ġbills":6136,"bul":6137,"most":6138,"Ġath":6139,"Ġsticks":6140,"|^":6141,"Ġpies":6142,"Ġevalu":6143,"Ġpartial":6144,"ica":6145,"Ġ\\\\((":6146,"âĪŀ,":6147,"earch":6148,"_deg":6149,"comp":6150,"Ġchoosing":6151,"ĠColor":6152,"rot":6153,"_gcd":6154,"Ġpers":6155,"Ġpiecewise":6156,"{AD":6157,"Ġinves":6158,"ĠPQR":6159,"pper":6160,"relation":6161,"Ġremoving":6162,"{vmatrix":6163,"']Ċ":6164,"OP":6165,",âĪŀ":6166,"Ġ|(":6167,"-empty":6168,")$?":6169,"Ġ\\_\\_\\_\\_\\_\\_.-/":6170,"Ġchoice":6171,"Ġsched":6172,"ĠJo":6173,"_sol":6174,"Ġevenly":6175,"each":6176,"Ġachieved":6177,"Ġlcm":6178,"Ġrecorded":6179,"ĠÏĥ":6180,"Ġcaught":6181,"}$)":6182,"DA":6183,"omic":6184,"Ġwear":6185,"Ġsaved":6186,"Ġlawn":6187,"ĠII":6188,"erexample":6189,"/d":6190,"dir":6191,"Ġvi":6192,"Ġplates":6193,"Ġinclin":6194,"Proves":6195,"rical":6196,"Ġbutter":6197,"}\\\\{":6198,"}t":6199,"Ġspending":6200,"Ġcrossing":6201,"Ġdozen":6202,"Ġseparately":6203,"known":6204,"âĢ¢":6205,"Ġcomposed":6206,"_express":6207,"onal":6208,">.":6209,"Ġmap":6210,"Ġapplied":6211,"Ġfactored":6212,"uzz":6213,"_reci":6214,"_theorem":6215,"Ġbran":6216,"}\\\\)Ċ":6217,"Ch":6218,"_pass":6219,"Ġveloc":6220,"ged":6221,"Â°)":6222,"PQRS":6223,"Ġfinished":6224,"ault":6225,"Points":6226,"ĠIsG":6227,"Ġmanipulations":6228,"Ġdisplay":6229,"balls":6230,"\\(":6231,"\\log":6232,"Cl":6233,"ontsize":6234,"ighth":6235,").-/":6236,"Ġcart":6237,"\\).ĊĊ":6238,",j":6239,"Ġrolling":6240,"Express":6241,"hu":6242,"ĠÐ":6243,"}A":6244,"eckl":6245,"nie":6246,"Ġroc":6247,"aria":6248,"Ġbeans":6249,"ĠStrictMono":6250,"Ġinclination":6251,"Ġwire":6252,"ĠRepres":6253,"oon":6254,"Ġdress":6255,"_between":6256,"Ġbed":6257,"ĠÂ¬(âĪĥ":6258,"ensive":6259,"hpos":6260,"otor":6261,"_months":6262,"_friend":6263,"Ġappro":6264,"Ġmode":6265,"Ġcakes":6266,"\\sum":6267,")=$":6268,"{OA":6269,"Ġfruits":6270,"Ġcame":6271,"\\)?":6272,"big":6273,"}},":6274,"Ġvideo":6275,"Ġgrass":6276,"?ĊĊĊ":6277,"Ġpassed":6278,"Ġnotebooks":6279,"Ġchance":6280,"onempty":6281,"_factors":6282,",k":6283,"Ġdistribute":6284,"upi":6285,"ĠMid":6286,"ĠOA":6287,"hg":6288,"Ġflat":6289,"Count":6290,"Ġjog":6291,")âģ»":6292,"Ġdivisibility":6293,"ĠDF":6294,"Ġthrow":6295,"Ġboundary":6296,"'C":6297,"Ġdots":6298,"ux":6299,"inguishable":6300,"{ab":6301,"Ġ\\([":6302,"ĠÂ¬(âĪĢ":6303,"Ġsheep":6304,"'B":6305,"unit":6306,"-------|":6307,"(P":6308,"cepts":6309,"_singleton":6310,"Ġasked":6311,"Ġveget":6312,"Ġsubstituting":6313,"],Ċ":6314,"DF":6315,"KL":6316,"rian":6317,"ĠWith":6318,"Ġinformation":6319,".ModEq":6320,"pes":6321,")/((":6322,"_cast":6323,"Ġsuccessive":6324,"count":6325,"ĠUS":6326,"gorith":6327,"Ġformal":6328,")=(":6329,"Ġfall":6330,")y":6331,"mn":6332,"Ġunchanged":6333,"_over":6334,"Î³":6335,"illy":6336,"Ġpicture":6337,"Ġ).Ċ":6338,"{cm":6339,"Ġperpendiculars":6340,"bert":6341,"ried":6342,"ediate":6343,"_distribution":6344,"Ġpicks":6345,"Ġscientific":6346,"Ġcreate":6347,"Ġabsurd":6348,"}\\).Ċ":6349,"Ġpennies":6350,"Ġstring":6351,"Ġindependently":6352,"Ġborrow":6353,"Ġspeak":6354,"Ġseas":6355,"Ġpackages":6356,"Ġgift":6357,"ĠJane":6358,"Ġdepend":6359,"Ġlemon":6360,"Ġwrites":6361,"ribute":6362,"_start":6363,"Ġcollect":6364,"clockwise":6365,"].":6366,"Ġleading":6367,"Div":6368,"ograph":6369,"ctors":6370,"State":6371,"inductive":6372,"Ġpress":6373,"Ġ_âŁ©":6374,"Ġcr":6375,"avi":6376,"pon":6377,"_insert":6378,"emales":6379,"rench":6380,"erc":6381,"ĠTim":6382,"\\(\\":6383,"ĠčĊ":6384,"(graf":6385,"gest":6386,"Ġlongest":6387,"/r":6388,"Ġhxy":6389,"Ġcoincides":6390,"nter":6391,"ursive":6392,"'re":6393,"''''":6394,"Ġhot":6395,"Ġrecurrence":6396,"Ġhorses":6397,"CE":6398,"_ti":6399,"_given":6400,",f":6401,"Ġjoined":6402,"Ġstone":6403,"Ġdetermin":6404,"*sin":6405,"ĠEstablish":6406,"ĠBM":6407,",E":6408,"lapping":6409,"Ġspr":6410,"Ġliqu":6411,"Ġbur":6412,"ĠCor":6413,"Ġmethods":6414,"=-\\":6415,"lepi":6416,"_op":6417,"vent":6418,"ĠNormal":6419,"Ġjohn":6420,"_person":6421,"Ġxyz":6422,"Ġ\\)ĊĊ":6423,"Ġprize":6424,"ameters":6425,"oman":6426,"including":6427,"Ġgrades":6428,"ĠOB":6429,"ĠCauchy":6430,"CF":6431,"Ġ!":6432,"Ġcounting":6433,"Ġ#":6434,".Ioi":6435,"warz":6436,"_pound":6437,"Ġdisjoint":6438,"_change":6439,"second":6440,"Ġke":6441,"Ġhourly":6442,"Ġexpanding":6443,"lifies":6444,"\\equal":6445,"ĠACB":6446,"Ġelection":6447,"Ġ_____":6448,"Ġversion":6449,"\\,":6450,"chwarz":6451,"}=(\\":6452,"bullet":6453,"Ġfly":6454,"Ġjun":6455,"oins":6456,"Ġcourse":6457,"Ġfres":6458,"Ġvelocity":6459,"Ġsatisfied":6460,"Ġlap":6461,"Ġcd":6462,"_before":6463,"_us":6464,"))).":6465,"Ġdrives":6466,"After":6467,"itness":6468,"Ġknights":6469,"Ġjumps":6470,"_green":6471,"Ġreflected":6472,"{.":6473,"-----|-----|":6474,"_diagonal":6475,"_recipro":6476,"\"Ċ":6477,"Ġexpanded":6478,"rooms":6479,"Ġdeduce":6480,"_spent":6481,"Ġcharacter":6482,"ĠEl":6483,"_large":6484,"Ġapplying":6485,"_Icc":6486,"Ġtenth":6487,"Ġfrog":6488,"ĠMod":6489,"anda":6490,"Ġtuesday":6491,"_he":6492,"ĠDavid":6493,"Ġdaugh":6494,"Ġrearrang":6495,"Ġexchange":6496,"Ġtechn":6497,"Ġbucket":6498,"ĠâĬ¢":6499,"tha":6500,"ĠpB":6501,"ĠÏĨ":6502,"\\cup":6503,"Ġautom":6504,"BF":6505,"Ġhsum":6506,"Ġfenc":6507,"Ġmusic":6508,"Ġcri":6509,"Ġweighing":6510,"Ġindex":6511,"uests":6512,"Ġconvert":6513,"}\\]Ċ":6514,"Ġretail":6515,"acci":6516,"ifies":6517,"Ġhighway":6518,"_contradiction":6519,"ixed":6520,"Â±":6521,"vide":6522,"\\hline":6523,"\\angle":6524,"_fee":6525,"iew":6526,"-S":6527,"Ġprac":6528,"Ġdollar":6529,"Ġrook":6530,"})$ĊĊ":6531,"âĬ":6532,"_im":6533,"ĠPC":6534,"Ġpurchases":6535,"grid":6536,"_norm":6537,"Ġchickens":6538,"ĠMay":6539,"_cubes":6540,"ishes":6541,"Ġsheets":6542,"(Î¸":6543,"duc":6544,"ij":6545,"},Ċ":6546,"Ġpears":6547,"mpr":6548,"ipes":6549,"ĠĠĠĠĠĠĠĠĠĠĠĠĠĠĠĠĠĠĠĠĠĠĠĠĠ":6550,"Ġweekend":6551,"Ġexperim":6552,"white":6553,"aran":6554,"ediately":6555,"Ġsubtraction":6556,"bold":6557,"Ġliter":6558,"BP":6559,"{th":6560,"Ġsimplifies":6561,".arcsin":6562,"good":6563,"ster":6564,"_expression":6565,"{I":6566,"Ġdriving":6567,"$th":6568,"Ġregard":6569,"oline":6570,"Ġsave":6571,"Ġmoment":6572,"_perpendicular":6573,"Ġremove":6574,",linewidth":6575,"ld":6576,"number":6577,"+t":6578,"vest":6579,"_cook":6580,"Ġclothing":6581,"_sold":6582,"Ġcompare":6583,"Ġpalindrome":6584,"pril":6585,"ĠFigure":6586,"_ec":6587,">n":6588,"ĠInitially":6589,"asing":6590,"_cross":6591,"Ġwitness":6592,"ĠDen":6593,"Ġmeasured":6594,"-point":6595,"orge":6596,"ĠâĬ¢Ċ":6597,"}]":6598,"}\\]":6599,"Ġslant":6600,"ĠDraw":6601,"Ġalternating":6602,"Ġbelong":6603,"Ġreads":6604,"Ġtele":6605,"Ġimmediately":6606,"Ġdevi":6607,"Ġcome":6608,".product":6609,"cdn":6610,"gorithm":6611,"Ġsent":6612,"ahedron":6613,"{OB":6614,"ĠRight":6615,"clusive":6616,"Ġ--/Ċ":6617,"Ġnever":6618,")^{-":6619,"Ġclim":6620,".Coprime":6621,"Ġbroken":6622,"XZ":6623,"Ġhear":6624,"rd":6625,"ED":6626,"ĠÎĶ":6627,"_last":6628,"Ġsitu":6629,"Ġparallelepi":6630,"iches":6631,"Ġcomes":6632,"ruary":6633,"_surface":6634,"}}$ĊĊ":6635,"Ġfac":6636,"âĨĴ":6637,"Ġham":6638,"**Ċ":6639,"Mr":6640,"Ġbest":6641,"ocal":6642,"{s":6643,"adow":6644,"Ġtea":6645,"Ġchicken":6646,"+r":6647,",i":6648,"ibon":6649,"Ġbab":6650,"Ġ=\\":6651,"ermediate":6652,"Ġducks":6653,"ancy":6654,"{T":6655,"bot":6656,"Ġparents":6657,"hsum":6658,"Ġpackage":6659,"----------------":6660,"Ġtails":6661,"ĠCl":6662,"_bisector":6663,"bound":6664,"Ġfra":6665,"tery":6666,"ĠSarah":6667,"view":6668,"_law":6669,"Ġcarry":6670,"\\;":6671,"Ġvillage":6672,"from":6673,"ĠBas":6674,"_intersect":6675,"ten":6676,"indrical":6677,"answer":6678,"ibonacci":6679,"ĠCF":6680,"Ġsubtracted":6681,"-r":6682,"ĠDoes":6683,"\\\\((":6684,"bits":6685,"ymbol":6686,"Ġdeterminant":6687,"Ġphysics":6688,"DEF":6689,"ĠFourth":6690,"ĠpA":6691,"Ġdinner":6692,"Ġ$\\_\\_\\_\\_\\_":6693,"Ġconduct":6694,"ampling":6695,"ilk":6696,"Ġscenario":6697,"Ġbricks":6698,"{and":6699,"reatest":6700,"ĠRepresents":6701,"ĠHigh":6702,"_bill":6703,"ĠÎ¼":6704,"_O":6705,"Ġgar":6706,"finite":6707,"Ġdiamond":6708,"Ġmotor":6709,"rices":6710,"habc":6711,"Ġendpoint":6712,"uri":6713,"Ġiff":6714,"Ġgl":6715,"Ġrecursive":6716,"alk":6717,"(xy":6718,"blue":6719,"Ġcric":6720,"Ġmoved":6721,"Ġdeposit":6722,"Ġcorrelation":6723,"olumes":6724,"Ġsizes":6725,"}C":6726,"tili":6727,"_quadratic":6728,"_less":6729,"_faces":6730,"Ġloan":6731,"Ġexplicitly":6732,"ĠProposition":6733,"_game":6734,"Ġoffice":6735,"uly":6736,"ĠGeometric":6737,"ĠVieta":6738,"Ġbelongs":6739,"[*]":6740,"ectangle":6741,"Ġmolec":6742,"Ġwage":6743,"Ġcounterexample":6744,"Ġremainders":6745,"Ġseventh":6746,"ĠĠĠĠĠĠĠĠĠĠĠĠĠĠĠĠĠĠĠĠĠĠĠĠĠĠ":6747,"rey":6748,"comm":6749,"^o":6750,"}\\\\":6751,"tersection":6752,"aultpen":6753,"kee":6754,".arctan":6755,"Ġassoci":6756,"Ġeliminate":6757,"dis":6758,"ision":6759,"---|":6760,"fish":6761,"Ġcounted":6762,"Ġprogram":6763,"_reciprocal":6764,"}\\|":6765,".is":6766,"_arg":6767,"ĠEq":6768,"})+":6769,"Ġcylindrical":6770,"Ġhelp":6771,"Square":6772,"Ġunknown":6773,"Ġliquid":6774,"eans":6775,"Ġ|>.":6776,")^{\\":6777,"Ġpossib":6778,"Ġcorresponds":6779,"âī¥":6780,"_circ":6781,"urch":6782,"Ġmountain":6783,"uadr":6784,"Ġconsum":6785,"ĠĠĠĠĠĠĠĠĠĠĠĠĠĠĠĠĠĠĠĠĠĠĠĠĠĠĠĠ":6786,"antity":6787,"-inch":6788,"Ġsays":6789,"âĢĸ)":6790,"Par":6791,"Ġclothes":6792,",.":6793,"Ġsalt":6794,"Ġrev":6795,"rote":6796,"ilon":6797,"uro":6798,")^(-":6799,"|h":6800,"Ġhw":6801,"_pair":6802,"Ġstay":6803,"Ġfrequency":6804,"price":6805,"major":6806,"}$:":6807,"digit":6808,"ĠEmily":6809,"ufact":6810,"Ġpo":6811,"uals":6812,"tersecting":6813,"Ġwrote":6814,"monic":6815,"ĠDA":6816,"Ġfractional":6817,"Ġcompletes":6818,"psilon":6819,"Right":6820,"empty":6821,"actly":6822,"_rema":6823,"Ġpred":6824,"Ġsenior":6825,"Ġ$[\\":6826,"YZ":6827,"iel":6828,"ĠNormalize":6829,"apes":6830,"Ġmatter":6831,"ument":6832,"ĠAccording":6833,"Ġisolate":6834,"_mult":6835,"*A":6836,"Ġdeal":6837,"Ġincludes":6838,"achel":6839,"Ġband":6840,"anging":6841,"olates":6842,"Using":6843,"{}\\":6844,"Ġblackboard":6845,"Ġ-âĪļ":6846,"esterday":6847,"Ġcoeff":6848,"Ġorders":6849,"_wins":6850,"hN":6851,"_terms":6852,"diamond":6853,"ĠPr":6854,"Ġbrick":6855,"Ġdrinks":6856,"/k":6857,"Ġoffic":6858,"{i":6859,"}:":6860,"Ġeverything":6861,"_daily":6862,"ĠXYZ":6863,"You":6864,"Ġ[/":6865,"Ġshifted":6866,"_T":6867,"oplus":6868,"ilies":6869,"{q":6870,"_miles":6871,"mark":6872,"Ġlayer":6873,"Ġcarrots":6874,".not":6875,"ĠĠĠĠĠĠĠĠĠĠĠĠĠĠĠĠĠĠĠĠĠĠĠĠ":6876,"Ġ$,":6877,"-year":6878,")i":6879,"âĪĳ":6880,"!Ċ":6881,"overed":6882,"Ġben":6883,"Ġoptimal":6884,"eting":6885,"ĠFeb":6886,"Ġnums":6887,".S":6888,"rig":6889,"ĠLuc":6890,"Ġmonday":6891,"Ġdest":6892,"ella":6893,"BM":6894,"Week":6895,"tand":6896,"Ġrays":6897,"Ġvary":6898,"_bags":6899,"jection":6900,"elling":6901,"_position":6902,"Ġattemp":6903,"Ġparallelepiped":6904,"Ġhats":6905,"Ġguaran":6906,"Ġschools":6907,"{r":6908,"Ġhat":6909,"ealth":6910,"ĠCP":6911,"ĠPut":6912,"ĠPeter":6913,"Ġchain":6914,"Ġcoincide":6915,"orld":6916,"Ġderived":6917,".In":6918,"+âĪŀ":6919,"ka":6920,"_de":6921,"ceed":6922,"ana":6923,"Ġyard":6924,"Ġcommittee":6925,"path":6926,"angu":6927,")[/":6928,"_unit":6929,"PC":6930,"_wage":6931,"Ġvisited":6932,"ĠMing":6933,"Ġcot":6934,"Ġ(-(":6935,"ife":6936,"_U":6937,"Ġsolved":6938,".\\]Ċ":6939,"Ġcolle":6940,"Least":6941,"Ġcookie":6942,"velop":6943,"Ġhair":6944,"ĠMarch":6945,")âĮĭ":6946,"energy":6947,"+B":6948,"ĠGCD":6949,"_bott":6950,"Ġlead":6951,"_black":6952,"lanar":6953,"Ġsubst":6954,"unn":6955,"Ġneckl":6956,"ĠMichael":6957,"Ġfarmer":6958,"_orig":6959,"Ġentries":6960,"ĠMin":6961,"mel":6962,"Ġcorn":6963,"ĠisValid":6964,"Ġswimming":6965,"(ab":6966,"Ġvolumes":6967,"Ġnuts":6968,"Ġorch":6969,"aves":6970,"Ġspecified":6971,"Ġanalytical":6972,"Ġbad":6973,"Ġthus":6974,"_floor":6975,"Ġmeat":6976,"Ġ\",":6977,"ogonal":6978,"Ġshared":6979,"ĠAlgebra":6980,"Ġleaving":6981,"\\mathbf":6982,"dvd":6983,"ĠPh":6984,"uzzle":6985,"_double":6986,"}<":6987,"Ġmanufact":6988,"aking":6989,"Ġincluded":6990,"All":6991,"Ġinclude":6992,"Ġoccupi":6993,"ifth":6994,"Ġcupcakes":6995,"HS":6996,"-section":6997,"_Î±":6998,"uler":6999,"hAB":7000,"ĠLines":7001,"wri":7002,"Ġgrapes":7003,"-major":7004,"_tra":7005,"Ġparking":7006,"urses":7007,"Ġvisible":7008,"_through":7009,"mum":7010,"ĠFibonacci":7011,"imeters":7012,"Ġswe":7013,"*i":7014,"Ġ$\\{-":7015,"'_":7016,"Ġbonus":7017,"Ġeveryone":7018,"ender":7019,"penditure":7020,"Ġtrigon":7021,"ĠMathematics":7022,"_ir":7023,"erries":7024,"Ġsubjects":7025,"ĠIsGreatest":7026,"Ġtouching":7027,"âĢĿ":7028,"Ġuniformly":7029,"Ġevening":7030,"congr":7031,"_win":7032,"Ġsouth":7033,"Ġfinds":7034,"_arrangement":7035,"Ġstatis":7036,",D":7037,"ĠCity":7038,"-shaped":7039,"owing":7040,"Ġcounterclockwise":7041,"_decreasing":7042,"umbers":7043,"/p":7044,"_children":7045,"Fill":7046,"odes":7047,"color":7048,"Ġvaries":7049,"_cl":7050,"widehat":7051,"Ġpotatoes":7052,"Ġadv":7053,"oors":7054,"ĠPlease":7055,"circles":7056,"Ġtwelve":7057,"/q":7058,"Ġlives":7059,"ĠFebruary":7060,"Ġascending":7061,"<a":7062,"Ġtomatoes":7063,"Ġtre":7064,"_incr":7065,"ena":7066,"Ġarray":7067,"tig":7068,"{matrix":7069,"ĠCol":7070,"OfWeek":7071,"Ġbird":7072,"ece":7073,"Ġtower":7074,"'^":7075,"rought":7076,"_weeks":7077,"Ġcircumradius":7078,"Ġpersons":7079,"light":7080,"Ġtaxes":7081,"Ġreturned":7082,"index":7083,"ĠTV":7084,"Ġwheels":7085,"Ġgasoline":7086,"_moles":7087,"\\minus":7088,"}f":7089,"Ġmagic":7090,"}^{*":7091,"Ġsongs":7092,"____.":7093,"Ġdefinitions":7094,"Ġcricket":7095,"limit":7096,"_quantity":7097,"ĠBF":7098,"Ġtrivial":7099,"*Î±":7100,"perimeter":7101,"que":7102,"Even":7103,"Ġsle":7104,"ĠâĢľ":7105,"Ġmeaning":7106,"(r":7107,"Ġdividend":7108,"Ġreplace":7109,"Ġgiving":7110,"sim":7111,"Ġrearrange":7112,"Ġwest":7113,"filldraw":7114,"ĠDisc":7115,"'$,":7116,"Ġmist":7117,"Ġpx":7118,"Ġant":7119,"unte":7120,"$.ĊĊĊ":7121,"Ġfencing":7122,"etch":7123,"Ġpromo":7124,"_simplification":7125,"Ġcomponents":7126,".ĊĊĊ":7127,"ĠhC":7128,"ĠABD":7129,"-A":7130,"eon":7131,"Ġsolving":7132,"hind":7133,"two":7134,"arth":7135,"Ġadj":7136,"asure":7137,"ĠProblem":7138,"Ġhorse":7139,"Ġpipes":7140,"}$),":7141,"Ġmissing":7142,"_remainder":7143,"Area":7144,"Ġlear":7145,"agons":7146,"_segment":7147,"Ġvehicles":7148,"Ġcister":7149,"ommon":7150,"Ġhousehold":7151,"_divisors":7152,"Ġraised":7153,"keeper":7154,"Ġfew":7155,"Ġminimized":7156,"Ġalt":7157,"ĠBCD":7158,"ijective":7159,"_mag":7160,"Ġcommission":7161,"imension":7162,"âĢ²":7163,"au":7164,"bur":7165,"Ġstri":7166,"Ġplanned":7167,"Ġpictures":7168,"Ġmer":7169,"Ġseashells":7170,"Ġimage":7171,"MA":7172,"even":7173,"_selection":7174,"down":7175,"ĠAOB":7176,"via":7177,"ĠJune":7178,"Ġsystematic":7179,"Ġquadrup":7180,"_reduction":7181,"td":7182,"SE":7183,"start":7184,"_ext":7185,"ĠDayOfWeek":7186,"duct":7187,"Ġflips":7188,"Ġending":7189,"Ġdensity":7190,"Ġcistern":7191,"sto":7192,"Ġfund":7193,"Ġotherwise":7194,"Ġdriver":7195,"non":7196,"Ïĥ":7197,"Ġmaximized":7198,"ades":7199,"Ġname":7200,"ollary":7201,"Ġpill":7202,"Ġtransfer":7203,"Ġmolecular":7204,"Ġfli":7205,"\\\\Ċ":7206,"Ġprojections":7207,"urance":7208,"Convert":7209,"ĠCho":7210,"During":7211,"za":7212,"ubo":7213,"Ġobject":7214,"emptyset":7215,">b":7216,"style":7217,"[n":7218,"ĠBill":7219,"_vertex":7220,"ropri":7221,"_identi":7222,"ï¼ŀ":7223,"Ġtrigonometric":7224,"Ġshelf":7225,"_marks":7226,"Ġchecker":7227,"Ġdrove":7228,"\\_\\_\\_":7229,".<":7230,"Ġcontinu":7231,"âĮĬ":7232,"favorable":7233,"Ġview":7234,"upe":7235,"Ġ(-âĪŀ,":7236,".$ĊĊ":7237,"_comparison":7238,"display":7239,"Ġconversion":7240,"Sp":7241,"Ġfinally":7242,"Ġputs":7243,"Ġparameters":7244,"Ġguests":7245,"atives":7246,"Ġsib":7247,"Ġbranch":7248,"_tan":7249,"Ġovertime":7250,"}^*$,":7251,"Ġtranslated":7252,")$;ĊĊ":7253,"+C":7254,"_ABC":7255,"*B":7256,"_only":7257,"{|":7258,"}}=\\":7259,"(e":7260,"Ġfavor":7261,"Ġsnow":7262,"Ġ$.":7263,"Ġstor":7264,"(ii":7265,"_bl":7266,"Ġsym":7267,"Ġbuses":7268,"displaystyle":7269,"Add":7270,"ĠCenter":7271,"------|":7272,"ĠHere":7273,",A":7274,"_union":7275,"|y":7276,"inomial":7277,"_poly":7278,"Ġplate":7279,"Ġmodified":7280,"=y":7281,"Ġneighboring":7282,"suit":7283,"ĠSpeed":7284,"_slices":7285,"ifts":7286,"shakes":7287,"+,":7288,"Odd":7289,"Ġbrought":7290,"Ġarg":7291,"rit":7292,"Ġbody":7293,"aken":7294,"Ġdele":7295,"ĠOriginal":7296,"aster":7297,"_down":7298,"hF":7299,"Ġhj":7300,"hape":7301,"Ġpink":7302,"place":7303,"ĠCB":7304,"Ġpean":7305,"Factor":7306,"-hour":7307,"ĠJoe":7308,"hi":7309,"Ġhole":7310,"Ġinradius":7311,"\\\\).":7312,"hR":7313,"Ġinch":7314,"_split":7315,"Ġexclusive":7316,"ams":7317,"lla":7318,"Ġresearch":7319,"_lcm":7320,"Ġmonotone":7321,"_hand":7322,"profit":7323,"Ġnth":7324,"Ġlangu":7325,"$,Ċ":7326,"Ġ\\:":7327,"Ġnotebook":7328,"Ġinternally":7329,"Ġvertically":7330,"_times":7331,"_X":7332,"Ġbob":7333,"olves":7334,"Ġsummer":7335,"ĠIsLeast":7336,"))^(":7337,"ĠIts":7338,"Five":7339,"rack":7340,"âĦķ":7341,"*w":7342,"Îµ":7343,"Ġbecome":7344,"_axis":7345,"argin":7346,"aid":7347,"_pre":7348,"_men":7349,"Ġexerc":7350,"_coprime":7351,"Ġfemales":7352,"_pieces":7353,"Ġsandwiches":7354,".degree":7355,"ĠReg":7356,"Ġfa":7357,"ague":7358,".png":7359,")}^{":7360,"Seq":7361,"lceil":7362,"Ġcaps":7363,"\\beta":7364,"âĪª":7365,"_multiplier":7366,"house":7367,"Ġsandwich":7368,"{{{":7369,"}=(-":7370,"incipal":7371,"Ġprefer":7372,"á¶":7373,"Ġestimate":7374,"ĠTrain":7375,"Ġshot":7376,"Ġalgorithm":7377,"opper":7378,"Ġtrucks":7379,"Ġexponents":7380,"Ġdevelop":7381,"ĠVerifies":7382,"ĠProper":7383,"there":7384,"Ġconverse":7385,"Ġcongruence":7386,"urth":7387,"ĠGame":7388,"Ġâĸ¸":7389,"ipping":7390,"Ġaver":7391,"phone":7392,"Ġmaintain":7393,"_fe":7394,"Ġcarp":7395,"Ġvolunte":7396,"imensional":7397,"/t":7398,"encils":7399,"_players":7400,"egan":7401,"Ġchip":7402,"Ġfeed":7403,"ositive":7404,"_linear":7405,"otel":7406,"({":7407,"coeff":7408,"Ġslower":7409,"_system":7410,"ĠBased":7411,"Ġbug":7412,"Ġglasses":7413,"NE":7414,"âŁ¨":7415,"ĠChoose":7416,"Ġhall":7417,"Ġmales":7418,"_edges":7419,"ems":7420,"ĠIII":7421,"Ġintermediate":7422,"Ġdiameters":7423,"aron":7424,"Ġvess":7425,"Ġduration":7426,"Ġmodular":7427,"Ġhistory":7428,"Ġfib":7429,"rceil":7430,"Ġlad":7431,"Ġzx":7432,"erman":7433,"_fourth":7434,")a":7435,"symbol":7436,"Ġhorizontally":7437,".$$":7438,"Ġborrowed":7439,"Ġinductive":7440,"+ca":7441,"}}Ċ":7442,"_H":7443,"\\lim":7444,"Ġ\\))":7445,"mean":7446,"ĠâīĪ":7447,"Ġenve":7448,"Ġtransformed":7449,"_increasing":7450,"ĠRadius":7451,"âĤĭ":7452,"Ġpurchasing":7453,"boldsymbol":7454,"=k":7455,"Di":7456,"<sup":7457,"Ġpalindrom":7458,"Ġprovided":7459,"ittens":7460,"Ġschem":7461,"aged":7462,"Ġegg":7463,"^{(":7464,"Ġchocolates":7465,"Ġmetal":7466,"Ġraise":7467,"ĠInductive":7468,"ient":7469,"Ġstrawberries":7470,"ĠOption":7471,"Ġrevers":7472,"Ġexperiment":7473,"]!":7474,"ĠApril":7475,"And":7476,"indy":7477,",q":7478,"olas":7479,"phill":7480,"Ġrecipe":7481,"Ġunders":7482,"illion":7483,"Ġarrives":7484,"Ġbd":7485,"Ġdad":7486,"(S":7487,"_cookies":7488,"Ġautomatic":7489,"ĠMrs":7490,"*sqrt":7491,"_cho":7492,"Ġalloy":7493,"/sin":7494,"Ġmuff":7495,"_trees":7496,"enters":7497,"uture":7498,"...+":7499,"Ġenergy":7500,"Ġregardless":7501,"ience":7502,"tons":7503,"|a":7504,"Ġparticipated":7505,"ratio":7506,"Ġquadrilaterals":7507,"Ġdoubled":7508,"_marbles":7509,"MB":7510,"Ġgrape":7511,"arithmetic":7512,"izing":7513,"Ġfr":7514,"Ġlikely":7515,"Ġbowl":7516,"ĠAlgebraic":7517,"orner":7518,")=|":7519,"Ġusual":7520,"Ġemployee":7521,"Ġlock":7522,"Ġconcurrent":7523,"_ser":7524,"ĠPaul":7525,"$'":7526,"ĠProvide":7527,"Ġseparated":7528,"Ġdeta":7529,"_workers":7530,"_conversion":7531,"^c":7532,"Ġheld":7533,"_mo":7534,"á¶ľ":7535,"Ġknight":7536,"ĠIsValid":7537,"uns":7538,"Ġlate":7539,"after":7540,"rategy":7541,"Alice":7542,"_round":7543,"bâĤĻ":7544,"Ã©":7545,"Ġmachines":7546,"Ġintroduc":7547,"_coins":7548,"_move":7549,"ĠBasic":7550,"Ġapproximate":7551,"Ġjoining":7552,"Ġcontrapositive":7553,"-minor":7554,"ĠRem":7555,"Ġstreet":7556,"Ġpuppies":7557,"Ġhdiv":7558,"Ġallowance":7559,")),Ċ":7560,"_eg":7561,"essica":7562,"Ġcloth":7563,"_original":7564,"_exist":7565,"Ġsam":7566,"ĠFurther":7567,"disc":7568,"hl":7569,"olar":7570,"Ġwoman":7571,"_simplified":7572,"ĠOly":7573,"notin":7574,"aging":7575,"Ġprem":7576,"Ġhl":7577,"âŁ©,":7578,"Ġdihedral":7579,"Ġhundreds":7580,"Ġwalls":7581,"ĠBA":7582,"}+{":7583,"ĠNote":7584,"_integer":7585,"Ġ()ĊĊ":7586,"Ġabsent":7587,"\\mid":7588,"vertices":7589,"_gall":7590,".N":7591,"water":7592,"Ġbat":7593,"OfDigits":7594,"small":7595,"ae":7596,"Ġbehind":7597,"Ġshapes":7598,"Ġpromotion":7599,"irty":7600,"_domain":7601,"Ġmaps":7602,"Ġ}$":7603,"Ġflight":7604,"Ġrabbits":7605,"Ġlocation":7606,"_equiv":7607,"_CD":7608,"urchase":7609,"car":7610,"Ġcollege":7611,"Ġrewri":7612,"/e":7613,"Ġvery":7614,",e":7615,"Ġpizzas":7616,"*((":7617,")}{\\":7618,"Ġprinciple":7619,"Ġful":7620,"_isosceles":7621,"anny":7622,"ĠDenote":7623,"Ġtrips":7624,"pq":7625,"yes":7626,"Ġintros":7627,"Ġeating":7628,"Ġbetter":7629,"ĠNN":7630,"andard":7631,"Ġselects":7632,"ĠĠĠĠĠĠĠĠĠĠĠĠĠĠĠĠĠĠĠĠĠĠĠĠĠĠĠ":7633,"ĠMore":7634,"Ġ}^{":7635,"_same":7636,"ermore":7637,"Ġhg":7638,"ĠJim":7639,"Ġprepar":7640,"Ġexpenditure":7641,"ĠEd":7642,"âģµ":7643,"Ġseated":7644,"'''":7645,"urthermore":7646,"Ġfamilies":7647,"ĠJill":7648,"_parts":7649,"Ġpriced":7650,"Ġhits":7651,"Ġvan":7652,"mpi":7653,"iter":7654,"Ġbackward":7655,"Ġarrive":7656,"-Schwarz":7657,"arccos":7658,"Ġorthogonal":7659,"ints":7660,"}$;Ċ":7661,"Ġcontribution":7662,"''(":7663,"Ġdoor":7664,"Ġbey":7665,"Ġtu":7666,"Ġextremum":7667,".a":7668,"_sym":7669,"cience":7670,"_has":7671,"Ġcyclist":7672,"ropriate":7673,"group":7674,"_years":7675,"Ġbegins":7676,"Ġcalculating":7677,"reak":7678,"=kx":7679,"ublic":7680,"Ġparity":7681,"Ġiter":7682,"Ġtraffic":7683,"\\to":7684,"Ġindices":7685,"Ġbeyond":7686,"Ġcubo":7687,"Ġsharing":7688,"Ġwra":7689,"ĠLCM":7690,"Ġthrows":7691,"\",(-":7692,"eating":7693,"yperbola":7694,"_perim":7695,"find":7696,"Ġhard":7697,"enth":7698,"Ġcalculator":7699,"Ġmess":7700,"olutions":7701,"Ġpreser":7702,"ĠOf":7703,"Ġgraders":7704,"_ways":7705,"Ġdeviation":7706,"=n":7707,"usan":7708,"here":7709,"ĠMB":7710,"^((":7711,"community":7712,"ĠAm":7713,"arcsin":7714,"Ġdoubles":7715,"Ġrabbit":7716,"Ġcoupon":7717,"ont":7718,"Ġthick":7719,"+}":7720,"Ġattended":7721,"Ġharvest":7722,"Ġfiles":7723,"Ġsupermar":7724,"anna":7725,"hca":7726,"_duration":7727,"OM":7728,"Ġhpos":7729,"Ġefficiency":7730,"vart":7731,"vartriangle":7732,"both":7733,"mpiad":7734,"Ġvisitors":7735,"Ġwindow":7736,"Color":7737,"iction":7738,"ging":7739,"Op":7740,"/community":7741,"_vis":7742,"_median":7743,"Ġcomponent":7744,"otimes":7745,"unitsize":7746,"ĠRS":7747,"Ġrings":7748,"asts":7749,"}$?Ċ":7750,"Ġspinner":7751,"Ġseed":7752,"Ġking":7753,"Ġliars":7754,"Ġopened":7755,"ĠÃ·":7756,"inda":7757,"eaten":7758,"Comp":7759,"Ġbanana":7760,"_ball":7761,"Ġdefinitely":7762,"ĠNNReal":7763,"Ġxz":7764,"Ġtro":7765,"ĠYZ":7766,"avg":7767,"Ġfills":7768,"Ġchemistry":7769,"Ġautomatically":7770,"_draw":7771,"_bag":7772,".\\)":7773,"ker":7774,"_cars":7775,"Ġmultiplic":7776,"ĠEarth":7777,"=g":7778,"_ele":7779,"Ġtests":7780,"Ġexcluding":7781,"ĠArithmetic":7782,"Ġspherical":7783,"Ġ|(-":7784,"=c":7785,"ollip":7786,"Ġwatermel":7787,"{none":7788,"Ġreached":7789,"irm":7790,"|/":7791,"Ġconjunction":7792,"ĠCharlie":7793,".artofproblemsolving":7794,"Ġhbc":7795,"Ġframe":7796,"_transform":7797,"cient":7798,"Ġjo":7799,"Ġeras":7800,"Ġfle":7801,")}\\;":7802,"Ġapproaches":7803,"Car":7804,"norm":7805,"Ġrepair":7806,"\\ldots":7807,"Ġwednesday":7808,"Ġborder":7809,"Ġrupe":7810,"Ġclimb":7811,"Ġ[(":7812,"Ġactually":7813,"Ġyields":7814,"BB":7815,"ĠSc":7816,"_eval":7817,"mission":7818,"fall":7819,"Ġconsecutively":7820,"Me":7821,"OH":7822,"ĠBe":7823,"Ġforce":7824,"ĠWork":7825,"Ġperimeters":7826,"-B":7827,"Ġassumptions":7828,"vin":7829,"Ġacid":7830,"Ġsymbol":7831,"rance":7832,"^*":7833,"Ġconcentration":7834,"Ġaff":7835,"Ġgrow":7836,"letes":7837,"approx":7838,"enry":7839,"Ġlic":7840,"Ġwriting":7841,"Al":7842,".b":7843,"efficient":7844,"-four":7845,"_identity":7846,"istance":7847,"_arithmetic":7848,"perpendicular":7849,"Ġhotel":7850,"uty":7851,"illi":7852,"Ġindividuals":7853,"Ġcomplementary":7854,"Ġcosting":7855,"Ġpan":7856,"Ġlights":7857,"Ġcloser":7858,"Ġbulbs":7859,"osh":7860,"``":7861,"_minimum":7862,"owers":7863,"ĠAnother":7864,"Ġgeometry":7865,"Ġexponential":7866,"Ġaction":7867,"Ġ\\)?-/":7868,"_acute":7869,"_nat":7870,"ional":7871,"oz":7872,"=\\_\\_\\_\\_\\_\\_":7873,"diff":7874,"Ġmangoes":7875,"ĠMe":7876,"ucts":7877,"Ġ\\\\)":7878,"_mp":7879,"_dot":7880,"-foot":7881,"Ġ!![":7882,"Ġshooting":7883,"olf":7884,"Ġcourses":7885,"Ġ&&":7886,"Ġlogb":7887,"Ġcab":7888,"ural":7889,"Ġchanged":7890,"_diameter":7891,"ĠPrice":7892,"Ġallows":7893,"\\}$.Ċ":7894,"ĠChina":7895,"Ġaltogether":7896,"]\\)":7897,"Ġtwenty":7898,"week":7899,"*-/":7900,"_sale":7901,"ulia":7902,"Ġ(Ċ":7903,"like":7904,"bove":7905,"_yellow":7906,"Ġsuffic":7907,"}[":7908,"Ġswitch":7909,"unnel":7910,"Ġdepartment":7911,"Ġspring":7912,"()Ċ":7913,"Equ":7914,"Ġ(-\\":7915,"Ġalb":7916,"_be":7917,"ĠLast":7918,"Ġgrocery":7919,"Ġtok":7920,"ĠMaria":7921,"come":7922,"_decrease":7923,"_than":7924,"ai":7925,"ew":7926,"ashed":7927,"present":7928,"tend":7929,"]\\":7930,"Ġcontainers":7931,"_bc":7932,"Ġvessel":7933,"{g":7934,"),(":7935,"Ġshopkeeper":7936,"-to":7937,"*dir":7938,"Ġdeep":7939,"avier":7940,"Ġ&\\":7941,"Ġspaced":7942,"Ġ\\]-/":7943,"Ġunc":7944,"ĠMaximum":7945,"Ġcopies":7946,"*v":7947,"hours":7948,"/hour":7949,"Ġsuffices":7950,"lide":7951,"brace":7952,"Ġbath":7953,"Ġconcentric":7954,"delta":7955,"ackward":7956,"Ġcash":7957,"Ġgray":7958,"ĠMean":7959,"itional":7960,"+bx":7961,"Ġrose":7962,"Ġelectric":7963,"ĠConn":7964,"_kmph":7965,"_lo":7966,"Ġtokens":7967,"Ġexcess":7968,"Ġshifting":7969,"Arrows":7970,"AN":7971,"Ġ\\(|":7972,"Ġeighth":7973,"ĠValid":7974,"Ġcoplanar":7975,"ĠCM":7976,"Ġpq":7977,".Ici":7978,")<":7979,"_food":7980,"men":7981,"MP":7982,"ode":7983,"ĠAnn":7984,"_growth":7985,"}}}":7986,")-\\":7987,"_L":7988,"Ġparticipating":7989,"othp":7990,"sel":7991,"ĠAA":7992,"urations":7993,"phab":7994,"icate":7995,"ĠParallel":7996,"Ġsituation":7997,"EC":7998,"Write":7999,"pis":8000,"Ġproceed":8001,"ascal":8002,"Ġproviding":8003,"><":8004,"Ġsaw":8005,"Ġlose":8006,"_chord":8007,"fferent":8008,"hang":8009,"Ġborn":8010,"Ġ$$(":8011,"attach":8012,"Ġmaximal":8013,"ech":8014,"ĠPerpendicular":8015,"PM":8016,"Ġflag":8017,"lete":8018,"Ġkinds":8019,"_an":8020,"Ġlake":8021,")âĢĸ":8022,"Ġjud":8023,"ABCDEF":8024,"uadrilateral":8025,"_sums":8026,"Ġschedule":8027,"scale":8028,"alance":8029,"Ġcalls":8030,"ĠNE":8031,")+(":8032,"beans":8033,"regular":8034,"Ġparab":8035,"when":8036,"Ġcompleting":8037,"_multiple":8038,"_friends":8039,"ĠhM":8040,"olid":8041,"centricity":8042,"Ġsubstitution":8043,"uses":8044,"_oranges":8045,"Ġstrong":8046,"Ġ$+":8047,".Bijective":8048,"_pri":8049,"-dimensional":8050,"Ġharmonic":8051,"ĠBB":8052,".)-/":8053,"ĠhS":8054,"-shirts":8055,"Ġ\\);Ċ":8056,"}|$":8057,"Ġparticipant":8058,"_cover":8059,"ĠGH":8060,"Ġowns":8061,"ĠRound":8062,"Ġ//":8063,"Ġdaughter":8064,"Ġcateg":8065,"ĠCost":8066,"_tang":8067,"Ġpepper":8068,"_divides":8069,"Ġdesign":8070,")\\\\)Ċ":8071,"Ġengine":8072,"nothing":8073,"Ġenro":8074,"class":8075,"ariable":8076,"/attach":8077,"/attachments":8078,"Ġparticle":8079,"Ġvar":8080,"Ġdecomp":8081,"Ġ)$Ċ":8082,"varnothing":8083,"ugar":8084,"Ġdisks":8085,"Ġzoo":8086,"/>Ċ":8087,"/w":8088,"=(-":8089,"-gon":8090,"_spend":8091,"BCD":8092,"Ġsuitable":8093,"Ġ\\):Ċ":8094,"Ġmonic":8095,"Ġfacts":8096,"achine":8097,"ĠJerry":8098,"_eccentricity":8099,"Re":8100,"Ġoccupied":8101,"Ġvarying":8102,"Ġdestination":8103,"!$":8104,"+p":8105,"Ġquality":8106,"_expansion":8107,"(real":8108,"Ġsignific":8109,",+âĪŀ":8110,"_limit":8111,"reater":8112,"rol":8113,"than":8114,"Ġ\\}":8115,"Ġreflect":8116,"etty":8117,"Ġrod":8118,"Ġnonempty":8119,">\\":8120,"emy":8121,"ymmetric":8122,"{âĨĴ":8123,"ĠPlayer":8124,"Ġexamination":8125,"&top":8126,"ĠDiscuss":8127,"{PQ":8128,"Ġrides":8129,"Ġatomic":8130,"Ġowner":8131,"Ġlamps":8132,"ĠJake":8133,"ĠĠĠĠĠĠĠĠĠĠĠĠĠĠĠĠĠĠĠĠĠĠĠĠĠĠĠĠĠĠĠĠ":8134,"olya":8135,"shop":8136,"Move":8137,"Ġroutes":8138,"ddy":8139,"ĠâĪħ)Ċ":8140,"Ġspaces":8141,"ĠâĪ¥":8142,"vels":8143,"selling":8144,"_conc":8145,"Ġmall":8146,"&\\":8147,"ĠPat":8148,"hole":8149,"_quadrant":8150,"/v":8151,"vable":8152,"_ref":8153,"Ġinvests":8154,"NW":8155,"Config":8156,"CC":8157,"ract":8158,"ĠSteve":8159,"Ġbuilt":8160,"ĠhasDerivAt":8161,"Ġjeans":8162,"redit":8163,"ĠHalf":8164,"_fish":8165,"Ġ____.-/":8166,"Ġtreas":8167,"Ġdy":8168,"Ġcreated":8169,"Ġtransportation":8170,"<b":8171,"Ad":8172,"âĢĸ^":8173,"ĠUnder":8174,"Ã¡":8175,"_comple":8176,"Ġapartment":8177,"Ġcritical":8178,"ĠâĪŀ":8179,"Î¼":8180,"cepted":8181,"With":8182,"Space":8183,"Ġclassroom":8184,"Ġkilometer":8185,"bott":8186,"Ġalphab":8187,"Ġsuppose":8188,"chant":8189,"_em":8190,"Ġthrown":8191,")z":8192,"ĠTrans":8193,"egment":8194,"$,$":8195,"_example":8196,"graph":8197,"vies":8198,"ĠDue":8199,".nat":8200,"_segments":8201,"rfl":8202,"Ġbillion":8203,"radi":8204,"Ġsing":8205,"endsto":8206,"ĠGroup":8207,"ĠâĢĸ(":8208,"Big":8209,"Ġbacter":8210,"Ġlicense":8211,"Ġliving":8212,"kin":8213,"ĠFurthermore":8214,"ĠDo":8215,"Ġjacket":8216,"aint":8217,"ĠHarry":8218,"_expr":8219,"yan":8220,"}}-\\":8221,"Ġmanager":8222,"allelogram":8223,"ï¼īĊ":8224,"alue":8225,"Ġcutting":8226,"ĠChrist":8227,"Ġbiology":8228,"Ġgen":8229,"Ġunderstand":8230,"det":8231,"pages":8232,"Ġdeb":8233,"ĠDistribute":8234,"+linewidth":8235,"Ġvacation":8236,"ipe":8237,"Ġdenom":8238,"cribe":8239,"anks":8240,"Ġflip":8241,"Ġ\\\\(-":8242,"Ġahead":8243,"Ġinvolve":8244,"_bas":8245,"Ġcompounded":8246,"hÎ±":8247,"isha":8248,"issa":8249,"{âĨĴ}{":8250,")}Ċ":8251,"_scores":8252,"_focus":8253,"Ġactivity":8254,"Ġfloors":8255,"vities":8256,"_shel":8257,"ĠCorollary":8258,"elay":8259,"_impossible":8260,"Ġ_______":8261,"ĠStarting":8262,"Ġbaskets":8263,"Ġrental":8264,"mary":8265,"_divisible":8266,"Ġcharged":8267,"Ġinsurance":8268,"Ġtranslation":8269,"Ġmarkup":8270,"Ġtex":8271,"amed":8272,"Ġmarkers":8273,"_eggs":8274,"Ġuniquely":8275,"eral":8276,"Ġappropriate":8277,"Ġ\\\\((\\":8278,"mploy":8279,"_{(":8280,"_ph":8281,"ustum":8282,"Ġconducted":8283,"_rows":8284,"Ġlabels":8285,"He":8286,"simp":8287,"Ġgym":8288,"ĠsumOfDigits":8289,"Ġcode":8290,"Ġgoals":8291,"Ġphotos":8292,".čĊčĊ":8293,"_zeros":8294,"Ġ|-":8295,"Ġpurely":8296,"selves":8297,"_determ":8298,"_choices":8299,"ĠFrench":8300,"Ġbrace":8301,"Ġexponent":8302,"rement":8303,"_hyp":8304,"_symmetry":8305,"_pencils":8306,"Ġmovies":8307,"ĠXZ":8308,"Ġtransformations":8309,"âĳ¤":8310,"Ġhide":8311,"_cond":8312,"_dogs":8313,"Ġacres":8314,"Ġconcyclic":8315,"hill":8316,"Ġvot":8317,"reshold":8318,"Ġfrogs":8319,"Ġtell":8320,"Ġta":8321,"imes":8322,"Ġhitting":8323,"=ax":8324,"Ġdesigned":8325,"{(\\":8326,"urve":8327,"Ġcous":8328,"_shift":8329,"Prime":8330,"})-":8331,"Ġlisted":8332,"}\\}$.":8333,"Ġshells":8334,"oming":8335,"/min":8336,"Main":8337,"cell":8338,"Ġ_)":8339,"Ġmouse":8340,"elow":8341,"yd":8342,"Ġfalls":8343,"Ġ\\)?Ċ":8344,"Ġextensions":8345,"mother":8346,"=\"":8347,"Ġcatches":8348,"enthes":8349,"Ġ\\}$":8350,"_members":8351,"Ġthemselves":8352,"ury":8353,"ĠAnna":8354,"Ġperformance":8355,"owerset":8356,"Ġreceiving":8357,"scr":8358,"Ġcow":8359,"Ġsuccessful":8360,"Ġbake":8361,"Ġpine":8362,"Ġlosing":8363,"Ġlamp":8364,"ĠDave":8365,"-v":8366,"pg":8367,"Ġsubject":8368,"Ġmush":8369,"Ġwearing":8370,"acy":8371,"âĢº":8372,".right":8373,"Ġonline":8374,"_diag":8375,"Ġpossibilities":8376,"||":8377,"Ġ\\(-":8378,"Ġ$\\|\\":8379,"ises":8380,"ĠFrank":8381,"Ġreduce":8382,"(linewidth":8383,".}$Ċ":8384,"{II":8385,"Ġimport":8386,"ĠWho":8387,"Ġidentities":8388,"+e":8389,"}-(":8390,"Ġdetailed":8391,"ĠACD":8392,"Ġkeep":8393,"_AD":8394,"Ġwholes":8395,"_dis":8396,"{BD":8397,"ĠĠĠĊ":8398,"+f":8399,"Trans":8400,"_len":8401,"Ġ(\\(":8402,"Ġtaxi":8403,"_are":8404,"_end":8405,"ture":8406,"ĠNot":8407,"Ġ/-(":8408,"ĠStudent":8409,"_intercept":8410,"Ġscoring":8411,"ĠÂłÂłÂł":8412,"Ġlemonade":8413,"ĠSubstit":8414,"Ġcuboid":8415,"âģ¿":8416,"ĠangleB":8417,"Use":8418,"uy":8419,"lemma":8420,"ĠLisa":8421,"_rest":8422,")\\\\),":8423,"_diagonals":8424,"Ġdeliver":8425,"Ġyesterday":8426,"ĠJuly":8427,"Ġinvalid":8428,"ĠMathematical":8429,"Ġmel":8430,"_seats":8431,"Ġestablished":8432,"Ġsupermarket":8433,"Round":8434,"Ġwindows":8435,"Ġmapping":8436,"celer":8437,"mathscr":8438,"Ġtie":8439,"Ġsumming":8440,"Ġplacing":8441,"Ġrotating":8442,"Ġcer":8443,"Ġanimal":8444,"month":8445,"Ġdrawer":8446,"_parabola":8447,"ordan":8448,"Ġtoo":8449,"ĠEnter":8450,"_vectors":8451,"]{\\":8452,"Ġturt":8453,"Ġgather":8454,"Ġhandshakes":8455,"Ġ![![":8456,"hE":8457,"ih":8458,"Ġcast":8459,"quares":8460,"))*(":8461,"Ġ_)Ċ":8462,"ections":8463,"Ġsemicircles":8464,"Ġrank":8465,"Ġfire":8466,"Ġ-(-":8467,"[f":8468,"âĢ¦+":8469,"_face":8470,"Ġsaves":8471,"Ġsupport":8472,"ĠFred":8473,".powerset":8474,"actions":8475,"Ġ_______.":8476,"MF":8477,"inth":8478,"eonhole":8479,"Ġgcongr":8480,"Ġconference":8481,"Ġties":8482,"ongru":8483,"Ġmatrices":8484,"Ġinversely":8485,"Ġmaximize":8486,"Plane":8487,"Ġfavorite":8488,"alking":8489,"ysics":8490,"ĠâĪħ)":8491,"CP":8492,"ĠSally":8493,"xygen":8494,"ille":8495,"_cal":8496,".ncard":8497,"Time":8498,"Ġsess":8499,"Ġyearly":8500,"outs":8501,"Ġburn":8502,"anie":8503,"ĠMP":8504,"Construct":8505,"Ġhij":8506,"Ġclearing":8507,"_rem":8508,"_cans":8509,"rogen":8510,"ĠIvan":8511,"\\overline":8512,"_mark":8513,"ipment":8514,"Ġdisk":8515,"ÏĨ":8516,"lear":8517,"Ġmn":8518,"^{*":8519,"oday":8520,"_student":8521,"asymp":8522,"_collinear":8523,"Ġuphill":8524,"Ġinstall":8525,",\\,\\,\\,\\":8526,"]https":8527,"Ġproved":8528,"reduc":8529,"gm":8530,"annah":8531,"Tom":8532,"ĠAH":8533,"coordinate":8534,"{tg":8535,"ĠIff":8536,"abric":8537,"_main":8538,"_rent":8539,"Ġexistential":8540,"}^+":8541,"Ġpositioned":8542,"Ġsoph":8543,"Ġcherry":8544,"FG":8545,"Ġparenthes":8546,"Ġcircumcircles":8547,"Ġpicking":8548,":âĦ¤":8549,"_polynomial":8550,"Ġobjects":8551,"_approx":8552,"|}":8553,"odec":8554,"_platform":8555,"Ġfinishes":8556,"Ġdistinguishable":8557,".elim":8558,"ĠhP":8559,"Ġarrived":8560,"hh":8561,"Ġbeats":8562,"Ġsof":8563,"Ġfailed":8564,".map":8565,"uine":8566,"ĠJason":8567,"âĨĳ":8568,"hQ":8569,"alindrome":8570,"evin":8571,"Ġet":8572,"only":8573,"Ġcovering":8574,"Ġlands":8575,"ĠFintype":8576,"Ġoccurr":8577,"=true":8578,")e":8579,"ĠWang":8580,"ĠChris":8581,"Ġlitres":8582,"iana":8583,"anya":8584,"Assume":8585,"Ġcones":8586,"Ġrele":8587,"Ġoppon":8588,"agged":8589,"Ġprofess":8590,"Ġdough":8591,"ï¼İ":8592,"Ġ$\\_\\_\\_\\_\\_\\_":8593,"Ġfilling":8594,"that":8595,"riction":8596,"ita":8597,"defaultpen":8598,")(\\":8599,"{G":8600,"ĠhN":8601,"Ġceiling":8602,"[img":8603,"ĠCC":8604,"Ġcomparison":8605,"lementary":8606,"_negative":8607,"Ġidentify":8608,"Ġseating":8609,"Ġseniors":8610,"Number":8611,"}\\)ĊĊ":8612,"Ġactivities":8613,",p":8614,"Left":8615,"ran":8616,"Ġeffective":8617,".one":8618,"arter":8619,"ĠAN":8620,"Ġtraining":8621,"=\\{-":8622,"ĠEuler":8623,"\\)-":8624,"Ġdidn":8625,"_geq":8626,"Ġord":8627,"ĠTâĤĻ":8628,"Ġinvolves":8629,"Dist":8630,"discount":8631,"Ġathletes":8632,"ĠBo":8633,",\\,":8634,"ĠDe":8635,"rete":8636,"Ġwooden":8637,"Ġfriday":8638,"ĠNa":8639,"Ġpartners":8640,"Ġcapital":8641,"_monotone":8642,"Ġsiblings":8643,"Ġseparate":8644,"ĠOP":8645,"hopper":8646,"_balance":8647,"Ġvehicle":8648,"Ġsignificant":8649,"Ġlanguage":8650,"case":8651,"Ġforest":8652,"Ġlive":8653,":âĦķ":8654,"_female":8655,"Â°,Ċ":8656,"_degrees":8657,"pex":8658,"ĠPS":8659,"Arrow":8660,"tile":8661,"_sine":8662,"iao":8663,"ĠCarl":8664,"ĠSubstituting":8665,"large":8666,"tivity":8667,"Ġtunnel":8668,"Ġdominoes":8669,"Ġmerchant":8670,"(|":8671,"Ġmonomial":8672,"Ġhem":8673,"uqu":8674,"-minute":8675,"Un":8676,"Ġ${{":8677,"Ġeuro":8678,"Ġentirely":8679,"acob":8680,"Ġlollip":8681,"_false":8682,"Ġtail":8683,"Ġlabor":8684,"Ġbring":8685,"Ġguarantee":8686,"Ġnotes":8687,"_inverse":8688,"ĠCarol":8689,"Ġlottery":8690,"Ġbuttons":8691,"}]$":8692,"enna":8693,"ollars":8694,"Ġelectron":8695,"Ġintroducing":8696,"Ġgrows":8697,"Ġcountries":8698,"Position":8699,"calator":8700,"dom":8701,"tri":8702,",t":8703,"_sufficient":8704,"_gain":8705,"James":8706,"Ġdra":8707,"entially":8708,"zer":8709,"olly":8710,"also":8711,"Ġbacteria":8712,"Ġ(âĪĥ!":8713,"othpicks":8714,".T":8715,"una":8716,"Ġetc":8717,"Ġ/Ċ":8718,"uper":8719,"))ĊĊ":8720,"_magnitude":8721,"wedge":8722,"Ġ________":8723,"Ġslow":8724,"âĢ²(":8725,"_dep":8726,"actors":8727,"ĠRec":8728,"ucky":8729,"Ġ$\\{\\":8730,"_other":8731,"Ġ)$ĊĊ":8732,"Ġsectors":8733,"Ġholes":8734,"Ġhyd":8735,"idable":8736,"Ġexpensive":8737,"_crossing":8738,"-meter":8739,"_feet":8740,"Ġfinding":8741,"asp":8742,"_next":8743,"Ġurn":8744,"inate":8745,"ĠPark":8746,"_custom":8747,"-def":8748,"ĠReplace":8749,"Ġ({-":8750,"Ġadjust":8751,"green":8752,"night":8753,"istic":8754,"nuts":8755,"âĪ¥":8756,"Sequence":8757,",r":8758,"Ġbeef":8759,"Abs":8760,".\"Ċ":8761,"_cand":8762,"}}(":8763,"Ġwanted":8764,"Ġsorted":8765,"Ġ$Ċ":8766,"_shirts":8767,"ino":8768,"cluded":8769,"Ġstands":8770,"can":8771,"yn":8772,"Function":8773,"Ġacceler":8774,"Ġvote":8775,"}$;<":8776,"fast":8777,"ĠRectangle":8778,"_spec":8779,"Ġnamed":8780,"_paid":8781,"Ġdefinite":8782,"(O":8783,"_divisibility":8784,"Ġaward":8785,"Ġ/-$":8786,"Ġcontrib":8787,"ĠBackward":8788,"âģ¶":8789,"Ġhambur":8790,"-q":8791,"Ġweighted":8792,"Ġchair":8793,"Ġmary":8794,"lnot":8795,"Ġtheater":8796,"{Ċ":8797,"Ġworld":8798,"Ġrewritten":8799,"Ġtherefore":8800,"lines":8801,"ON":8802,"_asymp":8803,"_milk":8804,"_book":8805,"ĠCannot":8806,"Method":8807,"*X":8808,"_mix":8809,"_cycle":8810,"{H":8811,"_selling":8812,"_constant":8813,"Ġmas":8814,"_pounds":8815,"Ġpractice":8816,"gent":8817,"Ġdolls":8818,"ĠCarlos":8819,"ĠAverage":8820,"Does":8821,"ifteen":8822,"\\{Ċ":8823,"Ġtomato":8824,"_twelve":8825,"Ġsong":8826,"Ġ+âĪŀ":8827,"Ġdish":8828,"ĠSandy":8829,".M":8830,"Ġspots":8831,"gets":8832,"âĪĪR":8833,"_strict":8834,"Ġcycles":8835,"ĠKar":8836,"Ġjan":8837,"]]":8838,"Ġderiving":8839,"Ġtold":8840,"{}$":8841,"Ġyoungest":8842,"_ind":8843,"|,|":8844,"Can":8845,"current":8846,"Ġ).":8847,"Ġofficers":8848,"ived":8849,"inity":8850,"Ġinit":8851,"Ġped":8852,"check":8853,"Ver":8854,"underbrace":8855,".exists":8856,"Ġcalculus":8857,"Ġshelves":8858,"ĠAdding":8859,"Ġensuring":8860,"Ġrequirements":8861,"Ïīx":8862,"Ans":8863,"_xy":8864,"Ġvisits":8865,"mond":8866,"unt":8867,"Top":8868,"Ġapex":8869,")$$":8870,"_composition":8871,"Ġsleep":8872,"AK":8873,"{OC":8874,"Î¾":8875,"ĠMove":8876,"Ġexpect":8877,"_man":8878,"Ġsurv":8879,"_circles":8880,"_leg":8881,"Ġprev":8882,"DB":8883,"feit":8884,"_steps":8885,"ĠCube":8886,"Ġparabolas":8887,"emic":8888,"Ġequipment":8889,"\\%$,":8890,"_Î²":8891,"Ġdance":8892,")_{":8893,"_cut":8894,".coeff":8895,"Ġjars":8896,"titude":8897,"=m":8898,"{X":8899,"Ġlinewidth":8900,"\\[(":8901,"ĠIH":8902,"ĠDaniel":8903,"Ġerased":8904,"ĠčĊčĊ":8905,"(Circle":8906,"Ġarticles":8907,"Ġhere":8908,"Ġfrustum":8909,"^r":8910,"esti":8911,"Ġfer":8912,"ĠAK":8913,"ĠKL":8914,"Ġuniversity":8915,"(circle":8916,"sa":8917,"_nums":8918,"hear":8919,"rab":8920,"_sets":8921,"Ġrecursively":8922,"}c":8923,"ĠExactly":8924,"ĠOC":8925,"Ġtells":8926,"Ġdwar":8927,"Ġ{{":8928,"Ġeduc":8929,"Ġscalene":8930,"Ġmango":8931,"Answer":8932,"ĠSn":8933,"integ":8934,"^t":8935,"hood":8936,"Group":8937,"Ġhoney":8938,"ÂłÂłÂłÂłÂłÂłÂłÂłÂłÂłÂłÂł":8939,"Ġresidents":8940,"_consumption":8941,"Ġaud":8942,"arm":8943,"Ġcompan":8944,"Ġcopper":8945,"_triple":8946,"Ġfreshm":8947,"ĠAQ":8948,"timate":8949,"Ġdelivery":8950,"Ġfully":8951,"_eaten":8952,"Ġshadow":8953,"ĠOver":8954,"Ġexercise":8955,"Ġtris":8956,"Ġthursday":8957,"ĠAdam":8958,"_true":8959,"tible":8960,"Ġdate":8961,"Ġchemical":8962,"cross":8963,"ĠQuadr":8964,"Ġprec":8965,"Ġfifteen":8966,"_rot":8967,"Ġgrasshopper":8968,"Ġvegetables":8969,"ĠCondition":8970,"Ġoffered":8971,")cos":8972,"Ġhelper":8973,"enerate":8974,"ationship":8975,"ABCDE":8976,".has":8977,"_sphere":8978,"ky":8979,"{,":8980,"Ġmilli":8981,"ĠOut":8982,"Ġoverlapping":8983,"des":8984,"ground":8985,"Ġkittens":8986,"Ġhundredth":8987,"-grade":8988,"store":8989,"}.\\]Ċ":8990,"Ġmeals":8991,"\\limits":8992,"rup":8993,"Ticks":8994,")}(":8995,",âĪŀ)":8996,"Ġvow":8997,"Ġem":8998,"Ġanalog":8999,"Ġ)$.ĊĊ":9000,"Ġassignment":9001,"Ġstations":9002,"Ġquiz":9003,"ĠADC":9004,"=A":9005,"_sw":9006,"Ġ\\)-/":9007,"ĠOli":9008,"Ġap":9009,"Ġsupply":9010,"self":9011,"inking":9012,"wood":9013,"_decimal":9014,"outh":9015,"ĠRed":9016,"Ġtrying":9017,".comp":9018,"Ġcontinue":9019,"Ġhos":9020,"ĠĠĠĠĠĠĠĠĠĠĠĠĠĠĠĠĠĠĠĠĠĠĠĠĠĠĠĠĠĠ":9021,"ĠShould":9022,"Ġchose":9023,"_filter":9024,"Ġfacing":9025,"ĠAndrew":9026,"tenance":9027,"_G":9028,"uke":9029,"illa":9030,"ao":9031,"hv":9032,"ĠâĢ¦":9033,"Ġalternate":9034,"Ġphoto":9035,"erence":9036,"Ġtossed":9037,"Ġblank":9038,"Ġtaller":9039,"Ġhers":9040,"usti":9041,"cells":9042,"target":9043,"Ġstage":9044,"Ġshoe":9045,"Ġcolour":9046,"_coloring":9047,".get":9048,"Circle":9049,"Ġsure":9050,"_empty":9051,"}\\).-/":9052,"ĠDecember":9053,"cx":9054,"ĠCompare":9055,"Ġmight":9056,"Ġoz":9057,",ymax":9058,"))=":9059,"rounded":9060,"_vertices":9061,"sters":9062,"Finite":9063,"avy":9064,"(.":9065,"using":9066,"_cup":9067,"_kg":9068,"ĠConnect":9069,"sec":9070,"ĠAmy":9071,"ested":9072,"_rpow":9073,"_completion":9074,"Ġassem":9075,"Ġdodec":9076,"ĠĠĠĠĠĠĠĠĠĠĠĠĠĠĠĠĠĠĠĠĠĠĠĠĠĠĠĠĠ":9077,"Ġlift":9078,"_remo":9079,"ited":9080,"_ques":9081,"Dec":9082,"ĠThrough":9083,"Ġentrance":9084,"Ġrooks":9085,"Ġstars":9086,"Ġpoc":9087,"ĠFG":9088,"Ġworkshop":9089,"Ġepis":9090,"hxy":9091,"Ġradio":9092,"-number":9093,"ABD":9094,"By":9095,"ardo":9096,"Ġrocks":9097,"Ġdiscovered":9098,"mons":9099,"Ġlay":9100,"),\\":9101,"Ġreaction":9102,"Ġplanning":9103,"Ġgarage":9104,"-intersecting":9105,"Ġinnings":9106,"_necessary":9107,"Ġannually":9108,"Ġeventually":9109,"-thirds":9110,"{EF":9111,"ĠRachel":9112,"_mile":9113,"Ġtrad":9114,"ĠUSD":9115,"Some":9116,"ĠBon":9117,"Ġ\\\\(\\{":9118,"ji":9119,"ically":9120,"_powers":9121,"ĠAssumption":9122,"Ġrunner":9123,"Ġdrank":9124,"zens":9125,"Ġcraw":9126,"ĠâĪļ((":9127,"Ġsnakes":9128,".\\]-/":9129,"=e":9130,"Ġrunners":9131,"Ġreaching":9132,"-per":9133,"_K":9134,"Ġplease":9135,"Ġfail":9136,"Ġparentheses":9137,"Ġhum":9138,"Ġhealth":9139,"ĠMo":9140,"ĠÎ¾":9141,"Ġerasers":9142,".parallel":9143,"ĠAmer":9144,"weight":9145,"itchen":9146,"+|":9147,"ĠEmma":9148,"refl":9149,"Ġmodulus":9150,"Ġthink":9151,"ĠBeth":9152,"^[":9153,"Ġbrothers":9154,".g":9155,"ĠLater":9156,"ĠangleA":9157,"Ġjellybeans":9158,")}{(":9159,"idableEq":9160,"+ax":9161,"Ġalice":9162,"idden":9163,"Ġalloc":9164,"excluding":9165,"Ġyoung":9166,"(M":9167,"ief":9168,"Ġpaintings":9169,"}\\_{":9170,"ius":9171,"|)Ċ":9172,"erator":9173,"aracter":9174,"Ġiron":9175,"SâĤĻ":9176,"Ġwaiting":9177,".of":9178,"Ġsco":9179,"Ġhappen":9180,",gray":9181,"Ġsaturday":9182,"Ġpaying":9183,"ba":9184,"Ġcas":9185,"Ġpercentages":9186,"cont":9187,"Term":9188,"\\%$.":9189,",F":9190,"aker":9191,"Ġenrolled":9192,"ĠSE":9193,"_meeting":9194,"Ġimprove":9195,"Ġeffect":9196,"umin":9197,"Ġstaff":9198,"ached":9199,"-handed":9200,"word":9201,"Ġearlier":9202,")dx":9203,"low":9204,"ican":9205,"âĪ©":9206,"Ġtasks":9207,"ĠEqual":9208,"orrow":9209,"rec":9210,"--(":9211,"Ġfocusing":9212,"Ġinformal":9213,"Ġconcert":9214,"Ġconnect":9215,"Ġcardinal":9216,"ptember":9217,".ph":9218,"_table":9219,"Ġleague":9220,"ĠCheck":9221,"Ġlikes":9222,"spaper":9223,"-degree":9224,"Ġcredit":9225,"Ġants":9226,"ugust":9227,")\\).Ċ":9228,"_existence":9229,"_depth":9230,"cccc":9231,"Ġcontent":9232,"Ġachieves":9233,"_packs":9234,"ĠIV":9235,"_jump":9236,"Ġstorage":9237,"estival":9238,"overlapping":9239,"Ġacqu":9240,"Ġkept":9241,"Ġwife":9242,"Ġobserved":9243,"ĠâĪĽ":9244,"divisors":9245,"âĪĪN":9246,"Ġescalator":9247,"ĠGeorge":9248,"ika":9249,"[-\\":9250,"uples":9251,"Ġgrew":9252,"Ġsoap":9253,"Reg":9254,"Ġvolley":9255,"Ġcheckerboard":9256,"keys":9257,"Ġpressure":9258,"},+\\":9259,"Ġconstructing":9260,"ĠVolume":9261,"ĠMoreover":9262,"_it":9263,"ĠsumDigits":9264,"Ġargument":9265,"AO":9266,"mates":9267,"iki":9268,"Ġdise":9269,"apters":9270,"_expanded":9271,"}(-":9272,"Ġaim":9273,"Ġlos":9274,"Ġdomino":9275,"Ġwholesale":9276,"Ġintercepts":9277,"Ġrupees":9278,"AH":9279,"Ġhom":9280,"_school":9281,"tyle":9282,"SW":9283,"Ġfabric":9284,"reed":9285,".php":9286,"ding":9287,"orig":9288,"Ġthickness":9289,"^d":9290,"tle":9291,"va":9292,"Ġarr":9293,"Ġathlete":9294,"_candy":9295,"Ġhexagonal":9296,"Ġnails":9297,"Ġdecor":9298,"|=|":9299,"Ġhemis":9300,"AX":9301,"Ġ$({":9302,"_u":9303,"ĠSo":9304,"pher":9305,"*R":9306,"Every":9307,",\\!":9308,"+s":9309,"Ġpul":9310,"Ġwages":9311,"ST":9312,"ortions":9313,"ĠEC":9314,"}_{\\":9315,"Ġrepeatedly":9316,"Ġrib":9317,"âĤĺ":9318,"ĠAdditional":9319,"Ġsocial":9320,"Ġcarpet":9321,"tained":9322,"_problems":9323,"long":9324,"ently":9325,"Ġshipping":9326,"-$":9327,"ourn":9328,"ising":9329,"Ġspin":9330,"_vector":9331,"Last":9332,"Ġstrawberry":9333,"_moves":9334,"\\cdots":9335,"ĠSur":9336,"_used":9337,"Ġpalindromes":9338,"Ġlife":9339,"Ġmagaz":9340,"_cubic":9341,"Ġentry":9342,"ticed":9343,"Ġchamp":9344,"agonal":9345,"amer":9346,"Ġow":9347,"tees":9348,"Ġtires":9349,"example":9350,"_simplify":9351,"Ġcommunity":9352,"Ġrequirement":9353,"_circum":9354,"*C":9355,"ĠIsL":9356,"Ġthrice":9357,"ylinder":9358,"Ġrevolutions":9359,"Ġtulips":9360,"+ab":9361,".ext":9362,"ĠBAD":9363,"ĠâĢ¹":9364,"(int":9365,"zi":9366,"_bars":9367,"Ġcollects":9368,"Ġweighed":9369,"_fixed":9370,"Ġcaf":9371,"crip":9372,"ĠMonotone":9373,"ĠâĤ":9374,"Ġmail":9375,"apple":9376,"?\"":9377,"}{{{":9378,"atures":9379,"Ġequi":9380,"astic":9381,"equals":9382,"equences":9383,"Ġinfinity":9384,"ugs":9385,"Ġcarn":9386,"istinguishable":9387,"Ġsines":9388,"Ġaverages":9389,"ĠShift":9390,"Ġarctan":9391,"=https":9392,"Ġ\\%":9393,"useum":9394,"Ġdownhill":9395,"Ġchecks":9396,"ĠSW":9397,"Ġentered":9398,"_pens":9399,"Ġsignal":9400,"ye":9401,"Ġgifts":9402,"Ġattains":9403,"Ġ\\_\\_\\_\\_\\_\\_$.":9404,"Ġconverges":9405,"Ġinvestig":9406,")âĭħ":9407,"xf":9408,"Ġcance":9409,"Ġcurr":9410,"bottom":9411,"/(-":9412,"_pattern":9413,"Ġknowing":9414,"Ġavoid":9415,"arb":9416,"Ġoctahedron":9417,"_er":9418,"Ġmike":9419,"Ġsimilarly":9420,".Nonempty":9421,"_paths":9422,"*e":9423,"Ġrail":9424,"Ġing":9425,"_grade":9426,"_equival":9427,".Injective":9428,"{lcm":9429,"Ġcomputers":9430,"Ġshorts":9431,"reducible":9432,"Ġhal":9433,"{(-":9434,"Ġsquir":9435,"Ġbrownies":9436,">,":9437,"Ġtransactions":9438,"Length":9439,"Ġgerm":9440,"Ġindistinguishable":9441,"Ġremained":9442,"Ġconfigurations":9443,"_colors":9444,"------|------|":9445,"Ġreflections":9446,"_consecutive":9447,"=B":9448,"eater":9449,"Ġended":9450,"Ġtrinomial":9451,"coordinates":9452,"âīł":9453,"ĠCoin":9454,"ĠCompany":9455,"CO":9456,"ĠCH":9457,"Ġlogarithms":9458,"Ġlaps":9459,"Ġcomposition":9460,"_minute":9461,"Ġpuzzle":9462,"ĠSide":9463,"ainted":9464,"Ġclose":9465,"Ġton":9466,"+bi":9467,"ĠADE":9468,"tau":9469,"_determination":9470,"tial":9471,"Ġspecies":9472,"Ġter":9473,"ordinates":9474,"Ġfresh":9475,"friend":9476,"'\\)":9477,"{DE":9478,"\\_\\_\\_\\_\\_\\_\\_\\_":9479,"_coefficient":9480,"Ġrotate":9481,".modEq":9482,"_alt":9483,"Ġbicycles":9484,"ĠCoprime":9485,"Ġsea":9486,".A":9487,"een":9488,"implies":9489,"Ġill":9490,"_population":9491,"_regular":9492,"Ġprofits":9493,"Ġrods":9494,"(âĪļ":9495,"Min":9496,"Ġriding":9497,"Ġgender":9498,"acters":9499,"Ġquadrants":9500,"Ġbaked":9501,"_she":9502,"tbook":9503,"$.<":9504,"{None":9505,"Ġgolden":9506,"sample":9507,"ĠPascal":9508,"_fill":9509,"_groups":9510,"Ġwhom":9511,"Ġdoing":9512,"!}{":9513,"Ġ${\\":9514,"ĠhD":9515,"_complement":9516,"Ġhouseholds":9517,"Ġlooking":9518,",black":9519,"Ġrotations":9520,"_pizz":9521,"ĠPrime":9522,"agonals":9523,"_added":9524,"letter":9525,"$:Ċ":9526,"Six":9527,"lesc":9528,"ĠSm":9529,"Ġrowing":9530,"*h":9531,"\\parallel":9532,"}]$,":9533,"Ð°":9534,"roots":9535,"ĠMidpoint":9536,"Ġslice":9537,"))*":9538,"Ġmatching":9539,"'$.":9540,"ila":9541,"athan":9542,"Ġsound":9543,"Ġtrail":9544,"Ġintercepted":9545,"Ġmembership":9546,"Ġcharacters":9547,"Ġdrain":9548,"Ġsecret":9549,"Ġfare":9550,"_high":9551,"Ġjuniors":9552,"âĬ¥":9553,"Ġol":9554,"Ġ__________.-/":9555,"vare":9556,"Ġmole":9557,"{bmatrix":9558,"Ġsupplies":9559,"Ġenvelopes":9560,"Ġmargin":9561,"ĠĠĠĠĠĠĠĠĠĠĠĠĠĠĠĠĠĠĠĠĠĠĠĠĠĠĠĠĠĠĠ":9562,"_portion":9563,"Ġgoats":9564,"ĠâĪĺ":9565,"Ġmeasurement":9566,"_spending":9567,"MC":9568,"_gm":9569,"itting":9570,")*(-":9571,"Ġreplacing":9572,"leg":9573,"actual":9574,"_male":9575,"_return":9576,"Ġmovement":9577,"Ġencount":9578,"boys":9579,".natAbs":9580,"-ups":9581,"Ġstores":9582,"Ġdess":9583,"hearts":9584,"Ġcomparing":9585,"Ġmob":9586,"Ġhexagons":9587,"pass":9588,"ĠÎ©":9589,"plain":9590,"Ġtreasure":9591,"_sign":9592,"Ġusage":9593,"Ġrepeats":9594,"Ġnecklace":9595,"!}":9596,"(q":9597,"Ġ\\_\\_\\_\\_\\_\\_\\_\\_":9598,"Ġ\\{-":9599,"-------|-------|":9600,"Ġsunday":9601,"ĠFive":9602,"Inside":9603,"placement":9604,"aura":9605,"Ġbear":9606,"Ġcosines":9607,"Ġpear":9608,"Ġleap":9609,"Ġcool":9610,"Ġinvolved":9611,"itors":9612,"Ġsees":9613,"iring":9614,"itor":9615,"Ġeleph":9616,"Ġinvestments":9617,"Ġpic":9618,"Ġholid":9619,"ĠAO":9620,"tr":9621,"Ġpigeonhole":9622,"Ġalphabet":9623,"ĠPositive":9624,"ctg":9625,"centration":9626,"Ġtextbook":9627,"Ġmow":9628,",Q":9629,"Ġcli":9630,"Ġairplane":9631,"Ġdemonst":9632,".j":9633,"Ġema":9634,"_target":9635,"Ġpassenger":9636,"_away":9637,"Ġflipped":9638,"varepsilon":9639,"\\},":9640,"Ġperm":9641,"ĠContinuousOn":9642,"_irrefl":9643,"Ġdisease":9644,"ĠâĤ¬":9645,"Jack":9646,"]ĊĊĊ":9647,"true":9648,"iona":9649,"Ġcommut":9650,"Ġpeb":9651,"_team":9652,"_heads":9653,"rackers":9654,"Ġcompanies":9655,"Ġhimself":9656,"-element":9657,"zes":9658,"Ġpositional":9659,"Ġmuffins":9660,"OQ":9661,"ä¸":9662,"ules":9663,"_specific":9664,"uppy":9665,"Ġimplement":9666,"Ġprocessing":9667,"Ġcounterfeit":9668,"|$.-/":9669,"ĠIns":9670,"last":9671,"textrm":9672,"Ġnewspaper":9673,"_extra":9674,"_greater":9675,"_positions":9676,"_bottles":9677,"Ġancient":9678,"_women":9679,"_rational":9680,"textit":9681,"factor":9682,"centers":9683,"_bought":9684,"Ġadvert":9685,"_sugar":9686,"Proper":9687,"}.$$":9688,"_top":9689,"_legs":9690,"ĠBr":9691,"Ġboun":9692,"Ġapplic":9693,"Ġbears":9694,"Ġdrew":9695,"Ġmm":9696,"ĠLean":9697,"requ":9698,"ĠMel":9699,"Ġlanding":9700,"father":9701,"zh":9702,"\\\\\\":9703,"_wind":9704,"_matches":9705,"Ġmushrooms":9706,"\".Ċ":9707,"{the":9708,"_choc":9709,"hT":9710,"Ġdam":9711,"ĠHar":9712,"xmin":9713,"}$?-/":9714,".left":9715,"Ġbeach":9716,"/-Ċ":9717,"Ġremoves":9718,"Ġelectricity":9719,"_questions":9720,"eated":9721,"urer":9722,"Ġelder":9723,"Ne":9724,"_cream":9725,"arts":9726,"ĠEs":9727,"Ġflags":9728,"Ġserve":9729,"?$":9730,"_without":9731,"hG":9732,"\\)ĊĊ":9733,"Ġchrom":9734,"Ġbalanced":9735,"Ġfreshmen":9736,"Ġlemm":9737,"Ġbinom":9738,".$,":9739,"}<\\":9740,"isters":9741,"ĠIntersection":9742,"Ġbreaks":9743,"_abc":9744,"Ġtext":9745,"_bro":9746,"ĠKing":9747,"ites":9748,"}|$,":9749,"Ġpoured":9750,"map":9751,"Ġsour":9752,"iders":9753,"ruit":9754,"Ġnickel":9755,"(N":9756,"Ġtoward":9757,"hide":9758,"_meter":9759,"Ġrobot":9760,"_equivalence":9761,"Ġ)$":9762,"+yz":9763,"Ġgenerated":9764,"ĠIr":9765,"Ġstretch":9766,"intercept":9767,"_curve":9768,"-time":9769,"ĠOct":9770,"radict":9771,"joy":9772,"_congr":9773,"Ġexf":9774,"Ġiss":9775,"ĠBrand":9776,"âŁ©)Ċ":9777,"ĠDecidableEq":9778,"Rightarrow":9779,"ĠSara":9780,"_dr":9781,",\\]":9782,"Ġdevelopment":9783,"_old":9784,"idence":9785,"\\%\\":9786,"Ġ![-":9787,"ĠRel":9788,".coprime":9789,"Ġsimilarity":9790,"Ġconfirm":9791,"Mary":9792,"PD":9793,"Ġdecagon":9794,"---------|":9795,"span":9796,"ongruent":9797,"Step":9798,"filter":9799,"Ġhemisphere":9800,".st":9801,"Non":9802,"Here":9803,"ĠRepr":9804,"-w":9805,"ĠNon":9806,"ĠJose":9807,"_check":9808,"Ġheart":9809,"-day":9810,"pack":9811,"Ġshar":9812,"Ġjogger":9813,"Ġexfalso":9814,"-defined":9815,"-mile":9816,"Enter":9817,"Ġpir":9818,"Ġtoothpicks":9819,"_can":9820,"_var":9821,"Ġoccup":9822,"Ġstripes":9823,"Ġtagged":9824,"well":9825,"upport":9826,"Ġpartitioned":9827,"Ġcartons":9828,"ĠAX":9829,"**:Ċ":9830,"ĠProperty":9831,"|-|":9832,"}^\\":9833,"achary":9834,"heartsuit":9835,"pose":9836,"Ġkitchen":9837,"Ġmanner":9838,"Ġdistributive":9839,"âĮĭ)":9840,"Ġcommas":9841,"Parallel":9842,"Ġreser":9843,"Ġrainfall":9844,"ĠSeptember":9845,"rels":9846,"_let":9847,"Ġperformed":9848,"_decr":9849,"\\}\\":9850,"Ġ.**":9851,"Ġmaintenance":9852,"Ġtur":9853,"ĠCDE":9854,"Ġeducation":9855,"Ġtoken":9856,"_common":9857,"Ġplanting":9858,"apan":9859,"-fourth":9860,"_arc":9861,"Ġproducing":9862,"_measure":9863,"Ġdonated":9864,"itches":9865,"ocr":9866,"Ġdry":9867,"Ġrecords":9868,"ious":9869,"Ġpreserves":9870,"Ġearly":9871,"_tr":9872,"Ġprep":9873,"Ġpatterns":9874,"Ġmissed":9875,"ĠAc":9876,"Ġprote":9877,"ĠJessica":9878,"_rear":9879,"_distrib":9880,"Ġbikes":9881,"ĠCarla":9882,"uncated":9883,"Ġcare":9884,"change":9885,"_bus":9886,"Ġnoon":9887,"Â°.":9888,"Ġthroughout":9889,"\\subseteq":9890,"rev":9891,"\">":9892,",ymin":9893,"racy":9894,"utation":9895,"irteen":9896,"_weekly":9897,"?**":9898,"AQ":9899,"fontsize":9900,"iers":9901,"_twenty":9902,"Ġpets":9903,"_perfect":9904,"Ġtin":9905,"<c":9906,"_tip":9907,"Ġladder":9908,"denti":9909,"ĠFilter":9910,"ĠPAB":9911,"Ġcoach":9912,")}~":9913,"Ġphysical":9914,"*u":9915,".čĊ":9916,"_purchase":9917,"ĠPD":9918,"ĠLucy":9919,"{K":9920,"Ġaqu":9921,"Ġplanar":9922,"Ġmir":9923,"ĠABE":9924,"Ġtourist":9925,"{,}":9926,"$|":9927,"Ġranges":9928,"Mrs":9929,"titions":9930,".$Ċ":9931,"Ġgradu":9932,"-ABC":9933,"col":9934,"Ġsend":9935,"Ġtowels":9936,"ĠDerive":9937,"_areas":9938,"\\tan":9939,"_cats":9940,"Ġtire":9941,"Ġorient":9942,"Ġtips":9943,"Ġcandles":9944,"Ġmathematician":9945,"Se":9946,"Ġwed":9947,"entroid":9948,"ustin":9949,"ariance":9950,"Ġcarbon":9951,"_roses":9952,"Ġgrandmother":9953,"-qu":9954,"Ġliar":9955,"Ġqual":9956,"ĠRob":9957,"*âĪļ":9958,"ĠMA":9959,"oung":9960,".con":9961,"Ġresidue":9962,"hombus":9963,"rarily":9964,"egments":9965,"Ġ{ĊĊ":9966,"cribes":9967,"Ġlever":9968,"Ġsophom":9969,"acon":9970,"Ġbuckets":9971,"cture":9972,"Ġprogress":9973,"gie":9974,"rie":9975,"_vi":9976,"Ġspot":9977,"ĠVerification":9978,"nic":9979,"Ġsuits":9980,"-ax":9981,"late":9982,"Ġinver":9983,"Ġrespon":9984,"ober":9985,"}n":9986,"abcd":9987,"_expenses":9988,"ĠArt":9989,"Ġcleaning":9990,"Ġ_,":9991,"_kn":9992,"Ġounce":9993,"Ġnecklaces":9994,"ĠBern":9995,").\\]":9996,"Ġherself":9997,"Ġninth":9998,"_cups":9999,";i":10000,"urate":10001,"Ġpolice":10002,"_,":10003,"inch":10004,"Ġbouqu":10005,"daily":10006,"ĠPlan":10007,"Ġpremise":10008,"Ġwashing":10009,"Ġpayments":10010,"corn":10011,"ĠBH":10012,"Ġtowns":10013,"Ġbaking":10014,"Ġduty":10015,"Ġbakery":10016,"Ġchecking":10017,"Ġvolunteers":10018,"}}$$":10019,"Ġstoppages":10020,"Ġdark":10021,"Ġdais":10022,"edium":10023,"^z":10024,"_cells":10025,"zing":10026,"Ġwid":10027,"Ġlily":10028,"_juice":10029,"scores":10030,"Ġtosses":10031,"Ġorganized":10032,"Ax":10033,"Ġproven":10034,"Ġlollipops":10035,"ĠâĦĵ":10036,"ahul":10037,"Ġconsumed":10038,"arium":10039,"rs":10040,"ĠGrid":10041,"_seconds":10042,"Ġhappy":10043,"Ġtruncated":10044,"\\{{\\":10045,"Ġmobile":10046,"bl":10047,"Speed":10048,"tian":10049,"apor":10050,"_units":10051,"-up":10052,"kÏĢ":10053,"_pies":10054,"âĪ£n":10055,"Ġagreed":10056,"Ġciti":10057,"Options":10058,"Ġnx":10059,"cs":10060,"umul":10061,"ĠClear":10062,"prob":10063,"Ġcuc":10064,"eteria":10065,"Ġearning":10066,"Divisors":10067,"-overlapping":10068,".\"ĊĊ":10069,"Ġpeanuts":10070,"_customers":10071,"(F":10072,"Ġalex":10073,"_bread":10074,"Ġreduces":10075,"Ġload":10076,"}=\\_\\_\\_\\_\\_\\_":10077,"Ġnetwork":10078,")>":10079,"ðĿ":10080,"Ġself":10081,"ĠMachine":10082,"boat":10083,"Ġpigs":10084,"ĠpC":10085,"_stop":10086,"mbox":10087,"ledge":10088,"ĠOther":10089,".det":10090,"})^{-":10091,"Ġpocket":10092,"ÎĶ":10093,"Ġroof":10094,"_bar":10095,"Ġalternately":10096,"ĠMiddle":10097,"ĠModEq":10098,"redi":10099,"Ġmeaningful":10100,"ĠGr":10101,"Ġlearning":10102,"Ġlemmas":10103,"}>":10104,"ĠUnit":10105,"_decomp":10106,"pezium":10107,"Ġarbitrarily":10108,"Ġacceleration":10109,"correct":10110,"ĠKim":10111,"Ġtriplets":10112,"mber":10113,"ask":10114,"Ġrepe":10115,"_run":10116,"vision":10117,",ÏĢ":10118,"/S":10119,"bec":10120,":čĊčĊ":10121,"Ġhect":10122,"ĠBetty":10123,"Ġchanging":10124,"value":10125,"_least":10126,"antha":10127,"Ġattempts":10128,"Ġ\\)).":10129,"Ġarrow":10130,"[list":10131,"_rep":10132,"Ġruler":10133,"Ġbats":10134,"Ġyog":10135,"_emod":10136,"Ġloser":10137,"eli":10138,"Ġ(âŁ¨":10139,"Ġprom":10140,"arehouse":10141,"Ġdecomposition":10142,"Ġ(âĨĳ":10143,"Ġopens":10144,"ĠCollected":10145,"oda":10146,"Ġmaterials":10147,"hib":10148,"{for":10149,"since":10150,"_concentration":10151,"Ġsymmetrical":10152,"\\}$.ĊĊ":10153,"Max":10154,"_pres":10155,"_type":10156,"ĠangleC":10157,"Ġeleven":10158,"-plane":10159,"Ġmic":10160,"rangement":10161,"Ġcolorings":10162,"-shirt":10163,"Ġhence":10164,"Ġwheat":10165,"_extre":10166,"\"$":10167,"Ġpoles":10168,"ĠProduct":10169,"ĠEuc":10170,"urniture":10171,"Â°C":10172,"_mpg":10173,"_rain":10174,"oli":10175,"_flour":10176,"Ġ-Ċ":10177,"Ġhne":10178,"_products":10179,"hua":10180,"*P":10181,"cake":10182,"_don":10183,"ametric":10184,"Ġcontradict":10185,"bb":10186,"Ġnames":10187,"Ġperiods":10188,"cq":10189,"half":10190,"Ġkite":10191,"aks":10192,"Ġdesk":10193,"Exp":10194,"$s":10195,"Ġanti":10196,"ermat":10197,"Ġseen":10198,"three":10199,"ĠEli":10200,"UV":10201,"Ġtap":10202,"adjacent":10203,"Ġbutterf":10204,"Ġleftover":10205,"Ġplayground":10206,"pers":10207,"Ġweather":10208,"Ġreport":10209,"Ġlayers":10210,"ills":10211,"Ġserved":10212,"}}\\)":10213,"_proportion":10214,")g":10215,"ĠBilly":10216,"Mar":10217,"Matrix":10218,"|^{":10219,"egenerate":10220,"percent":10221,"dec":10222,"Ġeas":10223,"Ġmonkey":10224,"aving":10225,"_employ":10226,"IJ":10227,"mt":10228,"Ð¾":10229,"Ġfil":10230,"Ġfell":10231,"otonic":10232,"Ġwatermelon":10233,"Ġverification":10234,"ternative":10235,"Ġrounding":10236,"ĠOlympiad":10237,"}ï¼ľ":10238,"Ġess":10239,"Ġ\\_":10240,"Ġlosses":10241,"Ġcafeteria":10242,")âĪª":10243,",(":10244,"xmax":10245,"_sn":10246,"ima":10247,"_list":10248,"]here":10249,"rings":10250,"ĠGreen":10251,"_mixture":10252,"_middle":10253,"ustify":10254,"ĠCard":10255,"Ġarccos":10256,"ĠJoan":10257,"Sam":10258,"Ġeyes":10259,"{xy":10260,"Ġbreakfast":10261,"bserve":10262,"_periodic":10263,"Quadr":10264,"{ABC":10265,"ĠSampling":10266,"Ġordering":10267,"Ġrefrig":10268,"gx":10269,"Ġtrapezium":10270,"xz":10271,"Ġmodels":10272,"Ġsampled":10273,"mitted":10274,"Ġrock":10275,"(l":10276,"Ġmuseum":10277,"ĠDirection":10278,"Ġjunior":10279,"iliary":10280,"uxiliary":10281,"Ġvolleyball":10282,"oke":10283,"multip":10284,"lasses":10285,"oured":10286,"ĠTony":10287,"Ġ|((":10288,"_rat":10289,"Ġdiscuss":10290,"Ġgains":10291,"_adults":10292,"_symmetric":10293,"=|":10294,"ĠBK":10295,"Ġjames":10296,"Ind":10297,"ĠTri":10298,"ada":10299,"andw":10300,")\\]":10301,".factor":10302,"_short":10303,"bp":10304,"Ġtheory":10305,"Ġupward":10306,"Ġloaves":10307,"Ġatoms":10308,"uple":10309,"argest":10310,"Ġutili":10311,"\\}$;Ċ":10312,"Ġattack":10313,"omas":10314,"Ġbasis":10315,"Ġstacked":10316,"_bridge":10317,"Ġkeeps":10318,"py":10319,"Ġvegetable":10320,"_items":10321,"epsilon":10322,")$;<":10323,"forward":10324,"Ġdimension":10325,"ĠGameState":10326,"Ġopponent":10327,"Ġawarded":10328,",W":10329,"ĠCross":10330,"Ġincorrectly":10331,"Ġassum":10332,"Ġscoot":10333,"Ġflights":10334,"Ġsurveyed":10335,"Ġberries":10336,"alty":10337,"ĠMC":10338,"Ġ_____.":10339,"Ġearth":10340,"-positive":10341,"Ġdiagonally":10342,"Ġstrings":10343,"}]$ĊĊ":10344,"Jo":10345,"Sh":10346,"Ġprin":10347,"}|$.":10348,"Ġcousin":10349,"given":10350,"volume":10351,"liters":10352,"-free":10353,"_oz":10354,"%)Ċ":10355,"}),":10356,"unk":10357,"dotsm":10358,"habit":10359,"Ġinfl":10360,"ĠAPB":10361,"Ġposs":10362,"Ġsequentially":10363,"hedra":10364,"ĠState":10365,"ĠZhang":10366,"ĠâĮĪ(":10367,"_rooms":10368,")!)":10369,"})$.ĊĊ":10370,"Ġsafe":10371,"Ġinstance":10372,"anglemark":10373,"what":10374,"-class":10375,"abla":10376,"ĠProving":10377,"_rectangle":10378,"Ġgenuine":10379,"ĠContradiction":10380,"ered":10381,"Ġmotion":10382,"_apple":10383,"_Y":10384,"))$.":10385,"Ġgreat":10386,"Ġemployed":10387,"{OP":10388,"-âĪļ":10389,".refl":10390,"Ġopening":10391,"\";":10392,"Ġpace":10393,"Ġfinitely":10394,"amental":10395,"pings":10396,"Ġplanet":10397,"ĠRHS":10398,"orse":10399,"ĠEvent":10400,"Ġobservation":10401,"dentify":10402,"meas":10403,",-.":10404,",s":10405,"ĵĿ":10406,"Ġbush":10407,"Ġdisplayed":10408,"_whe":10409,"Ġweekday":10410,"Ġsemiperimeter":10411,"uments":10412,"ography":10413,".factorization":10414,"used":10415,"trans":10416,"wen":10417,"Ġachievable":10418,"|z":10419,"oris":10420,"ĠSimplifying":10421,"ĠWill":10422,"arian":10423,"Ġsou":10424,">a":10425,"ban":10426,"Ġdwarf":10427,"]\\),":10428,".jpg":10429,"ignment":10430,"Ġclubs":10431,"/wiki":10432,"$).ĊĊ":10433,"ĠUnivers":10434,"Class":10435,"_words":10436,"{AP":10437,"Product":10438,"Ġstatistics":10439,"geom":10440,"Ġupwards":10441,"Ġalbums":10442,"_conj":10443,"Ġmarried":10444,"Ġmeasurements":10445,"ĠClassical":10446,"My":10447,"Ġom":10448,"Ġimply":10449,"Ġcreating":10450,"Ġsunfl":10451,"Ġcontestants":10452,"Ġleveraging":10453,".math":10454,"ĠJulia":10455,"onstant":10456,"_orange":10457,"/index":10458,"Ġscheme":10459,"cube":10460,"Ġscaling":10461,"enda":10462,"ockey":10463,"Ġformat":10464,"\\}$-/":10465,"Ġdemand":10466,"Ġkeys":10467,"ĠBQ":10468,"_banan":10469,"Ġclaims":10470,"_balloons":10471,"Ġvice":10472,"Ġairport":10473,"_integers":10474,"No":10475,"tyard":10476,"Ġwinter":10477,",P":10478,"_budget":10479,"ĠTogether":10480,"\\equiv":10481,"overn":10482,"Ġformulation":10483,"Ġdescending":10484,"ðĿĵĿ":10485,"olumn":10486,"ĠAngles":10487,"'D":10488,"ĠOAB":10489,"Ġpolic":10490,"Ġtourists":10491,"illiam":10492,"=axis":10493,"_player":10494,"[x":10495,"hBC":10496,"Ġsarah":10497,"^{-\\":10498,"ĠSasha":10499,"Ġscient":10500,"_quarters":10501,"orns":10502,"Ġdonation":10503,"ĠIsLocal":10504,"_config":10505,"Ġroller":10506,"Rate":10507,"Ġstatistical":10508,"Ġ)$.Ċ":10509,"iron":10510,"Ġpaw":10511,"_factorization":10512,"Ġrented":10513,"Ġreversed":10514,"$a":10515,"sided":10516,"atie":10517,"ĠAnal":10518,"ĠTangent":10519,"_child":10520,"$,ĊĊ":10521,"ĠCN":10522,"Ġhv":10523,"akers":10524,"Ġarrows":10525,"Ġreturning":10526,"vations":10527,"ĠSusan":10528,"_foot":10529,"olet":10530,"Ġpeanut":10531,"adii":10532,"Ġï¼ī":10533,"Ġkeeping":10534,")}$,":10535,"=(\\":10536,"Ġpenny":10537,"_strategy":10538,"Ġbedroom":10539,"ocrats":10540,"zeta":10541,"ĠApp":10542,"andra":10543,"cp":10544,"inv":10545,"lyss":10546,"ristina":10547,"iology":10548,"defined":10549,"-letter":10550,"encies":10551,"[]":10552,"osc":10553,"Ġcommun":10554,"Ġpat":10555,"ĠPipe":10556,"tically":10557,"allet":10558,"^^":10559,"win":10560,"Ġpaired":10561,"-bc":10562,"ville":10563,"ĠAugust":10564,"Ġcoverage":10565,"bage":10566,"Ġcrate":10567,"ĠTr":10568,"ĠUnfold":10569,"acher":10570,"Ġleftmost":10571,"ued":10572,"Ġepisodes":10573,"<=":10574,"Ġ\\);":10575,".factors":10576,"(III":10577,"Ġslips":10578,"Ġ\\),Ċ":10579,"$?ĊĊĊ":10580,"%,Ċ":10581,"ĠVector":10582,"Ġdonuts":10583,"Ġstreets":10584,"Ġscreen":10585,"Ġenjoy":10586,"Ġdrops":10587,"Ġmistaken":10588,"ĠNick":10589,"Ġposts":10590,"Dan":10591,"Label":10592,"ĠEllipse":10593,"aj":10594,"_inches":10595,"_transformation":10596,"band":10597,"Ġgeese":10598,"Ġdetermines":10599,"config":10600,"Comm":10601,"Rectangle":10602,"ĠSequence":10603,"itions":10604,"onsecutive":10605,"Ġschemes":10606,"Ġdessert":10607,"ering":10608,"Ġfurniture":10609,"ĠScience":10610,"_combined":10611,"airc":10612,"Ġhlt":10613,"emistry":10614,"Ġapplication":10615,"_stops":10616,"*f":10617,"BAC":10618,"|<":10619,"inated":10620,"see":10621,"Ġnoticed":10622,"Ġfees":10623,"Ġdishes":10624,"Ġchann":10625,"vices":10626,"ĠProd":10627,")-(":10628,"Xiao":10629,"_sampling":10630,"ĠCould":10631,"Ġblueberry":10632,"-collinear":10633,"_choose":10634,"Ġinput":10635,"ropped":10636,"*S":10637,"\\perp":10638,"ĠBrian":10639,"ĠNW":10640,"{AE":10641,"ĠGerman":10642,"âĤĲ":10643,"idate":10644,"students":10645,"valuation":10646,"ĠDB":10647,"}.\\]-/":10648,"PN":10649,"such":10650,"ago":10651,"origin":10652,"ournament":10653,"$$,":10654,"hodd":10655,"Ġjill":10656,"ĠChen":10657,"Ġexpectation":10658,"(h":10659,"loe":10660,"ĠKn":10661,"-left":10662,"\\))":10663,"ĠRuss":10664,"ickets":10665,"_coverage":10666,"ĠMan":10667,"eline":10668,"Ġ$({\\":10669,"Ġsail":10670,"}_{+":10671,"Ġarcsin":10672,"Ġguest":10673,"Ed":10674,"ĠHu":10675,"Ġcrates":10676,"}$\"":10677,"MO":10678,"digits":10679,"Ġdan":10680,"_fun":10681,"Ġsoup":10682,"urity":10683,"ĠHenry":10684,"Ġthousands":10685,"asm":10686,"ĠCand":10687,"rotate":10688,"oni":10689,"_primes":10690,"_puzzle":10691,"Ġinhabit":10692,"ttle":10693,"Ġoldest":10694,"Ġlaid":10695,"oring":10696,"Ġcontinued":10697,"igs":10698,"_section":10699,"ĠKolya":10700,"Ġcompletion":10701,"Ġswap":10702,"{PA":10703,"auti":10704,"ĠBer":10705,"---":10706,"Ġwhenever":10707,"Ġgroceries":10708,"Ġhu":10709,"Ġextend":10710,"Ġemails":10711,"}F":10712,"Ġadop":10713,",âĪŀ)Ċ":10714,"Ġunequal":10715,"\\vec":10716,"fort":10717,"ĠBN":10718,"udy":10719,"Ġballoon":10720,"Ġperpendicularity":10721,".di":10722,"|A":10723,"Ġhens":10724,"athers":10725,"Ġservings":10726,"_oper":10727,"Î´":10728,"Ġmilliliters":10729,"ĠCal":10730,".Ico":10731,"_Ioo":10732,"Ġsweets":10733,"Ġsession":10734,"tax":10735,"ĠSP":10736,"Ġ\\)),":10737,"_fifteen":10738,"Ġparameterized":10739,"Ġcharity":10740,"_gallons":10741,"Sub":10742,"pital":10743,"Ġhop":10744,"ĠRate":10745,"$).Ċ":10746,"Ġpastries":10747,"Ġstrips":10748,"+by":10749,"Ġdefaultpen":10750,"^q":10751,"Ġheavier":10752,"_cp":10753,"_production":10754,"_discr":10755,"Ë£":10756,"Ġregister":10757,"}}$.Ċ":10758,"-right":10759,"Ġeval":10760,"Ġlaptop":10761,"Ġ@":10762,"uto":10763,"thanol":10764,"Ġmowing":10765,"Ġpeak":10766,"ĠRep":10767,"+...+":10768,"Ġfuture":10769,"ĠSymmetric":10770,"ĠJuan":10771,"Ġbabys":10772,"HE":10773,"nx":10774,"Ġcra":10775,"ĠdigitSum":10776,"(fun":10777,"Ġparallelograms":10778,"Im":10779,"}}$.-/":10780,"Ġcro":10781,"ulpt":10782,"Ġtelesc":10783,"Ġconject":10784,"Ġlent":10785,"_page":10786,"_foci":10787,"Ġcurrency":10788,"Pet":10789,"Ġhun":10790,"Ġirreducible":10791,"field":10792,"Ġsat":10793,"Ġproced":10794,"Ġcoat":10795,"_degree":10796,"AL":10797,"erek":10798,"_dog":10799,"Ġdeath":10800,"Ġburgers":10801,"Price":10802,"dotsb":10803,"Ġclaimed":10804,":=":10805,"ĠSer":10806,"Ġdime":10807,"ĠCombining":10808,"obile":10809,"but":10810,"aco":10811,"Ġjake":10812,"ĠJordan":10813,"_classes":10814,"Ġdaughters":10815,"Ġswitches":10816,"Expand":10817,"}P":10818,"lidean":10819,"Eight":10820,"-way":10821,"_map":10822,"-pound":10823,"Ġbaby":10824,")sin":10825,"-by":10826,"_possible":10827,"}})":10828,"})}^{":10829,"AG":10830,"Ġyes":10831,"Ġpreced":10832,"Ġsnack":10833,"Ġindicated":10834,"do":10835,"root":10836,"pection":10837,"minton":10838,"Ġhalfway":10839,"ĠStandard":10840,"inet":10841,"Ġresistance":10842,"Ġfox":10843,"Ġtrays":10844,"ĠJacob":10845,"eneral":10846,"ĠNational":10847,"Ġpreviously":10848,"Ġretailer":10849,".Infinite":10850,"_reflection":10851,"Bob":10852,"WXYZ":10853,"|=\\":10854,"Ġpad":10855,"Ġstable":10856,"Ġrearranged":10857,"Diff":10858,"Ġblueberries":10859,"_tree":10860,"Ġcomic":10861,"Out":10862,"}ï¼Į":10863,"ĠInc":10864,"ĠPQRS":10865,"_rev":10866,"ĠStore":10867,"\\dfrac":10868,"ĠĠĊĊ":10869,"prop":10870,"Ġeuros":10871,"Ġineq":10872,"lique":10873,"Ġox":10874,"Ġbookstore":10875,"_equilateral":10876,"anza":10877,"igen":10878,"achie":10879,"---|---|":10880,"Base":10881,"wind":10882,"istics":10883,"club":10884,"_complete":10885,"Ġattached":10886,"?$Ċ":10887,"_cm":10888,"Ġnormally":10889,"ĠHeight":10890,"Ġsalad":10891,"Ġcreates":10892,"_cosine":10893,"Ġturtles":10894,"Ġren":10895,"ĠÂ¬((":10896,"Ġbracelets":10897,"lyssa":10898,"Ġgross":10899,"Through":10900,"Ġ$[-\\":10901,"III":10902,"holds":10903,"ĠPete":10904,"och":10905,"|>":10906,"ĠAG":10907,"ĠInter":10908,"%.Ċ":10909,"Ġchart":10910,"while":10911,"Ġknowledge":10912,"*Î²":10913,"_reading":10914,"ymmetry":10915,"Ġpebbles":10916,"ki":10917,"Ġferry":10918,"ĠQu":10919,"Ġmessages":10920,"redients":10921,"ability":10922,"],![":10923,"Ġdeduction":10924,"Ġcycling":10925,"Ë¢":10926,"ĠCla":10927,"ĠSystem":10928,"_math":10929,"_batch":10930,"divid":10931,"ais":10932,"ĠBella":10933,"ounce":10934,"Ġinfer":10935,"Ġtrapezoids":10936,"âħ¢":10937,"Ġgoldfish":10938,"_combination":10939,"_tiles":10940,"Ġay":10941,"Ġrack":10942,"Ġabsc":10943,"Ġobservations":10944,".Iio":10945,")\\)Ċ":10946,"Ġevapor":10947,"Ġcarton":10948,"-ro":10949,"Ġpitch":10950,"Ġstudying":10951,"Ġdevice":10952,"_character":10953,"Ġnice":10954,"Ġsetting":10955,"=$______":10956,"_constraint":10957,"viron":10958,"ĠisP":10959,"reh":10960,"ĠJenny":10961,"Ġrearranging":10962,"ĠQuadrant":10963,"-degenerate":10964,"\\rceil":10965,"Ġovert":10966,"Ġscooter":10967,"autiful":10968,"go":10969,"})=\\":10970,"\\)?-/":10971,"Ġ-/ĊĊ":10972,"Ġscalar":10973,"Form":10974,"isosceles":10975,"_hyperbola":10976,"ĠZMod":10977,"Ġexcell":10978,"ĠIrrational":10979,"Ġholding":10980,"Ġcereal":10981,"ocation":10982,"atisfies":10983,"uits":10984,"_cong":10985,"ifths":10986,"ĠOctober":10987,"ĠCO":10988,"amily":10989,"tersect":10990,"Ġcele":10991,"ref":10992,"_pot":10993,"Ġexcluded":10994,"Ġaccident":10995,"Ġconverted":10996,"zhou":10997,"(Q":10998,"-le":10999,"Ġheavy":11000,"Ġaccom":11001,"diamondsuit":11002,"ira":11003,"ĠJeff":11004,"Ġexpense":11005,"_computation":11006,"_monthly":11007,".prime":11008,"Ġtv":11009,"Ġwarehouse":11010,"Ġpaints":11011,"Ġcardinality":11012,"measured":11013,"ware":11014,")*((":11015,"-variable":11016,"(G":11017,"]$-/":11018,"-constant":11019,"_quotient":11020,"without":11021,"_forall":11022,")}$Ċ":11023,"she":11024,"eration":11025,"Ġresponse":11026,"Ġwishes":11027,"_evaluation":11028,"Ġcheaper":11029,"Ġdebt":11030,"succ":11031,"Ġ(âĢĸ":11032,"Ġfiction":11033,"Ġ\\((-":11034,"_dimes":11035,"Ġ,\\":11036,"Ġbeat":11037,"Ġpent":11038,"cted":11039,"Ġupon":11040,"Ġtravelling":11041,"Ġmetres":11042,"First":11043,"Ġpots":11044,"ĠExplain":11045,"ĠCommon":11046,"_cone":11047,"_lost":11048,"}}{(":11049,"Ġmasses":11050,".}":11051,"Ġundefined":11052,"Ġtwins":11053,"ĠSun":11054,"Ġoccurring":11055,"ĠAb":11056,"Fintype":11057,"Ġconnects":11058,"rors":11059,"{CA":11060,"Alex":11061,"bro":11062,"âĹ":11063,"ĠSix":11064,"Ġsecant":11065,"EG":11066,"{The":11067,"ora":11068,"Ġreact":11069,"ĠYear":11070,"Ġdoubling":11071,"Ġvoters":11072,"Ġhamburgers":11073,"kins":11074,"Ġonions":11075,"\\int":11076,"ancing":11077,"Ġcompass":11078,"(\"$\\":11079,"aircase":11080,".Line":11081,"ĠIsS":11082,"Ġdiamonds":11083,"Ġsophomores":11084,"Ġoxygen":11085,"bled":11086,"Ġsamples":11087,"Ġburger":11088,"-numbered":11089,"Ġnature":11090,"ĠDon":11091,"\\%$Ċ":11092,"Ġrefrigerator":11093,"monday":11094,"Ġtub":11095,"Ġconcrete":11096,"Ġaccess":11097,"shaded":11098,"Ġcopy":11099,"_prev":11100,"_gallon":11101,"han":11102,"Ġmanagers":11103,"_vieta":11104,"(u":11105,"return":11106,"|+\\":11107,"ĠMag":11108,"hew":11109,"_gift":11110,"-dollar":11111,"Ġoutcome":11112,"}^*$),":11113,"Ġcrew":11114,"Ġplotted":11115,"_relationship":11116,"Ġenglish":11117,"Value":11118,"ĠCCA":11119,"_more":11120,"ACB":11121,"_ones":11122,"Ġskips":11123,"_candies":11124,"Ġrwa":11125,"ĠED":11126,"Ġrestriction":11127,"midpoint":11128,"$x":11129,"ĠGive":11130,"ĠCDs":11131,"vironment":11132,"hour":11133,"Ġsnacks":11134,"_series":11135,"Ġecon":11136,"ĠBX":11137,"ĠBrad":11138,"undays":11139,"ACD":11140,"Ġpublic":11141,"Cho":11142,"mitive":11143,"Ġtick":11144,"Ġpapers":11145,"Ġlaund":11146,"Ġport":11147,"Ġtemperatures":11148,"|----------------":11149,"```":11150,"hL":11151,"Ġindicates":11152,".toFinset":11153,"Ġaccommod":11154,"_chick":11155,"Ġsweet":11156,"ĠaâĤĸ":11157,"Ġestimated":11158,"Zero":11159,"Ġblood":11160,"lective":11161,"vised":11162,"Ġmultiplicative":11163,"normal":11164,"{L":11165,"atter":11166,"_fifth":11167,"Ġmutual":11168,"_amgm":11169,"lane":11170,"Ġ$\\$$":11171,"ĠAlternative":11172,"Ġmanufacturing":11173,"NO":11174,"}-{":11175,"ĠADB":11176,"olygon":11177,"shirt":11178,"Ġmagician":11179,"Ġflew":11180,"]=":11181,"_meal":11182,"Ġsport":11183,"Ġflash":11184,"_partition":11185,"Ġinstr":11186,"Ġlaunch":11187,"Mark":11188,"gence":11189,"uled":11190,"}$?ĊĊ":11191,"âĮĭĊ":11192,"_shoes":11193,"ĠAndy":11194,".)ĊĊ":11195,"][":11196,"_(":11197,"_PQ":11198,"uild":11199,"_solve":11200,"Ġtotaling":11201,"Ġtripled":11202,"ovember":11203,"(Î²":11204,"_efficiency":11205,"}]$Ċ":11206,"Ġsmart":11207,"Ġcompet":11208,"ĠKevin":11209,"_altitude":11210,"-st":11211,"ĠSolution":11212,"opulation":11213,",ĊĊ":11214,"\\infty":11215,"_rid":11216,"Ġhodd":11217,"âŁ©)":11218,"possib":11219,"Ġbasketballs":11220,"related":11221,"Graph":11222,"ought":11223,"proj":11224,"Ġbeds":11225,"Ġjers":11226,"})}{":11227,"=$____.":11228,"met":11229,"Ġoly":11230,"_do":11231,")*\"":11232,"Do":11233,"Path":11234,"Ġmis":11235,"_para":11236,"possibly":11237,"ham":11238,"vents":11239,"ised":11240,"ĠTicks":11241,"inger":11242,"))]Ċ":11243,"ĠOM":11244,"_home":11245,"apples":11246,"_characterization":11247,"Pr":11248,"ological":11249,"_cyclic":11250,"#check":11251,"Ġcrackers":11252,"express":11253,"_vals":11254,"Ġlocations":11255,"Ġpreparing":11256,"sold":11257,"emi":11258,"Ġconic":11259,"Ġstuff":11260,"Ġsetup":11261,"_good":11262,"Ġbarrel":11263,"(scale":11264,"=BC":11265,"Ġpints":11266,"Ġplain":11267,"Ġsaf":11268,"anish":11269,"Ġrhs":11270,",g":11271,"ck":11272,"ĠMart":11273,"Ġ\\)?ĊĊ":11274,"Ġsimpler":11275,"Ġinstant":11276,"ĠUniversity":11277,"rated":11278,"Ġinjective":11279,"Ġlemons":11280,"children":11281,"*|":11282,"pring":11283,"...$":11284,"othy":11285,"Ġconven":11286,"ĠWater":11287,"Ġneighborhood":11288,"Ġbrac":11289,"Ġfundamental":11290,"Ġpartnership":11291,"Ġribbon":11292,"Ġprepare":11293,"IN":11294,"Jan":11295,"Ġbund":11296,"----|":11297,"_contribution":11298,"Ġgumballs":11299,"Ge":11300,"orty":11301,"ĠRobert":11302,"Ġhectares":11303,"Ġhired":11304,"{PF":11305,"_divisor":11306,"ĠCurrent":11307,":**Ċ":11308,"Ġcontact":11309,"_BD":11310,"vant":11311,"Ġrise":11312,")/(-":11313,"Ġhus":11314,"emon":11315,"Ġcherries":11316,"ĠMari":11317,"ĠQuadrilateral":11318,"resolve":11319,"_store":11320,"Ġdeduct":11321,"Ġbowling":11322,"nut":11323,"Ġbead":11324,"_blocks":11325,"ĠBonanza":11326,"ĠRam":11327,"\\)?Ċ":11328,"ultural":11329,"Ġjoins":11330,"Ġoffering":11331,"Ġbathroom":11332,"ĠSk":11333,"_runs":11334,"Ġ\\[(":11335,"Ġcomputed":11336,"_basket":11337,"liter":11338,"Ġ___.":11339,"){":11340,"Day":11341,"Ġpuppy":11342,"Ġluc":11343,"avors":11344,"hai":11345,"Ġpresident":11346,"ĠPhysics":11347,"Ġadvanced":11348,"_DE":11349,"Ġ$$-":11350,"oinc":11351,"_birds":11352,"Ġsupplementary":11353,"))/((":11354,"cover":11355,"ĠNancy":11356,"Ġsumm":11357,"Ġlittle":11358,"Ġstopping":11359,"_calories":11360,"ÑĤ":11361,"ĠMatt":11362,"urple":11363,"Ġunity":11364,"ĠMinimum":11365,"nected":11366,"|}{|":11367,"enior":11368,"fication":11369,"Ġfontsize":11370,"Ġpopcorn":11371,"_principal":11372,"Ġtracks":11373,"Ġ[\\":11374,"aleb":11375,"Ġ$ĊĊ":11376,"ĠDes":11377,"Ġcourtyard":11378,"Ġattendees":11379,"Ġtreat":11380,"ĠProperties":11381,"-person":11382,"^Î±":11383,"ĠAli":11384,"Ġscar":11385,"=\\{(":11386,"_toys":11387,"Ġobserve":11388,"ela":11389,"_fin":11390,"Ġwatches":11391,"ĠGrade":11392,"ãĢĢãĢĢ":11393,"ĠHorner":11394,"pix":11395,"Ġqx":11396,"Ġbisect":11397,"Ġbulb":11398,"iterate":11399,".min":11400,"_ax":11401,"}$$ĊĊ":11402,"Ġsho":11403,"Ġsoft":11404,")âĪª(":11405,"ĠBefore":11406,"ĠLaw":11407,"Ġintersected":11408,"ï¼Ľ":11409,"Ġtiled":11410,"Ġconson":11411,"Ġaesop":11412,"Ġliked":11413,"ĠInside":11414,"pendence":11415,"Ġpossibly":11416,"(T":11417,"Ġ-((":11418,".Tendsto":11419,")Â·":11420,"Res":11421,"{AM":11422,"ĠFollow":11423,"Ã·\\":11424,"ĠAmerican":11425,"isible":11426,"Ġarch":11427,"Ġcontestant":11428,"Ġnational":11429,"occer":11430,"_simpl":11431,"ĠĠĠĠĠĠĠĠĠĠĠĠĠĠĠĠĠĠĠĠĠĠĠĠĠĠĠĠĠĠĠĠĠĠ":11432,"_intersections":11433,"Ġattendance":11434,"Ġguesses":11435,"Ġrespond":11436,"}^{+":11437,"ĠKate":11438,"-----|-----|-----|-----|":11439,"+{":11440,"Red":11441,"âŁ©âŁ©Ċ":11442,"Ġcontract":11443,"Ġweekdays":11444,"ĠAna":11445,"&&":11446,"/f":11447,"Ġ?ĊĊ":11448,"ĠIsosceles":11449,"rehensive":11450,"-parallel":11451,"ĠEric":11452,"$\",(-":11453,"Ġdeleted":11454,"thony":11455,"Ġml":11456,"Ġqr":11457,"/cropped":11458,"_origin":11459,".mathpix":11460,"rass":11461,"Ġreti":11462,"Ġlawns":11463,"-C":11464,"_if":11465,"Ġgovern":11466,"}$).":11467,"_catch":11468,"Ġstamp":11469,"Ġcoloured":11470,"Ġsymbols":11471,"sets":11472,"istory":11473,"parts":11474,"_similar":11475,"Ġlevels":11476,"ĠHyperbola":11477,"Ġindef":11478,"_discriminant":11479,"&width":11480,"?height":11481,"deg":11482,"eaters":11483,"_stick":11484,"Quadrilateral":11485,"laps":11486,"Ġkay":11487,"Ġprecise":11488,"Ref":11489,"isions":11490,"vee":11491,"ĠInequal":11492,"etergent":11493,"cards":11494,"Ġreplaces":11495,"Seven":11496,"}ÃĹ":11497,"Ġchi":11498,"amples":11499,"Ð¸":11500,"roll":11501,"iral":11502,"}$;ĊĊ":11503,"Ġvase":11504,"Ġpoliti":11505,"Ġclassmates":11506,"Ġbadminton":11507,"_ra":11508,"Ġsons":11509,"argo":11510,"\\\\)_":11511,"_attend":11512,"Ġpartitions":11513,"ĠEquation":11514,"Ġflavor":11515,"ĠLucas":11516,"\\sigma":11517,"Ġoften":11518,"ĠNovember":11519,"ĠThat":11520,",R":11521,"FD":11522,"Ġsli":11523,"Ġdelay":11524,"Ġsaving":11525,"Ġadmission":11526,"_seeds":11527,"According":11528,"john":11529,"Ã¶":11530,"Ġflies":11531,"Ġyet":11532,"ĠSegment":11533,"Ġdecl":11534,"Ġpaise":11535,"(Y":11536,"Ġ(âĮĬ":11537,"Ġpeg":11538,"_diam":11539,"Ġpreceding":11540,"iang":11541,"Ġpati":11542,"spades":11543,"_derivative":11544,"Ġexperience":11545,"Ġbatsman":11546,"Ġcs":11547,"Ġtape":11548,"asmine":11549,"Ġextrac":11550,"}\\).ĊĊ":11551,"Ġcounty":11552,"_coef":11553,"-color":11554,"Ġinternet":11555,"Ġensures":11556,"Ġdresses":11557,"Ġthought":11558,"ĠWhile":11559,"_break":11560,"_prog":11561,"answered":11562,"ĠEuclidean":11563,"Ġconjecture":11564,"FE":11565,"her":11566,"ĠxâĤĻ":11567,"endy":11568,")$?-/":11569,"Ġshaped":11570,"_polygon":11571,"Ġjogging":11572,"ĠDis":11573,"eep":11574,"_shelf":11575,"ĠSmith":11576,"pole":11577,"Ġduck":11578,"req":11579,"ĠFace":11580,"_cor":11581,"_distances":11582,",\\]Ċ":11583,"Ġinteresting":11584,".)Ċ":11585,"ĠSim":11586,"stery":11587,"ĠPe":11588,"Ġcocon":11589,"_future":11590,"Ġbrings":11591,"Factorize":11592,"Ġmanage":11593,"Ġexpressing":11594,"Ġtheorems":11595,"_subsets":11596,"Ġtelephone":11597,"Ġmotorcycle":11598,"Ġexcellent":11599,"Ġ?Ċ":11600,"_back":11601,"ternal":11602,"enne":11603,"ĠJer":11604,"Ġdecimals":11605,"AddComm":11606,"Ġingredients":11607,"achers":11608,"people":11609,"Ġalmond":11610,"Ġcalculates":11611,"ĠXiaoming":11612,"Ġgained":11613,"_EF":11614,"mas":11615,"ĠCQ":11616,"ĠJapan":11617,"-based":11618,"Ġpackets":11619,"Ġannoun":11620,"nitudes":11621,"Ġminimize":11622,"Ġaáµ¢":11623,"ĠĠĠĠĠĠĠĠĠĠĠĠĠĠĠĠĠĠĠĠĠĠĠĠĠĠĠĠĠĠĠĠĠ":11624,"Ġsculpt":11625,"Problem":11626,"Ġmanufacturer":11627,"Ġhuman":11628,"Ġinvertible":11629,"=i":11630,"lia":11631,"Ġprinter":11632,"ĠBlue":11633,"ĠBox":11634,"Ġjam":11635,"Ġfertili":11636,"!![":11637,"Ġhost":11638,"ĠPa":11639,"Ġspider":11640,"âĪŀ,-":11641,"ĠRegular":11642,"ĠâĪŀ)":11643,")}$.":11644,"\\Ċ":11645,"average":11646,"ulty":11647,"ĠSurvey":11648,"unately":11649,"Ġ\\((\\":11650,"Ġ\\\\\\\\":11651,"âĪ£x":11652,"vator":11653,"Ġthinks":11654,"Ġdoctor":11655,"ABCDEFGH":11656,"áµ¦":11657,"Ġappeared":11658,"Ġdepends":11659,"Ġpm":11660,"Ġfries":11661,"_cakes":11662,"girls":11663,"ĠxOy":11664,"Ġjoint":11665,"Ġ((âĪĳ":11666,"pa":11667,"Ðµ":11668,"$\".Ċ":11669,"Ġscheduled":11670,"Ġaquarium":11671,":čĊ":11672,"ĠQED":11673,"_coords":11674,"Ġsandy":11675,"AddCommGroup":11676,"Ġcry":11677,"Ġmultiplier":11678,"Ġtransaction":11679,"Ġswims":11680,"'=":11681,".mon":11682,"arl":11683,"ĠToday":11684,"}{{\\":11685,"âĪł":11686,"Ġassumed":11687,";}Ċ":11688,"agers":11689,"Ġdoors":11690,"Ġhandled":11691,"dometer":11692,"Ġmice":11693,"ette":11694,"Ġstaircase":11695,"Ġapproximation":11696,"Ġdepending":11697,"Ġsquirrel":11698,"Ġodometer":11699,"Ġrotates":11700,"ĠBDC":11701,"(graph":11702,"continuous":11703,"\\ne":11704,"|------------------------":11705,"})$.Ċ":11706,"Ġprojects":11707,"_when":11708,",NE":11709,"Ġtechnic":11710,"Ġconsumes":11711,"Tw":11712,"free":11713,"ecks":11714,"estra":11715,"ished":11716,")}+\\":11717,"intersection":11718,"arn":11719,"Ġinlet":11720,"ĠDr":11721,"Ġproposed":11722,"_projection":11723,"Ġapproach":11724,"Observe":11725,"Ġjane":11726,"ptagon":11727,"Ġenvironment":11728,"Ġholiday":11729,"alt":11730,"ĠMarc":11731,"_nick":11732,"ody":11733,"ĠConver":11734,"onica":11735,"ĠStrictMonoOn":11736,"_room":11737,"_charge":11738,"Ġmagnitudes":11739,"_setOf":11740,"Ġâĸ³":11741,"Ġcontributes":11742,"Ġprocedure":11743,"_past":11744,"ĠStudents":11745,"_orth":11746,"Ġjumping":11747,"ooth":11748,"ĠisS":11749,"tioned":11750,"Ġinterview":11751,"']":11752,"Ġhockey":11753,"ĠWorld":11754,"_rule":11755,"ĠEFGH":11756,"lower":11757,"Ġps":11758,"Ġsometimes":11759,"CH":11760,"Nine":11761,"_as":11762,"ĠExtend":11763,"cription":11764,"-l":11765,"third":11766,"umb":11767,"issors":11768,"Ġpotato":11769,"Ġ\\):ĊĊ":11770,"ainting":11771,"Ġhowever":11772,"Ġinsp":11773,"Ġassistant":11774,"Ġsemester":11775,",SW":11776,"boxes":11777,"Ġcoll":11778,"Ġinspection":11779,"Ġlaundry":11780,"opes":11781,"Ġmixing":11782,"BQ":11783,"|}{":11784,"ometry":11785,"Rem":11786,"{W":11787,"gela":11788,"\\)-/":11789,"ĠEvan":11790,"Ġcolours":11791,"_gu":11792,"Ġcaptain":11793,"hAC":11794,"vol":11795,"Ġstopped":11796,"Ġ$\\_\\_\\_\\_\\_\\_$.":11797,"BK":11798,"zed":11799,"Ġjim":11800,"allow":11801,"BN":11802,"ĠParabola":11803,"Ġbowls":11804,".D":11805,"ĠCircles":11806,"wis":11807,"oping":11808,"athon":11809,"ĠâĢĵ":11810,"_addition":11811,"Ġlucky":11812,"Ġwaiter":11813,"ĠModel":11814,"ĠBl":11815,"Ġwidgets":11816,"}}}$":11817,"_employees":11818,"(func":11819,"\\lceil":11820,"Ġfans":11821,"ĠWhe":11822,"Ġeliminated":11823,".perp":11824,"DP":11825,"cle":11826,"Ġast":11827,"Pos":11828,"abella":11829,"_func":11830,"Ġdavid":11831,"oking":11832,"_above":11833,"}&":11834,"ĠCAD":11835,"!))":11836,"(right":11837,"isk":11838,"Ġpredi":11839,"|}Ċ":11840,"Ġhomes":11841,"_incorrect":11842,"Ġenvelope":11843,"Ġrpow":11844,"ticip":11845,"ĠExam":11846,"clubsuit":11847,"Ġsisters":11848,"rem":11849,"tel":11850,"ĠEns":11851,"}})^{":11852,"bas":11853,"Ġextract":11854,"_level":11855,"Ġsalaries":11856,"ĠMs":11857,"Ġasks":11858,"ĠGreg":11859,"Ġwatched":11860,"_rotation":11861,"'clock":11862,"PE":11863,"_tank":11864,"_visitors":11865,"Ġ\\{(":11866,"Ġpiggy":11867,"ĠBernardo":11868,"Ġfore":11869,"_{-":11870,"Ġrailway":11871,",Y":11872,"]$.-/":11873,"zy":11874,"Ġcarnations":11875,"{only":11876,"ĠTaking":11877,"ĠBetween":11878,"ĠÎĵ":11879,"ĠJanet":11880,"Ġpicnic":11881,"_achie":11882,"ulie":11883,"Ġfishing":11884,"{PB":11885,"Tri":11886,"\\rightarrow":11887,"Ġcage":11888,"Ġovers":11889,"spadesuit":11890,"Ġkid":11891,"Ġparrots":11892,"Ġchef":11893,"pairs":11894,"Ġeigen":11895,"Ġcandle":11896,"ened":11897,"Ġjumped":11898,"Ġvolunteer":11899,"**(":11900,"Ġbond":11901,"_convex":11902,"_threshold":11903,"''Ċ":11904,"valued":11905,"Only":11906,"Ġwrongly":11907,"|$.Ċ":11908,"Ġ:---":11909,"Ġprint":11910,"Ġdigital":11911,",\\,\\,":11912,"Ġislands":11913,"fers":11914,"ĠVal":11915,"Ġflipping":11916,"Ġwatermelons":11917,"_letters":11918,")})":11919,"Ġ$Â±":11920,"Ġnested":11921,"}$,Ċ":11922,"Ġserving":11923,"Ġmirror":11924,"Ġbegan":11925,"_nonempty":11926,"_walk":11927,"Ġfix":11928,"ĠJos":11929,"}^{*}":11930,"ï¼Ī":11931,"Ġrode":11932,"Ġdoctors":11933,"Ġprojected":11934,"Ġtomorrow":11935,"back":11936,"Ġfed":11937,"Ġpassword":11938,"Ġrepresentations":11939,"_yield":11940,"Ġmistakenly":11941,"Ġsmooth":11942,"_stock":11943,"-.":11944,"Ġration":11945,"Ġwine":11946,"Ġgravity":11947,"oration":11948,"ĠhQ":11949,"Ġlists":11950,"Ġzeroes":11951,"_coord":11952,"ĠLiam":11953,"-valued":11954,"}âĢ¢":11955,"stant":11956,"ĠPT":11957,"apter":11958,"Ġemily":11959,"ĠMat":11960,"Ġblan":11961,"Ġphase":11962,"Ġpumpkin":11963,"lers":11964,"ĠRay":11965,"}\\}":11966,")$?Ċ":11967,"Ġmich":11968,"west":11969,"Ġspi":11970,"ĠMia":11971,"Ġlim":11972,"ichard":11973,"_univ":11974,"\\omega":11975,"piece":11976,"_rewrite":11977,"\\\\)ĊĊ":11978,"Ġraisins":11979,"Ġwatching":11980,"ratified":11981,"_shells":11982,"hO":11983,"Ġhdiff":11984,"Ġcucumbers":11985,"ĠShape":11986,"ĠEnum":11987,"}^{-":11988,"ĠMonth":11989,"=r":11990,"Positive":11991,"bd":11992,"{ctg":11993,"Ġef":11994,"Ġbelie":11995,"Ġstairs":11996,"arrowsize":11997,"AT":11998,"Ġunp":11999,"Ġfreq":12000,"Petya":12001,"lits":12002,"iraff":12003,"_hex":12004,"Ġpirate":12005,"fortunately":12006,".num":12007,"meal":12008,"Ġtallest":12009,"ulated":12010,"ruce":12011,"differentiable":12012,"faces":12013,"Ġrepetition":12014,"Ġlg":12015,"tainer":12016,"Ġdescribes":12017,"Ġfarther":12018,"ĠLeft":12019,"Ġreleased":12020,"_en":12021,"etition":12022,"_pie":12023,"}|\\":12024,"htri":12025,"elle":12026,"Ġjobs":12027,"Ġjose":12028,"Ġderivatives":12029,"Ġphones":12030,"Ġpopular":12031,"Ġcarrying":12032,"hV":12033,"_thirty":12034,"Ġtelevision":12035,"(ax":12036,"VD":12037,"puts":12038,"ryan":12039,"_morning":12040,"Ġanswering":12041,"-length":12042,"âĩ":12043,"unks":12044,"BH":12045,"Ġhill":12046,"Ġfamous":12047,"_ecc":12048,"+ac":12049,"Ġlasts":12050,")^((":12051,"Ġdataset":12052,"Ġcelebr":12053,"=AC":12054,"Ġbees":12055,"},-":12056,"ĠQS":12057,"ĠÏķ":12058,"Ġevaluated":12059,"-cent":12060,"Figure":12061,"distinct":12062,"ĠstrictMono":12063,"Ġprizes":12064,"_carrots":12065,"Ġhospital":12066,"Ġnumerators":12067,"_maximum":12068,"_space":12069,"(log":12070,"rx":12071,"ĠRyan":12072,"_long":12073,"Ġnotices":12074,"Ġhac":12075,"ĠChemistry":12076,"SO":12077,"-sized":12078,"Ġcontinuously":12079,"Ġsystems":12080,"*Y":12081,"Ġslip":12082,"Ġexhib":12083,"Ġrobo":12084,"Ġinvent":12085,"|--------|--------":12086,"FB":12087,"Fun":12088,"Pair":12089,"Random":12090,"Ġ(Â¬(":12091,"Ġevaluation":12092,"Ġquadruples":12093,"(rightanglemark":12094,"hU":12095,"Ġmarker":12096,"ĠAT":12097,"Ġchall":12098,"Ġdragon":12099,"$A":12100,"}))":12101,"Initial":12102,"_inscribed":12103,"Ġbookshel":12104,"Ġaccurate":12105,"Ġvisiting":12106,"Ġindividually":12107,"Based":12108,"ohol":12109,"ĠRes":12110,"ĠÎ£":12111,"_injective":12112,"Ġcooking":12113,"{BE":12114,"Ġpreferred":12115,"Ġsacks":12116,"âĪĴ":12117,"}+âĢ¦+":12118,"uced":12119,"len":12120,"Ġmedical":12121,"_conditions":12122,"_eleven":12123,"next":12124,"rates":12125,"mper":12126,"ĠBarb":12127,"Ġmonkeys":12128,"Ġtoppings":12129,"_shadow":12130,"_piece":12131,"=black":12132,"hcd":12133,"wash":12134,"ĠFiona":12135,"Ġoutf":12136,"Ġrefer":12137,"ĠMartha":12138,"Ġterrain":12139,"_ob":12140,"init":12141,"esh":12142,"ĠST":12143,"_wrong":12144,"Ġ||":12145,"Ġformation":12146,"Ġnovel":12147,"Ġdiscr":12148,"Ġhypotheses":12149,"uminum":12150,"grad":12151,"har":12152,"_opposite":12153,"kerage":12154,"\\pmod":12155,"upon":12156,"aley":12157,"Ġ(âĪļ(":12158,"El":12159,"hX":12160,"qual":12161,"Ġbutton":12162,"_stat":12163,"_coordinates":12164,"}{-":12165,"Ġfunds":12166,"Ġspecifically":12167,"Ġpedest":12168,"^j":12169,"_alpha":12170,"_pq":12171,"Ġ__(":12172,"Ġ___":12173,"dogs":12174,"ycled":12175,".Plane":12176,"derivative":12177,"Ġperforming":12178,"Ġvowels":12179,"Ġdiet":12180,"Ġdiffic":12181,"Ġmagn":12182,"Ġelectronic":12183,"EB":12184,"ulus":12185,"Ġgovernment":12186,"ght":12187,"Ġae":12188,"Ġsus":12189,"ĠAx":12190,"union":12191,"Ġforg":12192,"Ġque":12193,"Ġinvesting":12194,"GCD":12195,"Sc":12196,"Ġchest":12197,"{AF":12198,"ĠSteven":12199,"ĠJustify":12200,"ĠABF":12201,"ruth":12202,"Ġsodas":12203,"Give":12204,"mallest":12205,"Ġdave":12206,"}$$.":12207,"Ġclar":12208,"Mike":12209,"reddy":12210,"_tom":12211,"Ġjerry":12212,"ĠValue":12213,"\\\\):":12214,"Ġsuggest":12215,"ano":12216,"ĠLou":12217,"Ġwrapping":12218,"ĠDoug":12219,"/total":12220,"Cor":12221,"Ġfields":12222,"Ġairline":12223,"Ġshelter":12224,"Ġbranches":12225,"Ġimportant":12226,"Ġbra":12227,"ĠJon":12228,"Ġbecame":12229,"annual":12230,"Ġmistake":12231,"Ġstationary":12232,"Ġordinary":12233,",-\\":12234,"Ġpoll":12235,"{CB":12236,"ittles":12237,"ĠNumbers":12238,"Ġbeam":12239,"ications":12240,"Ġshowed":12241,"ycling":12242,"Ġvanilla":12243,"Ġsite":12244,"âģ°":12245,"bed":12246,"hÎ²":12247,"Ġattained":12248,"Ġcommer":12249,"_grid":12250,"Ġweighings":12251,"Ġtransferred":12252,"Ġtrailing":12253,"Ġelderly":12254,"Ġsits":12255,"Ġ}(":12256,"ĠAnne":12257,"-square":12258,"Ġstrength":12259,"Ġwallet":12260,"ĠTown":12261,"Ġstorm":12262,"ĠConverting":12263,"($":12264,"\\}_{":12265,"inf":12266,"Ġheat":12267,"_off":12268,"_quarter":12269,"Ġcategory":12270,"!\\":12271,"End":12272,"dog":12273,",Size":12274,"Ġsteel":12275,"veys":12276,"libri":12277,"_cows":12278,"arding":12279,"Ġindust":12280,"_trips":12281,"Ġxf":12282,"uming":12283,"ched":12284,"Ġplacement":12285,"Ġgrain":12286,"Â°)Ċ":12287,"ĠRef":12288,"_requ":12289,"Ġstatue":12290,"_subst":12291,"|\\,":12292,"+(-":12293,"endra":12294,"english":12295,"_expon":12296,"Ġabscissa":12297,"librium":12298,")))^":12299,"Ġoutward":12300,"Ġdiscard":12301,".two":12302,"_passing":12303,"Ġuncle":12304,"Rel":12305,"{({":12306,"ĠDem":12307,"ĠDiana":12308,"Ġshake":12309,"}_{+}":12310,"Ġdistributions":12311,"Ġforeign":12312,"bout":12313,"Ġelevation":12314,"_prism":12315,"Ġconsistent":12316,"ifty":12317,"Ġrealized":12318,"Ġrepairs":12319,"Ġquarts":12320,"apped":12321,"]\\).":12322,"_V":12323,"ĠTang":12324,"ĠHel":12325,"Ġcentre":12326,"Ġelevator":12327,"everal":12328,"(iii":12329,".vertices":12330,"Ang":12331,"Ġevaluates":12332,"]--":12333,"ighbo":12334,"GF":12335,"_tables":12336,"_perms":12337,"_roll":12338,"Ġquartic":12339,"Ġindicate":12340,"Ġfine":12341,"ĠHannah":12342,"_fold":12343,"While":12344,"yellow":12345,"Ġgate":12346,"ĠLHS":12347,"ongzi":12348,"ĠDiagonals":12349,"athered":12350,"Ġdiffers":12351,"Ġshakes":12352,"Ġtied":12353,"{bc":12354,"ionship":12355,"Ġpills":12356,"ĠBook":12357,"Ġclo":12358,"Ġtwin":12359,"ĠMa":12360,"_W":12361,"nabla":12362,"\\):Ċ":12363,"ridget":12364,"+w":12365,"+xy":12366,"Draw":12367,"ĠDVD":12368,"MD":12369,"ĠRatio":12370,"ĠOb":12371,"_gap":12372,"Ġsnake":12373,"Ġmagazines":12374,"_wheels":12375,"rest":12376,"Ġret":12377,"_normal":12378,"_centroid":12379,"Statement":12380,"Ġpalindromic":12381,"Ġintercept":12382,"ĠâĢĻ":12383,"âĢĶ":12384,"Ġpartner":12385,".ceil":12386,"male":12387,"Ġbacon":12388,"texts":12389,"alcohol":12390,"Ġsplits":12391,"thew":12392,"\\}$.-/":12393,"[u":12394,")$$,":12395,"Ġtriplet":12396,"_block":12397,"ayment":12398,"Ġattending":12399,"Ġreducing":12400,"Ġoccupy":12401,"'}":12402,"vertex":12403,"_cd":12404,"Ġtim":12405,"_inner":12406,"Ġcarri":12407,"\\\\)-/":12408,"Ġalbum":12409,"Ġmuffin":12410,"ĠOlymp":12411,"ĠCandidate":12412,"Ġthreshold":12413,"Ġmult":12414,"}.$-/":12415,"^{|":12416,"}}}}":12417,"+=":12418,"Ġdates":12419,"ceeds":12420,"ĠhÎµ":12421,"Ġvoted":12422,"ĠElla":12423,"Ġdaisies":12424,"BG":12425,"tell":12426,"_locus":12427,")}^":12428,"Ġpacked":12429,".$.":12430,"omy":12431,"_matrix":12432,"Ġdirected":12433,"Ġinhabitants":12434,"!+":12435,"\\subset":12436,"ÃŃ":12437,"Ġvia":12438,"_dollars":12439,"Ġ..":12440,"ĠJay":12441,"Ġpeach":12442,"ĠAMC":12443,"ĠConsidering":12444,"_match":12445,"_margin":12446,"Ġlogical":12447,",SE":12448,"Ġphotograph":12449,".}$":12450,"above":12451,"jack":12452,"Ġarranging":12453,"Ġbench":12454,"licity":12455,"ennif":12456,"Ġpops":12457,"Ġtablesp":12458,"Ġorchestra":12459,"ĠKaren":12460,"_error":12461,"Quadratic":12462,"OT":12463,"Ġtiling":12464,"Ġ(âĪĳ'":12465,".count":12466,"zx":12467,"ĠhT":12468,"Ġcrow":12469,"Ġraw":12470,"_sec":12471,"=C":12472,"Circles":12473,"orical":12474,"ĠPred":12475,"venir":12476,"\\\\);":12477,"+zx":12478,"Ġputting":12479,"Ġcollecting":12480,"{gathered":12481,"_ma":12482,"ÃĹn":12483,"Ġtrader":12484,"Ġelephants":12485,"iom":12486,"_sun":12487,"_house":12488,"minutes":12489,"Ġranking":12490,"_cop":12491,"_layer":12492,"Ġoblique":12493,"\\}$;":12494,"Ġsoldiers":12495,"ijing":12496,"lash":12497,"Ġchoir":12498,"Ġminimizes":12499,"chi":12500,"ĠJam":12501,"Ġmessage":12502,"(Note":12503,"EA":12504,"Ġfetch":12505,"Ġmb":12506,"represent":12507,"ĠBiology":12508,"Ġeasier":12509,"adium":12510,"Ġlady":12511,"QS":12512,"\\}\\),":12513,"vo":12514,"thur":12515,"ĠCirc":12516,"ĠRemaining":12517,"=\\_\\_\\_\\_\\_\\_$.":12518,"Ġregistered":12519,"Ġolympiad":12520,"ĠTw":12521,"emies":12522,"ands":12523,"_shelves":12524,"ĠâĢ¦,":12525,"Image":12526,"Ġrationals":12527,"ennifer":12528,"Num":12529,"_sequences":12530,"Ġmileage":12531,"_integral":12532,"rons":12533,"...Ċ":12534,"ĠBCA":12535,"Ġselections":12536,"Ġmini":12537,"Ġapplies":12538,"ĠIntersecting":12539,"Ġnovels":12540,"Ġquart":12541,"Ġcommittees":12542,"*M":12543,"pA":12544,"Ġmaster":12545,"Ġshuff":12546,"Ġpacket":12547,"ĠEstimate":12548,"|$.ĊĊ":12549,"ĠLinda":12550,"Inc":12551,"Ġerase":12552,")?-/":12553,"efficients":12554,"chain":12555,"_overlap":12556,"ĠTra":12557,"thern":12558,"Ġ$$Ċ":12559,"_sines":12560,"_largest":12561,"Ġflying":12562,"measuredangle":12563,"tom":12564,"ĠBO":12565,"_plant":12566,"ĠHilt":12567,"choice":12568,"Ġinternational":12569,"_asymptote":12570,"ogn":12571,"ĠCindy":12572,"stack":12573,"_bottle":12574,"-robin":12575,",Ticks":12576,"AI":12577,"cial":12578,"asons":12579,"ĠSelling":12580,"Ġnoted":12581,"(H":12582,"strategy":12583,"occ":12584,"$\".":12585,"cast":12586,"Ġ\\|\\":12587,"leep":12588,"ecreasing":12589,"ander":12590,"Ġmotorc":12591,"csc":12592,"female":12593,"orks":12594,"Ġmagical":12595,"Ġmaximizes":12596,"<n":12597,"*D":12598,"Ġmaple":12599,"ĠString":12600,"Ġsunny":12601,"ĠEH":12602,"_rece":12603,"load":12604,"ĠÂłĠÂł":12605,"Ġtauto":12606,"Phi":12607,"Ġsad":12608,"Ġzongzi":12609,"{abc":12610,"ĠDanny":12611,"_meters":12612,"ĠLaura":12613,"})$.-/":12614,"ĠCancel":12615,".Iic":12616,"Ġ})":12617,"Ġoverlaps":12618,"obal":12619,"Ġarranges":12620,"ĠAmount":12621,"_bananas":12622,"^s":12623,"reet":12624,"Ġunanswered":12625,"SA":12626,"oong":12627,"ĠBro":12628,"oger":12629,"romatic":12630,"vich":12631,"income":12632,"Ġexit":12633,"undant":12634,"Ġflavors":12635,"ĠGeometricSpace":12636,"|=$":12637,"ĠNH":12638,"itted":12639,"âĪ£(":12640,"Ġreflecting":12641,",M":12642,"_ord":12643,"_wall":12644,"Ġsyrup":12645,"iii":12646,"{Y":12647,"{If":12648,"Ġbir":12649,"ĠSue":12650,"Ġheptagon":12651,"ini":12652,"Ġcater":12653,"Ġworm":12654,"Ġtool":12655,"Ġlineup":12656,")}\\:":12657,"_meet":12658,"ĠLeo":12659,"EH":12660,"_pizza":12661,"AOB":12662,"Unit":12663,"ĠNorth":12664,"_pick":12665,"_trapezoid":12666,"mass":12667,"reci":12668,"ĠWeek":12669,"âĦ¤":12670,"Ġgaps":12671,"ĠGu":12672,"Ġfeb":12673,"Ġloop":12674,"Ġsupposed":12675,"ittle":12676,"aro":12677,"}={":12678,"Ġdozens":12679,"ĠCombined":12680,"_verification":12681,"Ġassignments":12682,"{answer":12683,"Ġthirty":12684,"ĠAg":12685,"verses":12686,"Ġcongruences":12687,"Choose":12688,"Ġmichael":12689,"{j":12690,"Ġinser":12691,"amera":12692,"Ġnoting":12693,"Ġarcade":12694,"Ġbins":12695,"Ġformalize":12696,"Ġattempt":12697,"=Â±":12698,"geometric":12699,"_lunch":12700,"}|=\\":12701,"different":12702,"Ġmanaged":12703,"Ġscoops":12704,"ĠvB":12705,"efactor":12706,"Ġweekends":12707,"-fifth":12708,"ï¼īĊĊ":12709,"ĠPredicate":12710,"FA":12711,"walk":12712,"years":12713,"Ġbell":12714,")--Ċ":12715,"_flowers":12716,"Ġtechnology":12717,"Ġmasks":12718,"Ġinvestigate":12719,"_taken":12720,"Ġneighbo":12721,"Ġanalogy":12722,"abri":12723,"Ġcouples":12724,"cyc":12725,"reat":12726,"Ġcontrol":12727,"ĠExpanding":12728,"ĠOlivia":12729,"Ġali":12730,"Ġthinking":12731,"Ġmaj":12732,"Ġ,-":12733,"_sqm":12734,")(-":12735,"Ġcy":12736,"Ġdriven":12737,"_adjacent":12738,"Solution":12739,"loss":12740,"Ġsticker":12741,"(R":12742,"Win":12743,"special":12744,"Ġcommod":12745,"atory":12746,"_eff":12747,"Ġjackets":12748,"Ġcancel":12749,"ainder":12750,"uk":12751,"organ":12752,"ĠFD":12753,"_che":12754,"neither":12755,"Cont":12756,"Ġthrowing":12757,"ĠAnnual":12758,".z":12759,"ĠLuke":12760,")=(\\":12761,".toNat":12762,"echan":12763,"entral":12764,"Ġpricing":12765,"_alb":12766,"ewel":12767,"tor":12768,"}\\\\).":12769,"ĠâŁ¨âŁ¨":12770,"Ġchecked":12771,"Ġprepared":12772,"}$$-/":12773,"Ġusually":12774,"ĠInstead":12775,"ĠWhether":12776,"Ġwa":12777,"ĠLee":12778,"Ġapps":12779,"Ġrecent":12780,"calefactor":12781,"unitsquare":12782,"ĠMeasure":12783,"*Î¸":12784,"ulate":12785,"Ġrests":12786,"ĠAnton":12787,"Ġcharacteristic":12788,"etails":12789,"Ġnewly":12790,"Ġarrival":12791,"Norm":12792,"Ġxmin":12793,"_sandw":12794,"_ca":12795,"_simple":12796,"ĠÎĶx":12797,"Ġcommercial":12798,"/âĪļ(":12799,">c":12800,"Ph":12801,"four":12802,"Ġlbs":12803,"izations":12804,"Ġrightmost":12805,"_gas":12806,"_weights":12807,"Ġplanks":12808,"Ġgrandfather":12809,"Ġcontradicting":12810,"months":12811,"encil":12812,"Ġteeth":12813,"_parallelogram":12814,"}^*$.":12815,"Ġsafety":12816,"_play":12817,".totient":12818,"oongi":12819,"ĠAreas":12820,"image":12821,"_gra":12822,"Ġslee":12823,"ĠHCl":12824,"allon":12825,"Ġarts":12826,"Ġbiking":12827,"Ġdeposited":12828,"gn":12829,"ĠhF":12830,"Ġcott":12831,"Ġshore":12832,"_hundred":12833,"ĠAnnie":12834,"Ġprojec":12835,"Ġhusband":12836,"(Ïīx":12837,"PO":12838,"Ġabcd":12839,"âĸ":12840,"ĠKe":12841,"Ġpentagonal":12842,"marked":12843,"Ġpanc":12844,"Ġpolled":12845,"Proposition":12846,"/A":12847,"inating":12848,"ĠNik":12849,"aya":12850,"Ġjudg":12851,"Ġbushes":12852,"_pred":12853,"ĠZoe":12854,"{PR":12855,"Ġ]":12856,"team":12857,"element":12858,"Ġdetergent":12859,")\\]Ċ":12860,"Ġbean":12861,"_chairs":12862,"![![":12863,"CN":12864,"PT":12865,"}).":12866,"Ġmolar":12867,"}$,$":12868,"Ġellip":12869,"ĠExists":12870,"licate":12871,".support":12872,"_stream":12873,"Ġhiking":12874,"{QR":12875,"Ġ),":12876,"ĠAaron":12877,"Ġask":12878,"yler":12879,"inos":12880,"Ġpup":12881,"_data":12882,"Ġwhereas":12883,"ĠKey":12884,"Ġsource":12885,".Finite":12886,"Ġfits":12887,"Ġsweater":12888,"}^*)$,":12889,"_removed":12890,"Ġsouvenir":12891,".edges":12892,"Ġhops":12893,"Ġna":12894,"oma":12895,"rays":12896,")$\",":12897,"Ġspiral":12898,"wall":12899,"Ġhairc":12900,"Ġkern":12901,"Ġquick":12902,"Ġagree":12903,"Leftrightarrow":12904,"hK":12905,"}m":12906,"hex":12907,"Ġ_\\\\(":12908,"iley":12909,"Ġmetre":12910,"nam":12911,"ĠNine":12912,"Ġtrials":12913,"ĠJess":12914,"Ġvariety":12915,"ĠDana":12916,"coloring":12917,"Ġdodecagon":12918,"!)^":12919,"/|":12920,"Ġbeet":12921,"org":12922,"ulf":12923,"_gold":12924,"<-":12925,"@{}":12926,"]));Ċ":12927,"yard":12928,"Ġtoll":12929,"ĠSw":12930,"Ġplums":12931,"Ġtrial":12932,"-step":12933,"Ġbackpack":12934,"rep":12935,"ĠBag":12936,"_finite":12937,"_always":12938,"Ġtextbooks":12939,"orange":12940,"Ġsally":12941,"Ġinning":12942,"Ġalign":12943,"Ġlif":12944,"onses":12945,"Ġenters":12946,"Ġbracelet":12947,"_nickels":12948,"_laps":12949,"_har":12950,"Ġpromotional":12951,"monthly":12952,"_pen":12953,");[/":12954,"Expr":12955,"Ġdoughnuts":12956,"Ġlooks":12957,"ĠMeanwhile":12958,"|(":12959,"Ġauxiliary":12960,"Ġvs":12961,"ĠEG":12962,"_proj":12963,"_state":12964,"awn":12965,"ĠCharles":12966,"Ġjoe":12967,"Ġmedals":12968,"Ones":12969,".line":12970,"_ag":12971,"_alcohol":12972,"ja":12973,"_perm":12974,"Ġ.čĊčĊ":12975,"\")":12976,"Â¢":12977,"\\}$;ĊĊ":12978,"Ġdealer":12979,"ĠMasha":12980,"urric":12981,"Ġboards":12982,"Ġplastic":12983,")=-\\":12984,"have":12985,"ĠIsOdd":12986,"{two":12987,"Ġaudience":12988,".F":12989,"aintan":12990,"ĠWhite":12991,"Ġdecks":12992,"Ġtanks":12993,"\\\\)\"":12994,"aintances":12995,"auss":12996,"ighteen":12997,"Ġbea":12998,"iodic":12999,"-one":13000,"Ġthief":13001,"Ġbatches":13002,"Ġstip":13003,"rams":13004,"perback":13005,"_each":13006,"_complex":13007,"_notation":13008,"Ġmentioned":13009,"Ġlighter":13010,"atched":13011,"ĠVertex":13012,"etrahedron":13013,"Ġprimitive":13014,"+âĪļ":13015,"/cos":13016,"Ġwar":13017,"ĠGrand":13018,"_shop":13019,"Ġadvance":13020,"{âĩ":13021,"Ġ-|":13022,"Ġmarathon":13023,"Ġelementary":13024,"_stickers":13025,"{âĩĢ":13026,"sequence":13027,"_paper":13028,"_sixteen":13029,"_peaches":13030,"crossing":13031,"Ġoxen":13032,"-circle":13033,"Tim":13034,"ĠRandom":13035,"Ġpepperoni":13036,"<d":13037,"rangle":13038,"Ġwithdraw":13039,"ÂłÂłÂłÂłÂłÂłÂłÂłÂłÂłÂłÂłÂłÂłÂłÂł":13040,"=p":13041,"table":13042,"Ġstacks":13043,"Ġcircuit":13044,"-five":13045,"?čĊčĊ":13046,"ipped":13047,"unches":13048,"}^{+}":13049,"_read":13050,"ĠYork":13051,"Ġlinearly":13052,"String":13053,"Ġpremium":13054,"Call":13055,"bridge":13056,"high":13057,"Ġefficient":13058,"ĠBOC":13059,"_det":13060,"ĠLily":13061,"Ġdownward":13062,"roximately":13063,"Ġsubtracts":13064,"langle":13065,"ĠhR":13066,"seven":13067,"interest":13068,"Please":13069,"ĠUnfortunately":13070,"_regions":13071,"Ġgathering":13072,"Ġfifty":13073,"_shaded":13074,".inv":13075,"Ġfactorials":13076,"_overs":13077,"Ġbigger":13078,"Ġlocker":13079,"Ġbounces":13080,"+j":13081,"comb":13082,"jan":13083,"Ġblanks":13084,"Ġguard":13085,"Ġapartments":13086,"aby":13087,"Ġrob":13088,"Ġfactoring":13089,"resh":13090,"Ġcampers":13091,"term":13092,"Ġmac":13093,"udge":13094,"Ġbisected":13095,"-ab":13096,"hH":13097,"Ġbakes":13098,"ĠLake":13099,"}\\)-/":13100,"_recip":13101,"ĠâĨĳ(":13102,">}":13103,"ramm":13104,"Ġaccounts":13105,"{BA":13106,"ĠCK":13107,"Ġreward":13108,"-con":13109,"Ġorchard":13110,"Ġqualified":13111,"Ġdead":13112,"Ġwinners":13113,"lified":13114,"Ġconfidence":13115,"ĠMic":13116,"ĠPE":13117,".conj":13118,"{âĩĢ}{":13119,"*pi":13120,"Vec":13121,"Ġ[[":13122,"values":13123,"Ġcupcake":13124,"$f":13125,"(sin":13126,"UR":13127,"mable":13128,"}}}{{":13129,"arden":13130,"Ġboundaries":13131,"ricted":13132,",NW":13133,"Ġlogarithmic":13134,"}+|":13135,"Ġtesting":13136,"Ġviolet":13137,")b":13138,"Ġrasp":13139,"Ġgear":13140,"ĠDBC":13141,"answers":13142,"ungk":13143,"ĠClaire":13144,"slope":13145,"uracy":13146,"_neither":13147,"âĪĪ(":13148,"ĠArrows":13149,"zab":13150,"Ġreview":13151,"ruits":13152,"Ġperforms":13153,"Select":13154,"_dim":13155,"Ġlions":13156,"Ġcarried":13157,"Perfect":13158,"{III":13159,"ĠSamplingMethod":13160,"dashed":13161,"rpow":13162,"still":13163,"sticks":13164,"ami":13165,"_fare":13166,"ĠJosh":13167,")--(.":13168,"Ġextending":13169,"Ġreflex":13170,"_teachers":13171,"Transform":13172,"CQ":13173,"more":13174,"ĠTina":13175,"Ġbee":13176,"Ġpolygonal":13177,"_under":13178,"Ġhon":13179,"Ġstadium":13180,"ĠOQ":13181,"Ġsibling":13182,"Ġsuccessfully":13183,"Ġpedestrian":13184,"yaxis":13185,"ĠmL":13186,"Ġmechan":13187,"ĠFestival":13188,"ĠGraph":13189,"Ġlabelled":13190,"Ġmajority":13191,"Ġprecisely":13192,"-{":13193,"acc":13194,"ilvia":13195,"Ġcouple":13196,"uilding":13197,"lyn":13198,"ĠÂ°":13199,"Ġ\\\\)Ċ":13200,"BO":13201,"amin":13202,"âĪĽ":13203,"_free":13204,"âĢĻt":13205,"Ġaccounting":13206,"Ġbaker":13207,"ĠClub":13208,"integral":13209,"friends":13210,"Ġadopted":13211,"(v":13212,"cri":13213,"Ġbijective":13214,"Ġcontinuity":13215,"Below":13216,"false":13217,"Ġsends":13218,"child":13219,"ĠDima":13220,"vestig":13221,"ĠIntern":13222,"Ġmaintaining":13223,"Ġdiss":13224,"igible":13225,"okemon":13226,"Ġsoil":13227,"Ġ~\\":13228,"ME":13229,"Ġfails":13230,"<j":13231,"ĠRon":13232,"Ġmarch":13233,"theast":13234,"ulture":13235,"Ġaged":13236,"Ġdispl":13237,"-ounce":13238,"Ġtrick":13239,"ĠAI":13240,"_dri":13241,"Inter":13242,"Ġperfectly":13243,"olyn":13244,"Ġcapac":13245,"Ġyogurt":13246,"(The":13247,"ĠMF":13248,"hao":13249,"Ġdescribe":13250,"ÂłÂłÂłÂłÂł":13251,"tanding":13252,"Ġdelivered":13253,"ungkook":13254,"ĠCat":13255,"Ġstated":13256,"ĠÎ¶":13257,"flow":13258,"....":13259,"ĠEnsure":13260,"Ġchlor":13261,"Ġseller":13262,"Ġloaf":13263,"ĠChristmas":13264,"_pants":13265,"ĠDP":13266,"uestion":13267,"Ġtric":13268,"ĠSimply":13269,"Ġpeppers":13270,")âĮī":13271,"hmn":13272,"ĠFA":13273,"ĠFer":13274,"ĠDN":13275,"____.-/":13276,"Ġgoat":13277,"Ġtyping":13278,"Ġsuggested":13279,"ĠOD":13280,"Ġtray":13281,"Ġcommodity":13282,"-order":13283,"\\div":13284,"ĠSu":13285,"_cents":13286,")^^(":13287,"Ġdrum":13288,"Ġchampionship":13289,"Ġmajors":13290,"Ġbn":13291,"ĠÂ£":13292,"Ġadditive":13293,"Ġassociativity":13294,"Ġrevised":13295,"_statement":13296,"Case":13297,"LM":13298,"ĠatTop":13299,"Ġcarame":13300,"ADE":13301,"_usage":13302,"Ġbattery":13303,"Ġequilibrium":13304,")...":13305,"ĠseqA":13306,"Ġfolding":13307,"ĠJimmy":13308,"Row":13309,"dbinom":13310,"Ġthrew":13311,"_sk":13312,"_files":13313,"áµ¡":13314,"works":13315,"Ġappearing":13316,"_bills":13317,"Ġpitcher":13318,"Ġ=!![":13319,"ĠSales":13320,"ĠPBC":13321,"-six":13322,"nums":13323,"timal":13324,"_composite":13325,"Ġdart":13326,"ĠTanya":13327,"Ġrealizes":13328,"ĠJia":13329,"ronze":13330,"_direct":13331,"Polynomial":13332,"Ġlisa":13333,"Ġhidden":13334,"ĠSlope":13335,"ĠChapters":13336,"Ġarriving":13337,"Ġscoop":13338,"year":13339,"ĠTransform":13340,"Ten":13341,"ĠÃ":13342,"Ġmystery":13343,"_club":13344,"Normed":13345,"_paint":13346,"pieces":13347,"principal":13348,"Ġdivisions":13349,"Ġhighlight":13350,"Ġgrowing":13351,"requency":13352,"Ġlaunched":13353,"OF":13354,"atin":13355,"chart":13356,"_full":13357,"_but":13358,"-Î±":13359,"ĠSame":13360,"ĠPower":13361,"Ġ\\\\((-":13362,"ĠKen":13363,"-----------|":13364,"Ġiterate":13365,"Translate":13366,"outside":13367,"Lines":13368,"_dev":13369,"-fifths":13370,"Ġtrivially":13371,"cqcq":13372,"Ġsock":13373,"Ġdiametric":13374,"Ġexams":13375,"-choice":13376,"mag":13377,"pan":13378,"aren":13379,"ĠSan":13380,"uctu":13381,"*l":13382,"|$Ċ":13383,"ĠON":13384,"ĠJun":13385,"_equations":13386,"Start":13387,"Ġharvested":13388,"\\rho":13389,"overs":13390,"Ġproofs":13391,"_pyramid":13392,"Ġcontribute":13393,"Ġnothing":13394,"Ġexperi":13395,"Ġlitre":13396,"(K":13397,"ww":13398,"ĠBoris":13399,"ĠNina":13400,"_yards":13401,"_pct":13402,"ĠCall":13403,")}\\)":13404,"ĠÂłÂłÂłÂłÂłÂłÂłÂłÂłÂłÂłÂłÂł":13405,"Ġloaned":13406,"Ġvowel":13407,"_removal":13408,"Ġoperating":13409,"Ġadjusted":13410,"-liter":13411,">Ċ":13412,"rating":13413,"teed":13414,"_miss":13415,"Ġtiger":13416,"ksh":13417,"platform":13418,"Ġsurrounded":13419,"_interior":13420,"Ġcylinders":13421,".}\\":13422,"Ġ$-/":13423,"Ġemer":13424,"âŁ©âŁ©":13425,"Ġcarries":13426,"Ġmedic":13427,"ĠÂ±âĪļ":13428,"}}.Ċ":13429,"ĠKelly":13430,"Ġships":13431,"}}^{":13432,"Ġaunt":13433,"heit":13434,"_supp":13435,"_coffee":13436,"renheit":13437,"ahrenheit":13438,"score":13439,"ml":13440,"Ġmc":13441,"ripe":13442,"partial":13443,"Ġ\\\\((\\\\)":13444,"Ġprojectile":13445,":y":13446,"lvert":13447,"_na":13448,"ĠWest":13449,"ordinate":13450,"ĠJenna":13451,"limits":13452,"Ġbabies":13453,"_dozen":13454,"FC":13455,"Ġpredic":13456,"+Î²":13457,"Ġfestival":13458,"ĠFocus":13459,"_tournament":13460,"Ġaligned":13461,"Ġsew":13462,"Ġorganization":13463,"lad":13464,"endor":13465,"_cylinder":13466,"Ġmathematicians":13467,"iko":13468,"-P":13469,"move":13470,"yr":13471,"Ġisn":13472,"Ġsubsequence":13473,"-term":13474,"Ġillust":13475,",v":13476,"{is":13477,"ĠOur":13478,"Ġskate":13479,"Ġâĭ":13480,"Ġexcircle":13481,"Ġgrey":13482,"Ġflu":13483,"angulation":13484,"Ġkgs":13485,"ainst":13486,"Ġtight":13487,"ĠChloe":13488,"_param":13489,"ĠVictor":13490,"becca":13491,"yuan":13492,"Ð½":13493,"Ġfrac":13494,"ĠMil":13495,"ĠLight":13496,"Ġloads":13497,".mulVec":13498,"Ġoccurrences":13499,"Ġboats":13500,"_bi":13501,"ĠYang":13502,"_chocolate":13503,"Rational":13504,"irus":13505,"ĠThomas":13506,"Ġrepresentatives":13507,"uthor":13508,"}|=|\\":13509,"ĠLarry":13510,"Ġdifferential":13511,"Ġthrowers":13512,"ĠProfit":13513,"Ġ''":13514,"Ġ\\(-\\":13515,"ABE":13516,"ushes":13517,"ĠAlpha":13518,"atmeal":13519,"_scal":13520,"ĠOtherwise":13521,"Jane":13522,"]])":13523,"dies":13524,"$.)":13525,"Ġcomprehensive":13526,"_represent":13527,"added":13528,"})+\\":13529,"Ġcompetit":13530,"Compare":13531,"Ġpossibility":13532,")d":13533,"iny":13534,"Ġcumul":13535,"acts":13536,"ĠSundays":13537,"rowers":13538,"ĠKM":13539,"ĠRelation":13540,"({\\":13541,",~":13542,"essa":13543,"_bonus":13544,"Ġoccurred":13545,"Ġshooter":13546,"Ġstuffed":13547,"rich":13548,"))))Ċ":13549,"_dice":13550,"Ġlined":13551,"})\\)":13552,"risb":13553,"ĠPhil":13554,"Ġtrout":13555,"/kg":13556,"Ġbisc":13557,"Ġangular":13558,"Ġlilies":13559,"Ġturning":13560,"Ġbrands":13561,"Ġprofessors":13562,"/T":13563,"ala":13564,"_show":13565,"Ġbackwards":13566,"})$-/":13567,"(size":13568,"ĠTeacher":13569,"Ġfewest":13570,"Li":13571,"athy":13572,"_socks":13573,"ĠLM":13574,"_additional":13575,"Ġblankets":13576,"/R":13577,"eres":13578,"Ġrac":13579,"ĠHyd":13580,"agram":13581,"_shots":13582,"Ġteaching":13583,"Ġoccupies":13584,"=z":13585,"BX":13586,"CK":13587,"Ms":13588,"Tick":13589,"ĠTest":13590,"lying":13591,"_test":13592,"Ġcheap":13593,"Ġrubber":13594,"graf":13595,"erts":13596,"(\\\\)":13597,"Ġ______,":13598,"Ġlanguages":13599,"miles":13600,"ĠRahul":13601,"Ġjune":13602,"ĠQue":13603,"Ġfalling":13604,"ĠCardinal":13605,"[(":13606,"}]$.":13607,"Ġcoming":13608,"Ġhike":13609,"Ġsunflower":13610,"}z":13611,"ĠMegan":13612,"_permut":13613,"ells":13614,"ĠKay":13615,"Ġconcave":13616,"Year":13617,"isor":13618,"ĠMD":13619,"Ġgiraff":13620,"Ġconsume":13621,"Ġalmost":13622,".image":13623,"Ġquarterly":13624,"Ġstripe":13625,"$</":13626,"Am":13627,"cf":13628,"_pole":13629,"Ġrotten":13630,"Ġwashed":13631,"Ġcarrot":13632,"Ġdried":13633,"_costs":13634,"ĠSI":13635,"Ġintensity":13636,"Ġmarsh":13637,"Ġreported":13638,")P":13639,"phones":13640,"Ġdeparts":13641,"Ġspecify":13642,"Ġreference":13643,"}}+{{":13644,"_region":13645,"Ġassemb":13646,"/B":13647,"_pyth":13648,"Ġcanoes":13649,"ppings":13650,"Ġsixteen":13651,"Reference":13652,"ĠNeg":13653,"Ġdilation":13654,"tracting":13655,"Ġsimplifications":13656,"Ġprovisions":13657,",G":13658,"rov":13659,"Ġdining":13660,"ĠAce":13661,"Ġjewel":13662,"Ġfluctu":13663,"Ġguaranteed":13664,"_donation":13665,"Ġdwarfs":13666,"'\\),":13667,"sw":13668,"_trig":13669,"yclist":13670,"âĹĭ":13671,"/sqrt":13672,"Apply":13673,"Paul":13674,"_answers":13675,"thus":13676,"ĠBrown":13677,"ĠForm":13678,"ota":13679,"_cour":13680,"Ġposted":13681,"Ġverified":13682,"Ġpersonal":13683,"Ġcitizens":13684,"Chr":13685,"Ġgn":13686,"Ġobtaining":13687,"Ġfrost":13688,"Ġaccommodate":13689,"Ġdiametrically":13690,"hdiv":13691,"ĠIdentify":13692,"amele":13693,"_sqft":13694,"âģ¸":13695,"].Ċ":13696,"ĠBound":13697,"Ġfriendship":13698,"_imaginary":13699,"weekly":13700,"Ġprogressions":13701,"necessary":13702,"))|":13703,"peti":13704,"Thursday":13705,"ĠABP":13706,"Ġbrevity":13707,"Ġscientists":13708,"igning":13709,"_centers":13710,"ĠNoah":13711,"Arrange":13712,"Ġpetrol":13713,"ĠRussian":13714,"_songs":13715,"))$,":13716,"Ġstays":13717,"Ġshr":13718,"}}$-/":13719,"Ġaccomp":13720,"Ġloves":13721,"(cos":13722,"Maria":13723,"Ro":13724,"}M":13725,"enge":13726,"ĠAre":13727,"Ġ\\\\(\\\\":13728,"effective":13729,"AAAA":13730,"Ġordinate":13731,"Ġpopsic":13732,"Ġthin":13733,"ĠCz":13734,"Ġcodes":13735,"Ġbasil":13736,"Ġrequiring":13737,"Ġcommutative":13738,"/day":13739,"Good":13740,"idents":13741,"$.čĊčĊ":13742,"hasDerivAt":13743,"Ġversa":13744,".odd":13745,"unning":13746,"stract":13747,"_crayons":13748,"_bur":13749,"fected":13750,"Ġcalend":13751,"Ġexchanged":13752,"+v":13753,"Ġhgt":13754,"roids":13755,"Ġdsimp":13756,"Ġstyle":13757,"Ġtrade":13758,"summary":13759,"Ġsnail":13760,"Ġelectronics":13761,"ĠRepublic":13762,"-adjacent":13763,"]]Ċ":13764,"Ġtiss":13765,"ĠDaily":13766,"Ġconditional":13767,"uffy":13768,"Ġjersey":13769,"ĠInequality":13770,".E":13771,"<y":13772,"{h":13773,"roy":13774,"Ġwealth":13775,"orses":13776,"indi":13777,"ĠJuli":13778,"lications":13779,"others":13780,"Ġhiker":13781,"Equal":13782,"Ġsessions":13783,"Pi":13784,"_ed":13785,"Ġaf":13786,").$-/":13787,"Ġveg":13788,"Ġpaperback":13789,"Ġinterested":13790,"ordered":13791,"\\;\\;":13792,"Te":13793,"_pig":13794,"Ġvict":13795,"+D":13796,"oop":13797,"Ġspro":13798,"}$\",(":13799,"_focal":13800,"ĠGo":13801,"Ġcontents":13802,"raders":13803,"...,":13804,"Ġhh":13805,"Ġjason":13806,"Ġchamele":13807,"Ġswapped":13808,"ĠBeijing":13809,".center":13810,"ometer":13811,"Ġdipl":13812,"Ġplots":13813,"riple":13814,"ĠSpanish":13815,".perpendicular":13816,"Ġstocks":13817,"_rad":13818,"_teams":13819,"_windows":13820,"Ġdenominations":13821,"retch":13822,"}}}{{{":13823,"Ġdeparture":13824,"ĠRoute":13825,"Ġdamaged":13826,"_breadth":13827,"Ġpentagons":13828,"che":13829,"^+":13830,"`,":13831,"ÑĢ":13832,"ĠSegments":13833,"Ġdied":13834,"Ġshipment":13835,"=dir":13836,"RT":13837,"Ġbuns":13838,"Ġrachel":13839,"Ġki":13840,"Ġstmt":13841,"=false":13842,"Ġexperiments":13843,"Ġclimbing":13844,"Ġindefinitely":13845,".monomial":13846,"_ate":13847,"ervation":13848,"ĠWal":13849,"Ġunf":13850,"/aâĤĻ":13851,"}^*$":13852,"\\\\()\\\\)Ċ":13853,"ĠSamantha":13854,"Result":13855,"Ġnodes":13856,"overpar":13857,"ommy":13858,"ighbor":13859,"_passed":13860,"Ġbouquets":13861,"overparen":13862,"{XY":13863,"}S":13864,"Ġnut":13865,"ĠMad":13866,"\\);":13867,"\\);Ċ":13868,"ĠEn":13869,"Ġsaus":13870,"extend":13871,"Ġcategories":13872,"Ġpolicy":13873,"_ABCD":13874,"ded":13875,"{proj":13876,"ĠRow":13877,"Ġethanol":13878,"Ġwish":13879,"Ġgolf":13880,"haw":13881,"Ġconnections":13882,"tilde":13883,"Integ":13884,"Ġranks":13885,"Ġanalyze":13886,"_phot":13887,"Ġtelescoping":13888,"ĠAL":13889,"Ġide":13890,"_des":13891,"ĠEither":13892,"Ġdonate":13893,"Ġomitted":13894,"'}(":13895,"ĠRose":13896,"Ġpropos":13897,"(pic":13898,"Ġcyclists":13899,"Ġofficer":13900,"ĠDisjoint":13901,"Ġtablespoons":13902,"-like":13903,"Ġ${(":13904,"Ġgrains":13905,")\\).-/":13906,"Ġvacu":13907,"HM":13908,"Ġwings":13909,"ĠEve":13910,"_birth":13911,"Ġfred":13912,"Ġ/*":13913,"_painting":13914,"_cart":13915,"Ġ$((":13916,"Ġnonagon":13917,"Ġsurveys":13918,"Ġseedlings":13919,"Ġpolitics":13920,"\"?":13921,"Side":13922,"`.Ċ":13923,"_apply":13924,"Ġanalyzing":13925,"Ġstronger":13926,"Face":13927,"alie":13928,"_bed":13929,"Ġeverywhere":13930,"Place":13931,"Ġinstrument":13932,"ĠGames":13933,"Ġserves":13934,"Ġstored":13935,"*T":13936,"Box":13937,"aque":13938,"xâĤĻ":13939,"ume":13940,"ĠMedian":13941,"ĠFermat":13942,"Ġjug":13943,"weeks":13944,"Ġ\\\\(|":13945,"Ġpasta":13946,"Ġconverting":13947,"ĠClara":13948,":**":13949,"Degree":13950,"]Round":13951,"sal":13952,"Ġcable":13953,"_low":13954,".const":13955,"Ġaccidentally":13956,"Ġfertilizer":13957,"ĠCup":13958,"ĠÎ·":13959,"ĠLittle":13960,"Ġdenomination":13961,"_sixty":13962,"&=":13963,"ND":13964,"Ġboots":13965,"Ġtrash":13966,"ensen":13967,"Ġbiased":13968,"ï¼ľ\\":13969,"âĪ©B":13970,"_vec":13971,"arrangement":13972,"Ġmoon":13973,"_conv":13974,"Ġorientation":13975,"voir":13976,"Den":13977,"ĺħ":13978,"inery":13979,"lean":13980,"Ġhca":13981,"Ġprovides":13982,"Ġbeautiful":13983,"_delay":13984,"Ġchores":13985,"Ġimplementation":13986,"ĠJapanese":13987,",H":13988,"ening":13989,"onda":13990,"Ġcircumcenters":13991,"Ġobserves":13992,"Ġrestrictions":13993,"_axes":13994,"Ġtechnicians":13995,"rish":13996,"tuce":13997,"uv":13998,"Ġpeter":13999,"ĠBL":14000,"Ġrecall":14001,"Ġï¼īĊ":14002,"tail":14003,"Ġ;Ċ":14004,"ĠDerek":14005,"ĠUpon":14006,"psi":14007,"Ġwolf":14008,"Ġmarking":14009,"Ġlogs":14010,"Ġmeetings":14011,"Ġstationery":14012,"David":14013,"ï¬":14014,"Ġbit":14015,"Ġlen":14016,"ircular":14017,"Ġdifferently":14018,"Ġfinishing":14019,"_quadrilateral":14020,",xmax":14021,"Ġbulk":14022,"Ġtranslating":14023,"ĠInterest":14024,"Ġconsonants":14025,"Ġpal":14026,"Ġportions":14027,"ĠCBD":14028,"ĠWilliam":14029,"_kids":14030,"ADC":14031,"Ġindependence":14032,"{OM":14033,"Ġsteak":14034,"ĠPrincipal":14035,"orus":14036,"embers":14037,"_expense":14038,"Ġdeviations":14039,"oincident":14040,"Initially":14041,"Jerry":14042,"Ġdashed":14043,"ema":14044,"_fuel":14045,"_board":14046,"Ġexisting":14047,"Ġrainy":14048,"road":14049,"_inf":14050,"_ap":14051,"Ġsweaters":14052,"Ġacquaintances":14053,"}e":14054,"Ġnood":14055,"tank":14056,"\\\\((\\\\)":14057,"|---------|":14058,"_adult":14059,"_remain":14060,"Are":14061,"olars":14062,"_scale":14063,"_earned":14064,"}^{*}$,":14065,"Ġinstantaneous":14066,"Ġ(__":14067,"eniors":14068,"Ġny":14069,"bob":14070,"Ġparent":14071,"Ġreb":14072,"pects":14073,"Ġ.$":14074,"Ġprevent":14075,"Ġforgot":14076,"Comb":14077,"Jim":14078,"Jason":14079,"attice":14080,"Ġthings":14081,"Ġ}-":14082,"Ġbrokerage":14083,"Ġhelps":14084,"ĠEquilateral":14085,"Ġorchids":14086,"Ġactions":14087,"passing":14088,">-":14089,"_Î¸":14090,"Ġbones":14091,"_pears":14092,"adult":14093,"}})^":14094,"ĠIsP":14095,"Ġbroad":14096,"_filling":14097,"zabeth":14098,"jun":14099,"Ġ\\):":14100,"ĠOnce":14101,"Ġnumerically":14102,"Ġreservoir":14103,"Numbers":14104,"Ġcages":14105,"Ġcrease":14106,"Ġchannel":14107,"Rect":14108,")))).":14109,"{PM":14110,"Ġinventory":14111,"ĠMy":14112,"Ġclay":14113,"Ġspiders":14114,"Ġwitnesses":14115,"Ġhydrogen":14116,"Squares":14117,"jin":14118,"ĠCAB":14119,"Ġzone":14120,"ickness":14121,"ĠÏĦ":14122,"Ġrefers":14123,"_shirt":14124,"Ġenemies":14125,"ĠBPC":14126,"Ġvillages":14127,"Ġ::":14128,"tsh":14129,"Ġvendor":14130,"Ġcheckers":14131,"Ġturtle":14132,"either":14133,"fra":14134,"ĠĠĠĠĠĠĠĠĠĠĠĠĠĠĠĠĠĠĠĠĠĠĠĠĠĠĠĠĠĠĠĠĠĠĠ":14135,"_hats":14136,"Ġreversing":14137,"Ste":14138,"_leq":14139,"Ġlas":14140,"Operation":14141,"ocenter":14142,"ĠGold":14143,"Ġbackyard":14144,"integer":14145,"'(-":14146,"Ġ_{\\":14147,"Ġcold":14148,"ĠChe":14149,"Ġconting":14150,"Ġ______;":14151,"Ġdesc":14152,"Ġevaluating":14153,"Ġcharacteristics":14154,"Ġclimbs":14155,"Ġquadruple":14156,"Ġmicro":14157,"Ġhabc":14158,"licia":14159,"Ġmagazine":14160,"ĠBrenda":14161,"ĠCX":14162,"Ġfunext":14163,"ĠJar":14164,"Classical":14165,"Multip":14166,"|}$":14167,"Ġlhs":14168,"_satisfies":14169,"berto":14170,"Ġvieta":14171,"Ġflagpole":14172,"ĠMelanie":14173,"_freq":14174,"Ġleader":14175,"*ln":14176,"apping":14177,"ĠRos":14178,"ĠRoger":14179,"Ġforec":14180,"},\\]":14181,"_selected":14182,"Ġpasture":14183,"_intervals":14184,"Ġentering":14185,"rally":14186,"ĠRest":14187,"_females":14188,"adian":14189,"ĠConvex":14190,"}âĢ¢\\":14191,"%$":14192,"ĠCI":14193,"Ġcanoe":14194,"mathit":14195,"Ġwaste":14196,"Ġsurfaces":14197,"Ġkilos":14198,"hABC":14199,"olic":14200,"ĠvA":14201,"Ġkate":14202,"Ġlettuce":14203,"ĠHistory":14204,"Ġcentroids":14205,"Ġrecycling":14206,"_hits":14207,"Ġserial":14208,"Ġmillet":14209,"Ġdislike":14210,"_multiples":14211,"Ġconfir":14212,"_package":14213,"Ġowes":14214,"rat":14215,"Ġhaw":14216,"Ġaluminum":14217,"}}{{{":14218,"_bounded":14219,"Ġaccuracy":14220,"Ġ_______.-/":14221,"_ft":14222,"cel":14223,"}})$":14224,".col":14225,"ĠDifferentiableOn":14226,"_deposit":14227,"_statements":14228,"*N":14229,"-of":14230,"ĠBlack":14231,"parents":14232,"ominator":14233,"Ġpowder":14234,"_twice":14235,"Ġindicating":14236,"Ġrupee":14237,"Ġcashier":14238,"sale":14239,"aten":14240,"Ġropes":14241,"_soda":14242,"ĠPokemon":14243,"savings":14244,")t":14245,"ĠangleD":14246,"ĠKat":14247,"ĠABCDEF":14248,"][/":14249,"Ġpour":14250,"Ġtshirt":14251,"ĠBeta":14252,"agles":14253,"rangements":14254,"traight":14255,"Ġerrors":14256,"ĠUnited":14257,"Ġdeducted":14258,"Ġnap":14259,"Ġrefine":14260,"_worked":14261,"Ġtries":14262,"Ġhappens":14263,"Ġcontingency":14264,":x":14265,"YX":14266,"ĠSA":14267,"_dollar":14268,"ĠHCF":14269,"rops":14270,"Ġopaque":14271,"_standard":14272,"Ġrained":14273,"\\)).":14274,"orothy":14275,"egrass":14276,"aylor":14277,"Ġoak":14278,"_rhs":14279,"Ġsalmon":14280,"Ġdesks":14281,"daugh":14282,"Ġbelonging":14283,"Ġarguments":14284,"ĠSilvia":14285,"''$":14286,"Ġidentically":14287,"ĠBarbara":14288,"*Complex":14289,"App":14290,"Ben":14291,"Ġflo":14292,"_straw":14293,"life":14294,"enarios":14295,"Ġretirement":14296,",sqrt":14297,"Now":14298,"ĠcâĤĻ":14299,"ĠEur":14300,"Ġcentimeter":14301,"Ġbuildings":14302,"_attendance":14303,"hdist":14304,"Ġbol":14305,"ĠTed":14306,"_bul":14307,"omino":14308,"_BE":14309,"Coeff":14310,"Arry":14311,"Arrx":14312,"Ġorganizing":14313,"Joe":14314,"}D":14315,"Ġdar":14316,"Ġexec":14317,"ĠDAB":14318,"Ġtrading":14319,"_parameter":14320,"Ġestablishing":14321,"ĠJohnson":14322,"bounded":14323,"Ġglobal":14324,"%\",":14325,"[a":14326,"gb":14327,"vit":14328,"{gcd":14329,"cher":14330,"Ġdisplacement":14331,"ĠAmanda":14332,"Ġfat":14333,"Ġrelay":14334,"Ġsufficiently":14335,"_journey":14336,"erald":14337,"Ġbouquet":14338,"-ÏĢ":14339,"Ġsearch":14340,"ĠLower":14341,".fold":14342,"inclusive":14343,"_continuous":14344,"ĠAED":14345,"Second":14346,"TU":14347,"(\"%\",":14348,"pling":14349,"Coloring":14350,"Triangles":14351,"Ob":14352,"Shape":14353,"some":14354,"ĠFill":14355,"_smallest":14356,"Ġdies":14357,"Ġquadruplets":14358,"_pizzas":14359,"Ġbookshelf":14360,".subset":14361,"grade":14362,"Ġslide":14363,"_males":14364,"Ġ\\\\),":14365,"Ġreflects":14366,"Ġmanagement":14367,"Divide":14368,"Ġaccept":14369,"_modulus":14370,"_parity":14371,"Ġdodecahedron":14372,"Ġmp":14373,"Ġforth":14374,"_lap":14375,"elsius":14376,"Ġsituated":14377,"(rotate":14378,"BL":14379,"alia":14380,"Ġhneg":14381,"ĠBreak":14382,"osis":14383,"Ġdefeated":14384,"Ġrecently":14385,"ĠIsEven":14386,"ottom":14387,"Ġenclose":14388,"Ġscaled":14389,"itten":14390,"'A":14391,"-Î²":14392,"SP":14393,"ĠFahrenheit":14394,"ĠDM":14395,"Ġhandles":14396,"_selections":14397,"ĠLu":14398,"ĠKatie":14399,"Ġhamburger":14400,"Ġbracket":14401,">+":14402,"}}$.ĊĊ":14403,"Ġemma":14404,"Ġwiz":14405,"Ġfunc":14406,"ppy":14407,"(j":14408,"ĠSouth":14409,"fting":14410,"Ġproportions":14411,"enced":14412,"Ġnaturals":14413,"Ġcleared":14414,"Ġbarrels":14415,"Ġpotential":14416,"Ġcriter":14417,"ĠFerris":14418,")n":14419,"double":14420,"etical":14421,"Ġ|âĪĳ":14422,"ĠWin":14423,"ĠEvents":14424,"ĠAns":14425,"Ġguit":14426,"ategory":14427,"Ġfrequencies":14428,"ĠRemainder":14429,"-ex":14430,"Ġfrench":14431,"Ġinverses":14432,"ĠSoph":14433,"_infinite":14434,"_chips":14435,"Ġresidues":14436,"_collection":14437,"Ġutilities":14438,"ÌĦ":14439,"olanda":14440,"achable":14441,"_beans":14442,"Ġcharlie":14443,"expressed":14444,"]$.Ċ":14445,"lee":14446,"asty":14447,"Ġamgm":14448,"_caps":14449,"Arg":14450,"ĠBEC":14451,"Ġcompete":14452,"alph":14453,"ĠFl":14454,"))(":14455,"_conver":14456,"\\\\).ĊĊ":14457,"$\".ĊĊ":14458,"starting":14459,"_brother":14460,"_ifs":14461,"Ġpatch":14462,"Ġcompounds":14463,"_forward":14464,"cellent":14465,"Ġtraditional":14466,"purchase":14467,"Ġcement":14468,"_crit":14469,"expr":14470,"ĠVas":14471,"Ġspade":14472,"cook":14473,"loves":14474,"vince":14475,"}ÏĢ":14476,"Ġsixes":14477,"Isosceles":14478,"uzzles":14479,"ettes":14480,"Ġunic":14481,"ĠâŁ¨_,":14482,"Ġbijection":14483,"ĠAlbert":14484,"Ġsuccessively":14485,"Ġcrawls":14486,"Ġrenov":14487,"Ġawards":14488,"ĠRick":14489,"Ġtotient":14490,"ĠâĪĳ(":14491,"_success":14492,")]^":14493,"Ġgathered":14494,"stackrel":14495,"+S":14496,"PY":14497,"emma":14498,"ĠPopulation":14499,"Ġmidnight":14500,"Ġadmin":14501,"Char":14502,"ÎĶx":14503,"ineg":14504,"Ġinclined":14505,"_fractions":14506,"Convex":14507,"Ġnoodles":14508,"|$ĊĊ":14509,"Ġmower":14510,"ĠBa":14511,"engu":14512,"expand":14513,"aisy":14514,")|\\":14515,"Ġ)\\":14516,"Ġpadd":14517,"Ġfountain":14518,
[...]
